{
  "version": "1.0",
  "truncation": null,
  "padding": null,
  "added_tokens": [
    {
      "id": 0,
      "content": "<s>",
      "single_word": false,
      "lstrip": false,
      "rstrip": false,
      "normalized": false,
      "special": true
    },
    {
      "id": 1,
      "content": "<pad>",
      "single_word": false,
      "lstrip": false,
      "rstrip": false,
      "normalized": false,
      "special": true
    },
    {
      "id": 2,
      "content": "</s>",
      "single_word": false,
      "lstrip": false,
      "rstrip": false,
      "normalized": false,
      "special": true
    },
    {
      "id": 3,
      "content": "[UNK]",
      "single_word": false,
      "lstrip": false,
      "rstrip": false,
      "normalized": false,
      "special": true
    },
    {
      "id": 4,
      "content": "<mask>",
      "single_word": false,
      "lstrip": false,
      "rstrip": false,
      "normalized": false,
      "special": true
    }
  ],
  "normalizer": null,
  "pre_tokenizer": {
    "type": "ByteLevel",
    "add_prefix_space": false,
    "trim_offsets": true,
    "use_regex": true
  },
  "post_processor": null,
  "decoder": {
    "type": "ByteLevel",
    "add_prefix_space": true,
    "trim_offsets": true,
    "use_regex": true
  },
  "model": {
    "type": "BPE",
    "dropout": null,
    "unk_token": "[UNK]",
    "continuing_subword_prefix": null,
    "end_of_word_suffix": null,
    "fuse_unk": false,
    "byte_fallback": false,
    "ignore_merges": false,
    "vocab": {
      "<s>": 0,
      "<pad>": 1,
      "</s>": 2,
      "[UNK]": 3,
      "<mask>": 4,
      "!": 5,
      "\"": 6,
      "#": 7,
      "$": 8,
      "%": 9,
      "&": 10,
      "'": 11,
      "(": 12,
      ")": 13,
      "*": 14,
      "+": 15,
      ",": 16,
      "-": 17,
      ".": 18,
      "/": 19,
      "0": 20,
      "1": 21,
      "2": 22,
      "3": 23,
      "4": 24,
      "5": 25,
      "6": 26,
      "7": 27,
      "8": 28,
      "9": 29,
      ":": 30,
      ";": 31,
      "<": 32,
      "=": 33,
      ">": 34,
      "?": 35,
      "@": 36,
      "A": 37,
      "B": 38,
      "C": 39,
      "D": 40,
      "E": 41,
      "F": 42,
      "G": 43,
      "H": 44,
      "I": 45,
      "J": 46,
      "K": 47,
      "L": 48,
      "M": 49,
      "N": 50,
      "O": 51,
      "P": 52,
      "Q": 53,
      "R": 54,
      "S": 55,
      "T": 56,
      "U": 57,
      "V": 58,
      "W": 59,
      "X": 60,
      "Y": 61,
      "Z": 62,
      "[": 63,
      "\\": 64,
      "]": 65,
      "^": 66,
      "_": 67,
      "`": 68,
      "a": 69,
      "b": 70,
      "c": 71,
      "d": 72,
      "e": 73,
      "f": 74,
      "g": 75,
      "h": 76,
      "i": 77,
      "j": 78,
      "k": 79,
      "l": 80,
      "m": 81,
      "n": 82,
      "o": 83,
      "p": 84,
      "q": 85,
      "r": 86,
      "s": 87,
      "t": 88,
      "u": 89,
      "v": 90,
      "w": 91,
      "x": 92,
      "y": 93,
      "z": 94,
      "{": 95,
      "|": 96,
      "}": 97,
      "~": 98,
      "¡": 99,
      "¢": 100,
      "£": 101,
      "¤": 102,
      "¥": 103,
      "¦": 104,
      "§": 105,
      "¨": 106,
      "©": 107,
      "ª": 108,
      "«": 109,
      "¬": 110,
      "®": 111,
      "¯": 112,
      "°": 113,
      "±": 114,
      "²": 115,
      "³": 116,
      "´": 117,
      "µ": 118,
      "¶": 119,
      "·": 120,
      "¸": 121,
      "¹": 122,
      "º": 123,
      "»": 124,
      "¼": 125,
      "½": 126,
      "¾": 127,
      "¿": 128,
      "Â": 129,
      "Ã": 130,
      "Ä": 131,
      "Å": 132,
      "Æ": 133,
      "Ç": 134,
      "È": 135,
      "É": 136,
      "Ê": 137,
      "Ë": 138,
      "Ì": 139,
      "Í": 140,
      "Î": 141,
      "Ï": 142,
      "Ð": 143,
      "Ñ": 144,
      "Ò": 145,
      "Ó": 146,
      "Ô": 147,
      "Õ": 148,
      "Ö": 149,
      "×": 150,
      "Ø": 151,
      "Ù": 152,
      "Ú": 153,
      "Û": 154,
      "Þ": 155,
      "ß": 156,
      "à": 157,
      "á": 158,
      "â": 159,
      "ã": 160,
      "ä": 161,
      "å": 162,
      "æ": 163,
      "ç": 164,
      "è": 165,
      "é": 166,
      "ê": 167,
      "ë": 168,
      "ì": 169,
      "í": 170,
      "î": 171,
      "ï": 172,
      "ð": 173,
      "ó": 174,
      "ā": 175,
      "Ă": 176,
      "ă": 177,
      "Ą": 178,
      "ć": 179,
      "ĉ": 180,
      "Ċ": 181,
      "Ę": 182,
      "ę": 183,
      "Ě": 184,
      "ğ": 185,
      "Ġ": 186,
      "ġ": 187,
      "Ģ": 188,
      "ģ": 189,
      "Ĥ": 190,
      "ĥ": 191,
      "Ħ": 192,
      "ħ": 193,
      "Ĩ": 194,
      "ĩ": 195,
      "Ī": 196,
      "ī": 197,
      "Ĭ": 198,
      "ĭ": 199,
      "Į": 200,
      "į": 201,
      "İ": 202,
      "ı": 203,
      "Ĳ": 204,
      "ĳ": 205,
      "Ĵ": 206,
      "ĵ": 207,
      "Ķ": 208,
      "ķ": 209,
      "ĸ": 210,
      "Ĺ": 211,
      "ĺ": 212,
      "Ļ": 213,
      "ļ": 214,
      "Ľ": 215,
      "ľ": 216,
      "Ŀ": 217,
      "ŀ": 218,
      "Ł": 219,
      "ł": 220,
      "Ń": 221,
      "de": 222,
      "Ġe": 223,
      "Ġde": 224,
      "os": 225,
      "Ġl": 226,
      "Ġp": 227,
      "Ġc": 228,
      "ar": 229,
      "en": 230,
      "er": 231,
      "Ġa": 232,
      "es": 233,
      "as": 234,
      "on": 235,
      "Ġs": 236,
      "ci": 237,
      "or": 238,
      "an": 239,
      "ue": 240,
      "ad": 241,
      "Ġm": 242,
      "al": 243,
      "in": 244,
      "Ġla": 245,
      "Ġen": 246,
      "Ã³": 247,
      "que": 248,
      "un": 249,
      "re": 250,
      "Ġt": 251,
      "st": 252,
      "Ġy": 253,
      "Ġque": 254,
      "ent": 255,
      "Ġel": 256,
      "ic": 257,
      "ÃŃ": 258,
      "Ã¡": 259,
      "Ġcon": 260,
      "Ã³n": 261,
      "Ġun": 262,
      "om": 263,
      "Ġn": 264,
      "ra": 265,
      "Ġh": 266,
      "ro": 267,
      "id": 268,
      "Ġd": 269,
      "ti": 270,
      "Ġse": 271,
      "Ġf": 272,
      "aci": 273,
      "am": 274,
      "Ġv": 275,
      "te": 276,
      "Ġes": 277,
      "Ġpar": 278,
      "Ġlos": 279,
      "ol": 280,
      "Ġest": 281,
      "do": 282,
      "Ã©": 283,
      "Ġo": 284,
      "Ġin": 285,
      "Ġre": 286,
      "le": 287,
      "to": 288,
      "ĠC": 289,
      "ta": 290,
      "is": 291,
      "Ġsu": 292,
      "Ġdel": 293,
      "ado": 294,
      "ĠE": 295,
      "ri": 296,
      "Ġcom": 297,
      "ec": 298,
      "res": 299,
      "Ġal": 300,
      "ab": 301,
      "Ġpara": 302,
      "Ġb": 303,
      "Ġpor": 304,
      "ĠA": 305,
      "Ġlas": 306,
      "ĠP": 307,
      "Ġg": 308,
      "aciÃ³n": 309,
      "ĠS": 310,
      "il": 311,
      "mp": 312,
      "ente": 313,
      "Ã±": 314,
      "ĠM": 315,
      "Ġuna": 316,
      "ul": 317,
      "di": 318,
      "ÃŃa": 319,
      "Ġno": 320,
      "it": 321,
      "qu": 322,
      "ac": 323,
      "Ġpro": 324,
      "ĠL": 325,
      "ur": 326,
      "ist": 327,
      "Ã¡s": 328,
      "el": 329,
      "ones": 330,
      "ien": 331,
      "io": 332,
      "ter": 333,
      "Ġper": 334,
      "ciÃ³n": 335,
      "tr": 336,
      "ĠD": 337,
      "Ġ2": 338,
      "Ġcu": 339,
      "ir": 340,
      "ada": 341,
      "ig": 342,
      "uc": 343,
      "ma": 344,
      "ia": 345,
      "us": 346,
      "Ġlo": 347,
      "Ġme": 348,
      "lo": 349,
      "la": 350,
      "Ġ1": 351,
      "ici": 352,
      "idad": 353,
      "Ãº": 354,
      "Ġdes": 355,
      "iz": 356,
      "ient": 357,
      "Ġac": 358,
      "da": 359,
      "ier": 360,
      "ica": 361,
      "tiv": 362,
      "ĠT": 363,
      "go": 364,
      "ie": 365,
      "tos": 366,
      "ales": 367,
      "im": 368,
      "Ġ(": 369,
      "cia": 370,
      "ando": 371,
      "ĠR": 372,
      "Ġex": 373,
      "Ġcomo": 374,
      "Ġto": 375,
      "ĠmÃ¡s": 376,
      "tu": 377,
      "ido": 378,
      "ĠB": 379,
      "ues": 380,
      "oc": 381,
      "tor": 382,
      "aj": 383,
      "iv": 384,
      "bre": 385,
      "..": 386,
      "ico": 387,
      "ran": 388,
      "ida": 389,
      "ados": 390,
      "Ġha": 391,
      "ĠG": 392,
      "em": 393,
      "Ã¡n": 394,
      "ĠN": 395,
      "ĠF": 396,
      "Ġj": 397,
      "den": 398,
      "Ġi": 399,
      "mo": 400,
      "Ġ20": 401,
      "tes": 402,
      "ĠI": 403,
      "se": 404,
      "Ġser": 405,
      "Ġan": 406,
      "âĢ": 407,
      "des": 408,
      "ante": 409,
      "per": 410,
      "ten": 411,
      "tra": 412,
      "Ġso": 413,
      "tar": 414,
      "Ġcomp": 415,
      "Ġdi": 416,
      "ador": 417,
      "Ġ\"": 418,
      "Ġtra": 419,
      "gu": 420,
      "tro": 421,
      "Ġres": 422,
      "iÃ³n": 423,
      "um": 424,
      "ib": 425,
      "Ġap": 426,
      "uer": 427,
      "orm": 428,
      "Ġpue": 429,
      "ios": 430,
      "ero": 431,
      "iento": 432,
      "amb": 433,
      "ĠH": 434,
      "ch": 435,
      "ĠV": 436,
      "ap": 437,
      "Ġpo": 438,
      "der": 439,
      "Ġle": 440,
      "Ġqu": 441,
      "dad": 442,
      "Ġpre": 443,
      "at": 444,
      "ĠJ": 445,
      "Ã©n": 446,
      "Ġpr": 447,
      "Ġte": 448,
      "Ġten": 449,
      "tas": 450,
      "Ġsus": 451,
      "era": 452,
      "aÃ±": 453,
      "ez": 454,
      "ras": 455,
      "ĠU": 456,
      "ru": 457,
      "Ġsi": 458,
      "bl": 459,
      "tre": 460,
      "onal": 461,
      "amos": 462,
      "00": 463,
      "cu": 464,
      "ay": 465,
      "Ġas": 466,
      "ce": 467,
      "dos": 468,
      "Ġeste": 469,
      "Ġar": 470,
      "po": 471,
      "amente": 472,
      "uch": 473,
      "aciones": 474,
      "uy": 475,
      "pe": 476,
      "co": 477,
      "Ġman": 478,
      "gar": 479,
      "Ġhac": 480,
      "Ġimp": 481,
      "ĠaÃ±": 482,
      "con": 483,
      "Ġdis": 484,
      "ca": 485,
      "encia": 486,
      "mente": 487,
      "El": 488,
      "ara": 489,
      "ĠÂ": 490,
      "ĠO": 491,
      "duc": 492,
      "ĠEl": 493,
      "gun": 494,
      "Ġpres": 495,
      "rim": 496,
      "Ġhab": 497,
      "ina": 498,
      "uev": 499,
      "adas": 500,
      "Ġtien": 501,
      "Ġsin": 502,
      "Ġcas": 503,
      "aliz": 504,
      "Ã©s": 505,
      "ĠLa": 506,
      "ambi": 507,
      "fer": 508,
      "Ġpers": 509,
      "ores": 510,
      "ust": 511,
      "Ġr": 512,
      "Ġson": 513,
      "por": 514,
      "Ġ201": 515,
      "ga": 516,
      "ens": 517,
      "ana": 518,
      "les": 519,
      "ciones": 520,
      "Ġpero": 521,
      "ento": 522,
      "ario": 523,
      "lan": 524,
      "ers": 525,
      "je": 526,
      "ĠEn": 527,
      "los": 528,
      "tros": 529,
      "Ġinter": 530,
      "za": 531,
      "Ġesta": 532,
      "Ġmo": 533,
      "las": 534,
      "Ġsobre": 535,
      "Ġpas": 536,
      "Ãºn": 537,
      "ces": 538,
      "Ġcar": 539,
      "Ġ-": 540,
      "cl": 541,
      "no": 542,
      "mos": 543,
      "cul": 544,
      "ĠEst": 545,
      "entes": 546,
      "Ġsol": 547,
      "Ġentre": 548,
      "Ġpa": 549,
      "icos": 550,
      "mb": 551,
      "La": 552,
      "Ġcons": 553,
      "Ġemp": 554,
      "ĠIn": 555,
      "cias": 556,
      "Ġ3": 557,
      "emos": 558,
      "Ġdeb": 559,
      "ora": 560,
      "iemp": 561,
      "Ġor": 562,
      "Ġlle": 563,
      "icas": 564,
      "eg": 565,
      "Ġob": 566,
      "ambiÃ©n": 567,
      "Ġtu": 568,
      "na": 569,
      "Ġinf": 570,
      "oci": 571,
      "baj": 572,
      "ech": 573,
      "ud": 574,
      "Ġmuch": 575,
      "cion": 576,
      "ĠEs": 577,
      "Ġver": 578,
      "if": 579,
      "Ġnues": 580,
      "oy": 581,
      "enta": 582,
      "eb": 583,
      "Ġsal": 584,
      "Ġya": 585,
      "pon": 586,
      "Ġmej": 587,
      "...": 588,
      "Ġmis": 589,
      "eces": 590,
      "Ġpos": 591,
      "Ġcor": 592,
      "rec": 593,
      "Ġnos": 594,
      "dr": 595,
      "jo": 596,
      "Ġab": 597,
      "ÃŃn": 598,
      "ut": 599,
      "ĠâĢ": 600,
      "Ġnuev": 601,
      "Ġmuy": 602,
      "able": 603,
      "Ġtodo": 604,
      "Ġcre": 605,
      "ed": 606,
      "til": 607,
      "tal": 608,
      "Ġesc": 609,
      "tivo": 610,
      "av": 611,
      "Ġmar": 612,
      "En": 613,
      "Ġprim": 614,
      "ob": 615,
      "cial": 616,
      "ĠY": 617,
      "Ġperson": 618,
      "ÃŃas": 619,
      "ĠCon": 620,
      "ias": 621,
      "fici": 622,
      "og": 623,
      "Ġcol": 624,
      "idades": 625,
      "ano": 626,
      "Ġfin": 627,
      "cip": 628,
      "Ġesp": 629,
      "tura": 630,
      "min": 631,
      "Ġtrabaj": 632,
      "ĠestÃ¡": 633,
      "uen": 634,
      "antes": 635,
      "et": 636,
      "orma": 637,
      "arios": 638,
      "ĠtambiÃ©n": 639,
      "das": 640,
      "udi": 641,
      "Ġus": 642,
      "ÃŃs": 643,
      "Ġpuede": 644,
      "Ġrec": 645,
      "Ġtan": 646,
      "ren": 647,
      "ing": 648,
      "gra": 649,
      "lic": 650,
      "ista": 651,
      "idos": 652,
      "lar": 653,
      "pos": 654,
      "20": 655,
      "Ġcal": 656,
      "amiento": 657,
      "Ġgran": 658,
      "ort": 659,
      "Ġhay": 660,
      "car": 661,
      "ĠaÃ±os": 662,
      "me": 663,
      "ven": 664,
      "ino": 665,
      "Ġsig": 666,
      "Ġfue": 667,
      "ub": 668,
      "Ġmedi": 669,
      "par": 670,
      "itu": 671,
      "Ġma": 672,
      "Ġmi": 673,
      "Ġdesde": 674,
      "asta": 675,
      "esti": 676,
      "aba": 677,
      "Ġhacer": 678,
      "fec": 679,
      "Ġ4": 680,
      "rib": 681,
      "qui": 682,
      "ver": 683,
      "Ġam": 684,
      "Ġtiene": 685,
      "Ġdos": 686,
      "aron": 687,
      "ĠUn": 688,
      "ĠAl": 689,
      "Ġni": 690,
      "jer": 691,
      "\",": 692,
      "gan": 693,
      "Ġmay": 694,
      "ÃŃt": 695,
      "Ġreg": 696,
      "Ġmejor": 697,
      "Ġproduc": 698,
      "ros": 699,
      "ener": 700,
      "mas": 701,
      "Ġneces": 702,
      "Ġmun": 703,
      "Ġmen": 704,
      "Ġ5": 705,
      "cio": 706,
      "Ġcuando": 707,
      "Ġter": 708,
      "endo": 709,
      "tir": 710,
      "Ġtodos": 711,
      "ve": 712,
      "adores": 713,
      "entos": 714,
      "Ġad": 715,
      "ble": 716,
      "Ġhan": 717,
      "iden": 718,
      "Ġcan": 719,
      "dem": 720,
      "Ġdon": 721,
      "iones": 722,
      "Ġca": 723,
      "Ġcual": 724,
      "Ġexp": 725,
      "ĠDe": 726,
      "Ġprop": 727,
      "tiva": 728,
      "Ġcos": 729,
      "ĠMar": 730,
      "Ġcam": 731,
      "Ġinv": 732,
      "gen": 733,
      "ita": 734,
      "Ġfun": 735,
      "zo": 736,
      "ide": 737,
      "arÃ¡": 738,
      "Ġhasta": 739,
      "Ġfuer": 740,
      "Ġlu": 741,
      "ĠW": 742,
      "teri": 743,
      "Ã±o": 744,
      "Ġmil": 745,
      "gr": 746,
      "man": 747,
      "ba": 748,
      "Ġparte": 749,
      "tras": 750,
      "ĠCom": 751,
      "Ġtiemp": 752,
      "uel": 753,
      ").": 754,
      "Ġpe": 755,
      "Ġinform": 756,
      "Ġdeci": 757,
      "\".": 758,
      "Ġbien": 759,
      "Ġpol": 760,
      "quier": 761,
      "ja": 762,
      "almente": 763,
      "Ġch": 764,
      "),": 765,
      "ĠNo": 766,
      "Ġco": 767,
      "Ġdonde": 768,
      "Ġgra": 769,
      "Ġalgun": 770,
      "ito": 771,
      "ona": 772,
      "acional": 773,
      "ĠDE": 774,
      "ĠSe": 775,
      "Ġu": 776,
      "Ġcap": 777,
      "gos": 778,
      "ĠÃ©": 779,
      "Ġforma": 780,
      "ular": 781,
      "paÃ±": 782,
      "ĠRe": 783,
      "pa": 784,
      "ult": 785,
      "ĠÂ¿": 786,
      "Ġrealiz": 787,
      "Ġ|": 788,
      "iendo": 789,
      "iu": 790,
      "Ġcada": 791,
      "Ġvez": 792,
      "rol": 793,
      "ĠAn": 794,
      "can": 795,
      "ÃŃcul": 796,
      "arse": 797,
      "Ġev": 798,
      "Ġti": 799,
      "Ã©r": 800,
      "urante": 801,
      "Ġporque": 802,
      "Ġcl": 803,
      "Ġtiempo": 804,
      "Ġbuen": 805,
      "ea": 806,
      "erv": 807,
      "rans": 808,
      "Ġcont": 809,
      "so": 810,
      "ion": 811,
      "Ġcontra": 812,
      "Ġof": 813,
      "fic": 814,
      "ĠCh": 815,
      "itar": 816,
      "mi": 817,
      "âĢ¦": 818,
      "ER": 819,
      "lam": 820,
      "ĠSan": 821,
      "Ġserv": 822,
      "ual": 823,
      "ES": 824,
      "omb": 825,
      "Ġw": 826,
      "eros": 827,
      "miento": 828,
      "Ġconf": 829,
      "ible": 830,
      "ĠasÃŃ": 831,
      "Ġempres": 832,
      "nos": 833,
      "ivers": 834,
      "he": 835,
      "lti": 836,
      "unto": 837,
      "Ġsab": 838,
      "idas": 839,
      "Ġinst": 840,
      "iste": 841,
      "ura": 842,
      "ĠaÃ±o": 843,
      "ĠK": 844,
      "ismo": 845,
      "Ġ19": 846,
      "Ġmin": 847,
      "Ġespe": 848,
      "Ġcer": 849,
      "Ġincl": 850,
      "ilidad": 851,
      "tivos": 852,
      "ĠdÃŃa": 853,
      "Ġdesp": 854,
      "Ġah": 855,
      "ine": 856,
      "iÃ³": 857,
      "ĠÃº": 858,
      "Ġpersonas": 859,
      "Ġgener": 860,
      "Ġay": 861,
      "Ġuno": 862,
      "Est": 863,
      "ubl": 864,
      "Ġseg": 865,
      "OS": 866,
      "Ġ6": 867,
      "demÃ¡s": 868,
      "icio": 869,
      "ÃŃan": 870,
      "iente": 871,
      "com": 872,
      "Ġvida": 873,
      "CI": 874,
      "AR": 875,
      "Ġro": 876,
      "EN": 877,
      "Ġimport": 878,
      "Ġllev": 879,
      "Ġdic": 880,
      "oco": 881,
      "arrol": 882,
      "ena": 883,
      "Ġau": 884,
      "Ġmayor": 885,
      "iudad": 886,
      "Ġsegu": 887,
      "uego": 888,
      "Ġplan": 889,
      "Ġda": 890,
      "ĠpaÃŃs": 891,
      "Ġtrans": 892,
      "dic": 893,
      "Ġreci": 894,
      "Ġsec": 895,
      "Ġop": 896,
      "Ġcomun": 897,
      "Ãºbl": 898,
      "ĠLos": 899,
      "Ġrel": 900,
      "Ã³mo": 901,
      "iciÃ³n": 902,
      "yec": 903,
      "Ġhace": 904,
      "ies": 905,
      "ĠAr": 906,
      "Ġpla": 907,
      "Ġju": 908,
      "incip": 909,
      "Ġoc": 910,
      "Ġlugar": 911,
      "Ġrep": 912,
      "Ã©c": 913,
      "Ġra": 914,
      "ĠestÃ¡n": 915,
      "cil": 916,
      "ON": 917,
      "tic": 918,
      "Ġdirec": 919,
      "Ġbas": 920,
      "ord": 921,
      "Ġprof": 922,
      "tiliz": 923,
      "anos": 924,
      "tica": 925,
      "Ġactu": 926,
      "Ġotros": 927,
      "Ġmom": 928,
      "Ġmu": 929,
      "ĠPor": 930,
      "Ġdifer": 931,
      "Ġden": 932,
      "alidad": 933,
      "acion": 934,
      "Ġequi": 935,
      "pec": 936,
      "mpl": 937,
      "Ġconst": 938,
      "Ġsolo": 939,
      "ĠÃºlti": 940,
      "Ġval": 941,
      "iempre": 942,
      "Ġpodr": 943,
      "Ġmismo": 944,
      "ton": 945,
      "Ġdurante": 946,
      "tel": 947,
      "rar": 948,
      "Ġprincip": 949,
      "Ġmes": 950,
      "Ġpes": 951,
      "aje": 952,
      "AS": 953,
      "ientos": 954,
      "du": 955,
      "Ġdist": 956,
      "Ġ10": 957,
      "Â»": 958,
      "Ġne": 959,
      "pues": 960,
      "Ġ7": 961,
      "Ġmundo": 962,
      "echo": 963,
      "vo": 964,
      "Ġviv": 965,
      "Ġve": 966,
      "Ġtener": 967,
      "Ġvis": 968,
      "Ġlib": 969,
      "Ġdesarrol": 970,
      "Ġtanto": 971,
      "Ã±os": 972,
      "uÃ©s": 973,
      "Ġcuenta": 974,
      "amil": 975,
      "Ġform": 976,
      "olog": 977,
      "ceso": 978,
      "ific": 979,
      "ho": 980,
      "Ġtrabajo": 981,
      "ĠCar": 982,
      "jos": 983,
      "cuent": 984,
      "ital": 985,
      "Ġmas": 986,
      "Ġencon": 987,
      "Ġmucho": 988,
      "ĠQ": 989,
      "Ġ8": 990,
      "uro": 991,
      "tado": 992,
      "zar": 993,
      "ĠâĢĵ": 994,
      "Los": 995,
      "Ġbaj": 996,
      "Ġ0": 997,
      "Ġdest": 998,
      "teg": 999,
      "Ġutiliz": 1000,
      "cal": 1001,
      "tores": 1002,
      "entar": 1003,
      "argo": 1004,
      "Ġcent": 1005,
      "trar": 1006,
      "Ġven": 1007,
      "oria": 1008,
      "Ġquien": 1009,
      "AN": 1010,
      "cel": 1011,
      "ierno": 1012,
      "Ġestudi": 1013,
      "ene": 1014,
      "ruc": 1015,
      "ĠPro": 1016,
      "Ã±a": 1017,
      "Ġpueden": 1018,
      "ombre": 1019,
      "iar": 1020,
      "ok": 1021,
      "vis": 1022,
      "Ã³m": 1023,
      "cios": 1024,
      "Ġexper": 1025,
      "Ġtras": 1026,
      "Â¿": 1027,
      "Ġhist": 1028,
      "istas": 1029,
      "Ġsiempre": 1030,
      "Ġher": 1031,
      "Ġcab": 1032,
      "Ġemb": 1033,
      "Ġcomple": 1034,
      "ola": 1035,
      "ĠÃ¡": 1036,
      "Ġeso": 1037,
      "Ġcaso": 1038,
      "Ġbus": 1039,
      "unque": 1040,
      "Ġles": 1041,
      "Ġera": 1042,
      "Ġsent": 1043,
      "Ġref": 1044,
      "Ġquier": 1045,
      "cer": 1046,
      "Ġpues": 1047,
      "eo": 1048,
      "imo": 1049,
      "AL": 1050,
      "ĠMe": 1051,
      "Ġsuper": 1052,
      "Ġciudad": 1053,
      "gua": 1054,
      "Ġhor": 1055,
      "Ġmer": 1056,
      "Ġtom": 1057,
      "OR": 1058,
      "Ġz": 1059,
      "Ġpon": 1060,
      "Ġestos": 1061,
      "Ġdej": 1062,
      "ancia": 1063,
      "ublic": 1064,
      "Ġmenos": 1065,
      "Ã³lo": 1066,
      "ciales": 1067,
      "Ġvol": 1068,
      "tec": 1069,
      "Ġ9": 1070,
      "Ġmomento": 1071,
      "Ãºs": 1072,
      "Con": 1073,
      "Ġpl": 1074,
      "Ġelec": 1075,
      "Ġtar": 1076,
      "ĠÂ«": 1077,
      "Ġese": 1078,
      "Ġproyec": 1079,
      "paÃ±a": 1080,
      "Ġencuent": 1081,
      "Ġpel": 1082,
      "Ġotro": 1083,
      "Ġri": 1084,
      "rÃ¡": 1085,
      "Ġdef": 1086,
      "tur": 1087,
      "Ġcualquier": 1088,
      "Ġfal": 1089,
      "rech": 1090,
      "Ġalgo": 1091,
      "Ġsido": 1092,
      "ĠAs": 1093,
      "tis": 1094,
      "ÃŃst": 1095,
      "erg": 1096,
      "Ġnuevo": 1097,
      "uciÃ³n": 1098,
      "icios": 1099,
      "Ġ200": 1100,
      "endi": 1101,
      "obierno": 1102,
      "Ġhi": 1103,
      "gres": 1104,
      "Ġllam": 1105,
      "Ġsea": 1106,
      "Ġnuestro": 1107,
      "Ġfamil": 1108,
      "illa": 1109,
      "Ġmujer": 1110,
      "Ġactiv": 1111,
      "Ġmanera": 1112,
      "Ġesper": 1113,
      "Ġproble": 1114,
      "ĠquÃ©": 1115,
      "ĠLe": 1116,
      "uso": 1117,
      "Ġmon": 1118,
      "Ġtrav": 1119,
      "ĠSi": 1120,
      "Ġtoda": 1121,
      "Por": 1122,
      "omo": 1123,
      "ticip": 1124,
      "Ġhaci": 1125,
      "ece": 1126,
      "Ġpoco": 1127,
      "ĠinformaciÃ³n": 1128,
      "ĠpolÃŃt": 1129,
      "Ġtipo": 1130,
      "tido": 1131,
      "ern": 1132,
      "omin": 1133,
      "ĠpÃºbl": 1134,
      "ientes": 1135,
      "ge": 1136,
      "Ġesto": 1137,
      "ala": 1138,
      "ot": 1139,
      "Ġorgan": 1140,
      "Ġtodas": 1141,
      "Ġpoder": 1142,
      "lec": 1143,
      "istema": 1144,
      "Ġestar": 1145,
      "ĠdÃŃas": 1146,
      "Ġvar": 1147,
      "Ġcr": 1148,
      "Ġnuestra": 1149,
      "Ġinc": 1150,
      "ĠDes": 1151,
      "imiento": 1152,
      "uda": 1153,
      "tico": 1154,
      "Ġprimer": 1155,
      "Ġprofes": 1156,
      "and": 1157,
      "Ġli": 1158,
      "ural": 1159,
      "Ġantes": 1160,
      "Es": 1161,
      "raciÃ³n": 1162,
      "Ġtienen": 1163,
      "Ġ'": 1164,
      "cado": 1165,
      "Ġobje": 1166,
      "ril": 1167,
      "No": 1168,
      "all": 1169,
      "ĠtravÃ©s": 1170,
      "ivel": 1171,
      "AD": 1172,
      "dida": 1173,
      "ÃŃo": 1174,
      "201": 1175,
      "idente": 1176,
      "Ġtres": 1177,
      "Ġyo": 1178,
      "ï¿": 1179,
      "ï¿½": 1180,
      "rist": 1181,
      "ima": 1182,
      "Ġahora": 1183,
      "Ġsub": 1184,
      "ĠZ": 1185,
      "tamente": 1186,
      "ĠdespuÃ©s": 1187,
      "Ġprimera": 1188,
      "van": 1189,
      "tivas": 1190,
      "Ġgust": 1191,
      "itos": 1192,
      "Ġva": 1193,
      "Ġhecho": 1194,
      "ĠLas": 1195,
      "000": 1196,
      "Ġderech": 1197,
      "mar": 1198,
      "Ġapar": 1199,
      "cep": 1200,
      "Ġconv": 1201,
      "Ġide": 1202,
      "oto": 1203,
      "Ġmill": 1204,
      "ĠÃ": 1205,
      "Ġhum": 1206,
      "Ġfu": 1207,
      "Ġgan": 1208,
      "Ġentr": 1209,
      "port": 1210,
      "Ġaf": 1211,
      "Ġdar": 1212,
      "In": 1213,
      "Ġaplic": 1214,
      "inar": 1215,
      "Ġgu": 1216,
      "Ġgru": 1217,
      "ĠcÃ³mo": 1218,
      "Ġamb": 1219,
      "end": 1220,
      "21": 1221,
      "uridad": 1222,
      "Ġsegun": 1223,
      "Ġrecib": 1224,
      "imos": 1225,
      "Ġfr": 1226,
      "dia": 1227,
      "Ġir": 1228,
      "Ġprogra": 1229,
      "Ã³g": 1230,
      "erÃŃa": 1231,
      "quÃŃ": 1232,
      "Ġecon": 1233,
      "ian": 1234,
      "Ã³r": 1235,
      "âĢĿ": 1236,
      "Ġnivel": 1237,
      "ip": 1238,
      "Ġotras": 1239,
      "dades": 1240,
      "Ġparticip": 1241,
      "Ã¡l": 1242,
      "Ġcontin": 1243,
      "ĠSu": 1244,
      "tener": 1245,
      "Ġcamb": 1246,
      "Ġsitu": 1247,
      "Ġins": 1248,
      "Ġ.": 1249,
      "adora": 1250,
      "Ġotra": 1251,
      "iencia": 1252,
      "Ġpan": 1253,
      "inas": 1254,
      "tan": 1255,
      "ard": 1256,
      "rad": 1257,
      "Ġconoc": 1258,
      "embre": 1259,
      "Ġante": 1260,
      "Ġestado": 1261,
      "Ġpresent": 1262,
      "ientras": 1263,
      "quel": 1264,
      "zas": 1265,
      "Ġefec": 1266,
      "iel": 1267,
      "ologÃŃa": 1268,
      "ĠPar": 1269,
      "Ġ15": 1270,
      "Ġpersonal": 1271,
      "Ã¡c": 1272,
      "oles": 1273,
      "ome": 1274,
      "Ġdebe": 1275,
      "Ġ,": 1276,
      "urs": 1277,
      "eno": 1278,
      "Ġag": 1279,
      "Ġcasa": 1280,
      "va": 1281,
      "eron": 1282,
      "Ġpri": 1283,
      "Ġeje": 1284,
      "Ġhoy": 1285,
      "duci": 1286,
      "Ġesa": 1287,
      "Ġrespon": 1288,
      "Ġweb": 1289,
      "Ġtemp": 1290,
      "ep": 1291,
      "ior": 1292,
      "vil": 1293,
      "Ġ/": 1294,
      "ĠMa": 1295,
      "Ġk": 1296,
      "ial": 1297,
      "Ġig": 1298,
      "ex": 1299,
      "Ġdecir": 1300,
      "ieron": 1301,
      "ĠhabÃŃa": 1302,
      "Ġequipo": 1303,
      "Ġcomer": 1304,
      "Ġconoci": 1305,
      "ele": 1306,
      "Ġmal": 1307,
      "ĠseÃ±": 1308,
      "Ġdoc": 1309,
      "Ġellos": 1310,
      "Ġsistema": 1311,
      "Ġpeque": 1312,
      "Ġ12": 1313,
      "oca": 1314,
      "Ġpermi": 1315,
      "Ġsem": 1316,
      "Ġestas": 1317,
      "Ġpens": 1318,
      "Ġespecial": 1319,
      "Ġresult": 1320,
      "gas": 1321,
      "und": 1322,
      "icia": 1323,
      "Ġapro": 1324,
      "Ġcier": 1325,
      "est": 1326,
      "aban": 1327,
      "adr": 1328,
      "IC": 1329,
      "ĠX": 1330,
      "Ġimportante": 1331,
      "izaciÃ³n": 1332,
      "ĠsÃ³lo": 1333,
      "Ġmillones": 1334,
      "Ġban": 1335,
      "Ġon": 1336,
      "Ġade": 1337,
      "Ġpal": 1338,
      "terior": 1339,
      "Ġbar": 1340,
      "Ġsan": 1341,
      "Ġho": 1342,
      "Ġdatos": 1343,
      "Ġunos": 1344,
      "ĠCol": 1345,
      "Ġaunque": 1346,
      "sa": 1347,
      "IN": 1348,
      "ĠPara": 1349,
      "19": 1350,
      "Ġsino": 1351,
      "inos": 1352,
      "az": 1353,
      "ĠademÃ¡s": 1354,
      "uros": 1355,
      "tÃŃcul": 1356,
      "rig": 1357,
      "ĠserÃ¡": 1358,
      "Ġejemp": 1359,
      "minist": 1360,
      "Ġnada": 1361,
      "ric": 1362,
      "cional": 1363,
      "Ġind": 1364,
      "Ġsigu": 1365,
      "Ġmuchos": 1366,
      "Ġmedio": 1367,
      "Ġcompar": 1368,
      "cas": 1369,
      "Ġcalidad": 1370,
      "ill": 1371,
      "ables": 1372,
      "Las": 1373,
      "ĠCo": 1374,
      "Ġdise": 1375,
      "tenciÃ³n": 1376,
      "sta": 1377,
      "Ġnueva": 1378,
      "cos": 1379,
      "!!": 1380,
      "uerdo": 1381,
      "Se": 1382,
      "ecn": 1383,
      "Ġpasado": 1384,
      "Ġautor": 1385,
      "untos": 1386,
      "Ġcontro": 1387,
      "Ã¡g": 1388,
      "orn": 1389,
      "tific": 1390,
      "Ġhe": 1391,
      "ĠâĢľ": 1392,
      "estig": 1393,
      "ĠEspaÃ±a": 1394,
      "Ġ18": 1395,
      "ha": 1396,
      "ĠSal": 1397,
      "Ġaquel": 1398,
      "taciÃ³n": 1399,
      "Ġfuncion": 1400,
      "mple": 1401,
      "Ġalgunos": 1402,
      "ĠsÃŃ": 1403,
      "Ġinteres": 1404,
      "ĠCas": 1405,
      "Ġempresa": 1406,
      "eci": 1407,
      "Ġhoras": 1408,
      "ĠÃºn": 1409,
      "Ġproductos": 1410,
      "Ġayud": 1411,
      "Ġnat": 1412,
      "Ġuso": 1413,
      "ile": 1414,
      "Ġprov": 1415,
      "Ãºm": 1416,
      "Ġqued": 1417,
      "aran": 1418,
      "Ġcosas": 1419,
      "eza": 1420,
      "form": 1421,
      "Ġdijo": 1422,
      "Ã©cn": 1423,
      "Ġedi": 1424,
      "Ġtal": 1425,
      "icip": 1426,
      "Ġ11": 1427,
      "ĠBar": 1428,
      "Ã³x": 1429,
      "mit": 1430,
      "Qu": 1431,
      "tidad": 1432,
      "Ġcoment": 1433,
      "Ġdem": 1434,
      "Ġase": 1435,
      "ĠGu": 1436,
      "Ġrev": 1437,
      "Ġusu": 1438,
      "Ġdig": 1439,
      "ĠÃ©l": 1440,
      "ID": 1441,
      "ĠTo": 1442,
      "Ġnov": 1443,
      "Si": 1444,
      "Ġoper": 1445,
      "gado": 1446,
      "Ġintern": 1447,
      "Ġconse": 1448,
      "ĠPero": 1449,
      "Ġembargo": 1450,
      "orte": 1451,
      "Ġrepres": 1452,
      "Ġhistoria": 1453,
      "oso": 1454,
      "aria": 1455,
      "Ġaut": 1456,
      "Ġagua": 1457,
      "Ġtotal": 1458,
      "vid": 1459,
      "De": 1460,
      "ĠInter": 1461,
      "Ġdiferentes": 1462,
      "Ġvia": 1463,
      "tio": 1464,
      "Ġtus": 1465,
      "ulo": 1466,
      "ĠCu": 1467,
      "olÃ³g": 1468,
      "ono": 1469,
      "rado": 1470,
      "Al": 1471,
      "isiÃ³n": 1472,
      "acio": 1473,
      "rir": 1474,
      "ite": 1475,
      "bo": 1476,
      "ĠJu": 1477,
      "abor": 1478,
      "ĠÂ¡": 1479,
      "xico": 1480,
      "Ġfinal": 1481,
      "ula": 1482,
      "demos": 1483,
      "Ġsalud": 1484,
      "tac": 1485,
      "ace": 1486,
      "Ġmientras": 1487,
      "Ġmejores": 1488,
      "ĠmÃ©": 1489,
      "tam": 1490,
      "Ġproceso": 1491,
      "encias": 1492,
      "Ġconc": 1493,
      "10": 1494,
      "isis": 1495,
      "Ġestable": 1496,
      "uela": 1497,
      "TA": 1498,
      "tÃ³": 1499,
      "Ġrecon": 1500,
      "Ġnuestros": 1501,
      "Ġposible": 1502,
      "ĠmÃ¡": 1503,
      "ment": 1504,
      "ĠsegÃºn": 1505,
      "ria": 1506,
      "Ġfor": 1507,
      "rea": 1508,
      "Ġofici": 1509,
      "cha": 1510,
      "gue": 1511,
      "edad": 1512,
      "Ġdispon": 1513,
      "Ġservicios": 1514,
      "torio": 1515,
      "Ġpod": 1516,
      "ĠfÃ¡": 1517,
      "Ġcontinu": 1518,
      "Ġejemplo": 1519,
      "cis": 1520,
      "ne": 1521,
      "ĠcompaÃ±": 1522,
      "Des": 1523,
      "Ġdentro": 1524,
      "Ġservicio": 1525,
      "ional": 1526,
      "22": 1527,
      "emas": 1528,
      "ĠLo": 1529,
      "ww": 1530,
      "ĠEx": 1531,
      "amp": 1532,
      "Ġgente": 1533,
      "Ġmuchas": 1534,
      "Ġsocial": 1535,
      "Ġenv": 1536,
      "ÃŃf": 1537,
      "acidad": 1538,
      "ĠMÃ©": 1539,
      "Ġcul": 1540,
      "atro": 1541,
      "urso": 1542,
      "Ġllegar": 1543,
      "tion": 1544,
      "Ġpublic": 1545,
      "rip": 1546,
      "Ġhacia": 1547,
      "avor": 1548,
      "unci": 1549,
      "IS": 1550,
      "Ġlab": 1551,
      "dio": 1552,
      "uras": 1553,
      "bol": 1554,
      "Ġdin": 1555,
      "Ġveces": 1556,
      "Ġcomunic": 1557,
      "lu": 1558,
      "apa": 1559,
      "ach": 1560,
      "TE": 1561,
      "Ġmode": 1562,
      "oma": 1563,
      "Ġenf": 1564,
      "ilo": 1565,
      "aÃ±o": 1566,
      "Ġproyecto": 1567,
      "up": 1568,
      "Ġpersona": 1569,
      "Ġclas": 1570,
      "ĠMan": 1571,
      "adrid": 1572,
      "porte": 1573,
      "Ġ...": 1574,
      "tamiento": 1575,
      "ĠprÃ³x": 1576,
      "Ġcompr": 1577,
      "Ġseguridad": 1578,
      "itas": 1579,
      "Ġello": 1580,
      "iso": 1581,
      "ya": 1582,
      "Ġgeneral": 1583,
      "Ġinvestig": 1584,
      "Ġapoy": 1585,
      "adre": 1586,
      "Ġvi": 1587,
      "ecu": 1588,
      "br": 1589,
      "osa": 1590,
      "irm": 1591,
      "Ġencontrar": 1592,
      "Ġsue": 1593,
      "Ġos": 1594,
      "ĠespaÃ±": 1595,
      "ĠRo": 1596,
      "ĠnÃºm": 1597,
      "ira": 1598,
      "Ġdistin": 1599,
      "Ġella": 1600,
      "ire": 1601,
      "Ġgrupo": 1602,
      "ĠNacional": 1603,
      "ĠaquÃŃ": 1604,
      "ĠAc": 1605,
      "Ġdep": 1606,
      "Ġtecn": 1607,
      "Ġgas": 1608,
      "Ġ30": 1609,
      "Ġsemana": 1610,
      "Ġcuer": 1611,
      "Ġvent": 1612,
      "Ġpie": 1613,
      "Ġvalor": 1614,
      "Ġamig": 1615,
      "Ġmercado": 1616,
      "ensa": 1617,
      "ber": 1618,
      "ĠlÃŃn": 1619,
      "ĠSin": 1620,
      "Ġ14": 1621,
      "Ġeduc": 1622,
      "estiÃ³n": 1623,
      "ibilidad": 1624,
      "Ġnego": 1625,
      "ĠtÃ©cn": 1626,
      "Ġpregun": 1627,
      "acter": 1628,
      "Ġempresas": 1629,
      "ela": 1630,
      "Ġfavor": 1631,
      "eras": 1632,
      "gent": 1633,
      "Ġrecom": 1634,
      "Ġfueron": 1635,
      "Ãĵ": 1636,
      "Ġgrandes": 1637,
      "Para": 1638,
      "che": 1639,
      "Ġaum": 1640,
      "Ġhaber": 1641,
      "Ġdesarrollo": 1642,
      "Ã¡p": 1643,
      "atal": 1644,
      "ĠeconÃ³m": 1645,
      "Ġley": 1646,
      "Ġespec": 1647,
      "tt": 1648,
      "tante": 1649,
      "Ġexist": 1650,
      "Ġalim": 1651,
      "Ġmisma": 1652,
      "ares": 1653,
      "eta": 1654,
      "Ġdese": 1655,
      "ĠDi": 1656,
      "Ġdiv": 1657,
      "Ġorig": 1658,
      "ĠVal": 1659,
      "ĠniÃ±os": 1660,
      "jas": 1661,
      "Ġima": 1662,
      "Ġacuerdo": 1663,
      "ursos": 1664,
      "Ã¡m": 1665,
      "Ġluego": 1666,
      "pecto": 1667,
      "af": 1668,
      "cimiento": 1669,
      "Ġcin": 1670,
      "Ġpuedes": 1671,
      "Ġpresidente": 1672,
      "....": 1673,
      "Ġmuer": 1674,
      "Ġ13": 1675,
      "cin": 1676,
      "ama": 1677,
      "Ġdisf": 1678,
      "Ġestaba": 1679,
      "Ġ16": 1680,
      "ersiÃ³n": 1681,
      "Ġprev": 1682,
      "Ġbajo": 1683,
      "Ġexperiencia": 1684,
      "toria": 1685,
      "Ġcondi": 1686,
      "ĠPer": 1687,
      "siÃ³n": 1688,
      "Ġcaus": 1689,
      "Ġinstal": 1690,
      "ibles": 1691,
      "Ġmujeres": 1692,
      "unca": 1693,
      "Ġtrad": 1694,
      "Ġjug": 1695,
      "Ġmeses": 1696,
      "Ġofre": 1697,
      "Ġint": 1698,
      "Ġjue": 1699,
      "Un": 1700,
      "ĠMÃ©xico": 1701,
      "iversidad": 1702,
      "Ġclar": 1703,
      "Ġleg": 1704,
      "ram": 1705,
      "iene": 1706,
      "Ġat": 1707,
      "ug": 1708,
      "quil": 1709,
      "Ġconten": 1710,
      "Ġampl": 1711,
      "Ġand": 1712,
      "Cu": 1713,
      "Ġpunto": 1714,
      "Ġtendr": 1715,
      "ĠCor": 1716,
      "Ġconocer": 1717,
      "Ġemple": 1718,
      "Ġvuel": 1719,
      "Ġextra": 1720,
      "Ġquer": 1721,
      "Ġdestac": 1722,
      "Ġdescu": 1723,
      "ral": 1724,
      "ĠlÃŃ": 1725,
      "ag": 1726,
      "Ġbuena": 1727,
      "anci": 1728,
      "Ġru": 1729,
      "Ġnoso": 1730,
      "Ġjuego": 1731,
      "echa": 1732,
      "ĠMun": 1733,
      "ĠartÃŃcul": 1734,
      "lor": 1735,
      "tonces": 1736,
      "Ġrealizar": 1737,
      "RE": 1738,
      "ĠMon": 1739,
      "ĠPo": 1740,
      "Ġet": 1741,
      "Ġinte": 1742,
      "Ġminu": 1743,
      "Ġprecio": 1744,
      "Ġ17": 1745,
      "zÃ³n": 1746,
      "Ġcasi": 1747,
      "stitu": 1748,
      "Ġrespons": 1749,
      "Ã¡b": 1750,
      "ivo": 1751,
      "dera": 1752,
      "Ġol": 1753,
      "ĠFran": 1754,
      "Ġorganiz": 1755,
      "lica": 1756,
      "mbre": 1757,
      "dor": 1758,
      "ik": 1759,
      "Ġdif": 1760,
      "ert": 1761,
      "ĠLA": 1762,
      "olo": 1763,
      "ĠLu": 1764,
      "uestra": 1765,
      "enefici": 1766,
      "Ġcele": 1767,
      "pti": 1768,
      "abilidad": 1769,
      "Ġcir": 1770,
      "Ġanti": 1771,
      "Ġale": 1772,
      "ron": 1773,
      "Ġapren": 1774,
      "Ġdec": 1775,
      "ell": 1776,
      "ĠsituaciÃ³n": 1777,
      "Ġigual": 1778,
      "ticias": 1779,
      "RA": 1780,
      "RO": 1781,
      "Ġblo": 1782,
      "Ġsex": 1783,
      "ĠMo": 1784,
      "Ġincluso": 1785,
      "dido": 1786,
      "Ġafec": 1787,
      "ajes": 1788,
      "Ġsign": 1789,
      "Ġlogr": 1790,
      "Ġcambi": 1791,
      "ĠAm": 1792,
      "ate": 1793,
      "line": 1794,
      "Ġhemos": 1795,
      "Ġtermin": 1796,
      "ĠMadrid": 1797,
      "Ġlado": 1798,
      "Ġsac": 1799,
      "Ġnosotros": 1800,
      "Ġtrata": 1801,
      "Ġzona": 1802,
      "reg": 1803,
      "ulta": 1804,
      "Ġ[": 1805,
      "nes": 1806,
      "Ġexpres": 1807,
      "portun": 1808,
      "Ġseguir": 1809,
      "ĠGobierno": 1810,
      "Ġtenemos": 1811,
      "Ã±as": 1812,
      "Ġmie": 1813,
      "ticas": 1814,
      "ĠMin": 1815,
      "iado": 1816,
      "Ġcambio": 1817,
      "Ġgobierno": 1818,
      "ĠJos": 1819,
      "Ġpriv": 1820,
      "pre": 1821,
      "Ġbol": 1822,
      "ĠEste": 1823,
      "Ġgracias": 1824,
      "Ġfund": 1825,
      "anto": 1826,
      "ticos": 1827,
      "Ġnombre": 1828,
      "Ġcumpl": 1829,
      "Ġproblemas": 1830,
      "Ġdice": 1831,
      "TO": 1832,
      "Ġregist": 1833,
      "ĠEuro": 1834,
      "Ġ25": 1835,
      "Ġcomen": 1836,
      "Ġfamilia": 1837,
      "Ġmos": 1838,
      "ef": 1839,
      "Ġincluy": 1840,
      "Ġorden": 1841,
      "ĠnÃºmero": 1842,
      "ĠCent": 1843,
      "dan": 1844,
      "ĠCan": 1845,
      "ĠPol": 1846,
      "ental": 1847,
      "30": 1848,
      "ĠUna": 1849,
      "Ġmateri": 1850,
      "arÃ¡n": 1851,
      "Ġdisfru": 1852,
      "Ġall": 1853,
      "Ġespeci": 1854,
      "Ġbenefici": 1855,
      "ĠEN": 1856,
      "Ġsen": 1857,
      "Ġ2018": 1858,
      "ques": 1859,
      "TI": 1860,
      "Ġjun": 1861,
      "Ġsaber": 1862,
      "Ġcontrol": 1863,
      "ĠaÃºn": 1864,
      "ĠpÃ¡g": 1865,
      "ĠprÃ¡c": 1866,
      "ecer": 1867,
      "Ġprograma": 1868,
      "ĠEstado": 1869,
      "izo": 1870,
      "Ġpalab": 1871,
      "Ġ2020": 1872,
      "omÃŃa": 1873,
      "Ġmunicip": 1874,
      "Ġoportun": 1875,
      "reo": 1876,
      "UE": 1877,
      "aja": 1878,
      "Ġbo": 1879,
      "Com": 1880,
      "ider": 1881,
      "Ġred": 1882,
      "ĠrÃ¡p": 1883,
      "Ġlleg": 1884,
      "posiciÃ³n": 1885,
      "//": 1886,
      "Ġcentro": 1887,
      "Ġnatural": 1888,
      "ban": 1889,
      "Ġvac": 1890,
      "Ġsolici": 1891,
      "11": 1892,
      "ĠfÃ¡cil": 1893,
      "isto": 1894,
      "Ġprob": 1895,
      "ĠRes": 1896,
      "Ġalta": 1897,
      "Ġalcan": 1898,
      "ĠQu": 1899,
      "Ġenfer": 1900,
      "rio": 1901,
      "Ġsoci": 1902,
      "graf": 1903,
      "are": 1904,
      "gur": 1905,
      "una": 1906,
      "Ġalgunas": 1907,
      "Ġinici": 1908,
      "Ġexplic": 1909,
      "blo": 1910,
      "inaciÃ³n": 1911,
      "ttp": 1912,
      "Ġnunca": 1913,
      "Ġdinero": 1914,
      "dial": 1915,
      "arlo": 1916,
      "Ġprue": 1917,
      "Ġcaracter": 1918,
      "Ġsitio": 1919,
      "Ġsector": 1920,
      "Ġcuatro": 1921,
      "Ġfac": 1922,
      "ulio": 1923,
      "ich": 1924,
      "Ġfuera": 1925,
      "Ġhombre": 1926,
      "Ġofrec": 1927,
      "Ġpu": 1928,
      "Ġenerg": 1929,
      "Ġdefin": 1930,
      "Ġselec": 1931,
      "termin": 1932,
      "Ġ24": 1933,
      "Ġjust": 1934,
      "Ġtempor": 1935,
      "Ġnacional": 1936,
      "Ġfil": 1937,
      "Ġcuerpo": 1938,
      "ĠCO": 1939,
      "Ġjunto": 1940,
      "arÃŃa": 1941,
      "Ġpartir": 1942,
      "Ġproducto": 1943,
      "rem": 1944,
      "Ġsociales": 1945,
      "usiÃ³n": 1946,
      "Ġhora": 1947,
      "Ġindi": 1948,
      "Ġdomin": 1949,
      "puesto": 1950,
      "Ġthe": 1951,
      "ĠÃģ": 1952,
      "trÃ³n": 1953,
      "Ġcasos": 1954,
      "Ġmov": 1955,
      "didas": 1956,
      "Ġdici": 1957,
      "Ġpartido": 1958,
      "Ġescri": 1959,
      "Ġtri": 1960,
      "tiz": 1961,
      "ĠrelaciÃ³n": 1962,
      "iva": 1963,
      "ev": 1964,
      "tera": 1965,
      "Ġperfec": 1966,
      "Ġvarios": 1967,
      "Ġloc": 1968,
      "://": 1969,
      "lex": 1970,
      "bles": 1971,
      "ombres": 1972,
      "iga": 1973,
      "Â¡": 1974,
      "Ġpap": 1975,
      "ducir": 1976,
      "ĠIntern": 1977,
      "Ġ2021": 1978,
      "ĠEstados": 1979,
      "Ġnorm": 1980,
      "ĠOr": 1981,
      "gel": 1982,
      "Ġej": 1983,
      "dencia": 1984,
      "ĠPa": 1985,
      "Ġlan": 1986,
      "ĠmÃºs": 1987,
      "ister": 1988,
      "Ġfrente": 1989,
      "ĠÃºltimo": 1990,
      "Ġproblema": 1991,
      "Ġindic": 1992,
      "iembre": 1993,
      "Ġ2019": 1994,
      "Ġdeber": 1995,
      "Ġeleg": 1996,
      "ĠlÃŃnea": 1997,
      "Ġrefer": 1998,
      "Ġvide": 1999,
      "tÃ¡": 2000,
      "diÃ³": 2001,
      "ifica": 2002,
      "alizaciÃ³n": 2003,
      "Ġsa": 2004,
      "rero": 2005,
      "Una": 2006,
      "12": 2007,
      "ĠAdemÃ¡s": 2008,
      "Ġobjetivo": 2009,
      "guir": 2010,
      "Ġpuer": 2011,
      "ÃĵN": 2012,
      "Ġanim": 2013,
      "QuÃ©": 2014,
      "Ġtema": 2015,
      "Ġiden": 2016,
      "Ġparece": 2017,
      "iedad": 2018,
      "clar": 2019,
      "ĠpÃºblico": 2020,
      "eric": 2021,
      "Ġponer": 2022,
      "Ġdetal": 2023,
      "ĠpodrÃŃa": 2024,
      "osp": 2025,
      "Ġpodemos": 2026,
      "Ġav": 2027,
      "Ġ2017": 2028,
      "gre": 2029,
      "Ġpaso": 2030,
      "Ġdirig": 2031,
      "ĠpelÃŃcul": 2032,
      "tag": 2033,
      "ĠUnidos": 2034,
      "An": 2035,
      "oluciÃ³n": 2036,
      "Ġlargo": 2037,
      "ĠatenciÃ³n": 2038,
      "Ġpermite": 2039,
      "ĠAd": 2040,
      "Ġamor": 2041,
      "Ġasegur": 2042,
      "Ġtele": 2043,
      "ĠseÃ±al": 2044,
      ".-": 2045,
      "ack": 2046,
      "jar": 2047,
      "Ġunas": 2048,
      "Ġfinanci": 2049,
      "ĠpaÃŃses": 2050,
      "ĠAp": 2051,
      "Ġprepar": 2052,
      "Ġsim": 2053,
      "zos": 2054,
      "dose": 2055,
      "Ġcolor": 2056,
      "Ġreal": 2057,
      "nas": 2058,
      "dir": 2059,
      "Ġocas": 2060,
      "Ġactividades": 2061,
      "Ġnuevos": 2062,
      "Ġespacio": 2063,
      "th": 2064,
      "Ġserie": 2065,
      "ierra": 2066,
      "ĠpolÃŃtica": 2067,
      "tario": 2068,
      "Ġobl": 2069,
      "Ġetc": 2070,
      "Ġgaran": 2071,
      "illo": 2072,
      "ribu": 2073,
      "ĠvÃŃ": 2074,
      "tubre": 2075,
      "alo": 2076,
      "rac": 2077,
      "Ġ100": 2078,
      "Ġalguna": 2079,
      "Ġvan": 2080,
      "Ġacer": 2081,
      "Ġtur": 2082,
      "Ġindust": 2083,
      "Ġdisc": 2084,
      "Ġrepresent": 2085,
      "Ġejer": 2086,
      "Ġ2016": 2087,
      "alu": 2088,
      "Ġpuntos": 2089,
      "Ġcontac": 2090,
      "tados": 2091,
      "iera": 2092,
      "Ġatra": 2093,
      "LA": 2094,
      "Ġreun": 2095,
      "serv": 2096,
      "tin": 2097,
      "Ġproces": 2098,
      "oz": 2099,
      "Ġmens": 2100,
      "Ġadminist": 2101,
      "one": 2102,
      "omos": 2103,
      "Ġestra": 2104,
      "ĠCal": 2105,
      "Ġba": 2106,
      "rera": 2107,
      "50": 2108,
      "Ġdocum": 2109,
      "ĠEsta": 2110,
      "rin": 2111,
      "iano": 2112,
      "Ġfoto": 2113,
      "olu": 2114,
      "Ġries": 2115,
      "Ġminutos": 2116,
      "Ġsiendo": 2117,
      "Este": 2118,
      "enas": 2119,
      "Ġmus": 2120,
      "Ġcompe": 2121,
      "Ġmano": 2122,
      "Ġfalta": 2123,
      "puesta": 2124,
      "dez": 2125,
      "Ġencuentra": 2126,
      "Ġavan": 2127,
      "Ġrealidad": 2128,
      "ĠmayorÃŃa": 2129,
      "ĠJuan": 2130,
      "Ġinstitu": 2131,
      "var": 2132,
      "Ġayuda": 2133,
      "Ġust": 2134,
      "Ġur": 2135,
      "respon": 2136,
      "Ġcomprar": 2137,
      "yo": 2138,
      "Ġhabit": 2139,
      "Ġnav": 2140,
      "Ġnuevas": 2141,
      "otos": 2142,
      "ws": 2143,
      "Ġconside": 2144,
      "acionales": 2145,
      "tud": 2146,
      "Ġentonces": 2147,
      "Ġvir": 2148,
      "Ġsur": 2149,
      "Ã¡nd": 2150,
      "ĠPla": 2151,
      "Ġmol": 2152,
      "Ġbase": 2153,
      "ts": 2154,
      "ĠES": 2155,
      "tando": 2156,
      "uesta": 2157,
      "Ġ21": 2158,
      "icamente": 2159,
      "Ġ:": 2160,
      "Ġviol": 2161,
      "Ġmor": 2162,
      "Ġalg": 2163,
      "Ġdetermin": 2164,
      "Ġsiguiente": 2165,
      "mientos": 2166,
      "Ġocur": 2167,
      "uales": 2168,
      "Ġâ": 2169,
      "mac": 2170,
      "Ġclientes": 2171,
      "ÃŃsticas": 2172,
      "Ġprecios": 2173,
      "ramient": 2174,
      "tran": 2175,
      "Ġtengo": 2176,
      "riÃ³": 2177,
      "Ġsentido": 2178,
      "Ġub": 2179,
      "Ġquienes": 2180,
      "Ġlabor": 2181,
      "turo": 2182,
      "Ġeuros": 2183,
      "Ġpobl": 2184,
      "alizar": 2185,
      "Ġsens": 2186,
      "eas": 2187,
      "Ġestamos": 2188,
      "Ġdivers": 2189,
      "Ġblan": 2190,
      "Ġlibro": 2191,
      "Ġresultados": 2192,
      "Ġhizo": 2193,
      "Ġenc": 2194,
      "turas": 2195,
      "inal": 2196,
      "AM": 2197,
      "rucciÃ³n": 2198,
      "gn": 2199,
      "Me": 2200,
      "gentina": 2201,
      "Ġgol": 2202,
      "Ġescrib": 2203,
      "Ġempez": 2204,
      "pular": 2205,
      "Ġrecu": 2206,
      "stas": 2207,
      "Ġconj": 2208,
      "Ġ#": 2209,
      "Ġneg": 2210,
      "Ġauto": 2211,
      "dico": 2212,
      "orÃŃa": 2213,
      "ĠSoci": 2214,
      "ĠTambiÃ©n": 2215,
      "Ġrela": 2216,
      "ciden": 2217,
      "ĠJosÃ©": 2218,
      "ptiembre": 2219,
      "ienda": 2220,
      "Ġacom": 2221,
      "Ġsegundo": 2222,
      "Ġusuarios": 2223,
      "EC": 2224,
      "Ġdesc": 2225,
      "Ġactividad": 2226,
      "Ġopin": 2227,
      "rez": 2228,
      "Ġcondiciones": 2229,
      "Ġderecho": 2230,
      "Ġprincipal": 2231,
      "Ġrelacion": 2232,
      "Ã³s": 2233,
      "Ġconsider": 2234,
      "tiene": 2235,
      "Ġnecesario": 2236,
      "cho": 2237,
      "Ġelem": 2238,
      "tada": 2239,
      "Ġverdad": 2240,
      "ĠEL": 2241,
      "Ġingres": 2242,
      "ook": 2243,
      "Ġnoche": 2244,
      "anza": 2245,
      "ft": 2246,
      "Ġer": 2247,
      "Ġ22": 2248,
      "ĠVer": 2249,
      "Ġmodo": 2250,
      "Ġgen": 2251,
      "tiÃ³": 2252,
      "unta": 2253,
      "abric": 2254,
      "Ã³vil": 2255,
      "Ġdescar": 2256,
      "ionales": 2257,
      "Ãį": 2258,
      "EL": 2259,
      "ĠPres": 2260,
      "Ġobra": 2261,
      "tien": 2262,
      "ĠmÃ¡x": 2263,
      "Ġcomb": 2264,
      "Ġfaci": 2265,
      "Ġpart": 2266,
      "Ġalum": 2267,
      "Ġdiciembre": 2268,
      "Ġpare": 2269,
      "Ġperio": 2270,
      "Ġdie": 2271,
      "iÃ©n": 2272,
      "Ġpaci": 2273,
      "Ġnoviembre": 2274,
      "be": 2275,
      "dep": 2276,
      "As": 2277,
      "cionar": 2278,
      "ĠTra": 2279,
      "Ġcantidad": 2280,
      "ĠTe": 2281,
      "ĠYo": 2282,
      "ĠdiseÃ±o": 2283,
      "Ġil": 2284,
      "Ġmediante": 2285,
      "ĠUniversidad": 2286,
      "Ġplata": 2287,
      "ĠDios": 2288,
      "ves": 2289,
      "Ġconven": 2290,
      "izar": 2291,
      "Ġasist": 2292,
      "cido": 2293,
      "Ġsuf": 2294,
      "Ġsegunda": 2295,
      "od": 2296,
      "echos": 2297,
      "Ġem": 2298,
      "Ġofer": 2299,
      "Ġtor": 2300,
      "Ġconver": 2301,
      "Ġis": 2302,
      "mon": 2303,
      "Ġacceso": 2304,
      "Ġestudio": 2305,
      "Ġsociedad": 2306,
      "Ġfon": 2307,
      "Ġhub": 2308,
      "ilar": 2309,
      "Ġtex": 2310,
      "ĠalgÃºn": 2311,
      "leg": 2312,
      "ĠelectrÃ³n": 2313,
      "ĠGran": 2314,
      "Ġtienes": 2315,
      "Ġdeclar": 2316,
      "Ġcorrespon": 2317,
      "Ġrespecto": 2318,
      "Ġpin": 2319,
      "IA": 2320,
      "Ġofrece": 2321,
      "ĠGar": 2322,
      "illas": 2323,
      "Ġ2015": 2324,
      "Ġdeben": 2325,
      "Ġ50": 2326,
      "Ã©rica": 2327,
      "aÃ±ana": 2328,
      "ase": 2329,
      "Ġproce": 2330,
      "Ġllevar": 2331,
      "fo": 2332,
      "Ġanterior": 2333,
      "visiÃ³n": 2334,
      "Ġsimple": 2335,
      "ĠproducciÃ³n": 2336,
      "Ġencontr": 2337,
      "Ġcerca": 2338,
      "ĠGener": 2339,
      "Ġrecomend": 2340,
      "Ġceleb": 2341,
      "Ġherramient": 2342,
      "Ġderechos": 2343,
      "ger": 2344,
      "Ġmarzo": 2345,
      "Ġcla": 2346,
      "orp": 2347,
      "Ġ23": 2348,
      "Ġubic": 2349,
      "tender": 2350,
      "Ġll": 2351,
      "adio": 2352,
      "ĠIN": 2353,
      "ĠMor": 2354,
      "ĠAnd": 2355,
      "Ġidea": 2356,
      "ulti": 2357,
      "arias": 2358,
      "Ġpropor": 2359,
      "Ġlimp": 2360,
      "pas": 2361,
      "tecciÃ³n": 2362,
      "Ġacep": 2363,
      "ĠPe": 2364,
      "ĠtenÃŃa": 2365,
      "Ġcuanto": 2366,
      "Ġoctubre": 2367,
      "omas": 2368,
      "ticular": 2369,
      "Ã¡r": 2370,
      "genes": 2371,
      "Ã¡tica": 2372,
      "Ġpoten": 2373,
      "ĠReg": 2374,
      "Ġsos": 2375,
      "Ġcinco": 2376,
      "Ġinclu": 2377,
      "ice": 2378,
      "Ġdirector": 2379,
      "ix": 2380,
      "Ġbeb": 2381,
      "Ġonline": 2382,
      "terna": 2383,
      "Ġcub": 2384,
      "Lo": 2385,
      "Ġcapacidad": 2386,
      "Ġcoci": 2387,
      "anas": 2388,
      "Ġestu": 2389,
      "Ġlec": 2390,
      "rel": 2391,
      "quis": 2392,
      "onas": 2393,
      "uls": 2394,
      "Ġadecu": 2395,
      "ign": 2396,
      "Ġhaya": 2397,
      "Ġcolec": 2398,
      "hora": 2399,
      "Ġlibre": 2400,
      "Ġjunio": 2401,
      "Ġevitar": 2402,
      "Ġmodelo": 2403,
      "Ġmayo": 2404,
      "ACI": 2405,
      "Ġpasar": 2406,
      "adamente": 2407,
      "Ġmantener": 2408,
      "ĠartÃŃculo": 2409,
      "itivo": 2410,
      "tero": 2411,
      "Ġpapel": 2412,
      "Ġluch": 2413,
      "Ġconte": 2414,
      "Ġvarias": 2415,
      "bar": 2416,
      "Ar": 2417,
      "dica": 2418,
      "Ġdebido": 2419,
      "II": 2420,
      "ivos": 2421,
      "ĠIs": 2422,
      "dap": 2423,
      "Ġrecuper": 2424,
      "ingun": 2425,
      "Ġhacen": 2426,
      "tual": 2427,
      "Ġpat": 2428,
      "Ġprovin": 2429,
      "Ġases": 2430,
      "Ġpuesto": 2431,
      "ilidades": 2432,
      "Ġbastante": 2433,
      "Ġcuar": 2434,
      "Ġenero": 2435,
      "ĠÃºltimos": 2436,
      "ED": 2437,
      "gl": 2438,
      "Ġnuestras": 2439,
      "ĠinvestigaciÃ³n": 2440,
      "son": 2441,
      "zado": 2442,
      "Ã©is": 2443,
      "Ġsignifica": 2444,
      "Ĥ¬": 2445,
      "Ġdejar": 2446,
      "Ġmir": 2447,
      "ĠCl": 2448,
      "ris": 2449,
      "just": 2450,
      "Ġmanten": 2451,
      "ĠNuev": 2452,
      "her": 2453,
      "ĠfÃŃs": 2454,
      "Ġesos": 2455,
      "Ġalto": 2456,
      "âĢĵ": 2457,
      "ificaciÃ³n": 2458,
      "15": 2459,
      "lado": 2460,
      "gosto": 2461,
      "Ġlocal": 2462,
      "Ġmarca": 2463,
      "Ã³p": 2464,
      "Âº": 2465,
      "Ġcrear": 2466,
      "Ġclaro": 2467,
      "ĠacompaÃ±": 2468,
      "Ġenferme": 2469,
      "Ġtarde": 2470,
      "ĠmaÃ±ana": 2471,
      "ror": 2472,
      "Ġjo": 2473,
      "ficiente": 2474,
      "Ġfuturo": 2475,
      "Ã¡lisis": 2476,
      "Ġusar": 2477,
      "Ġtomar": 2478,
      "Ġventa": 2479,
      "Ġprimero": 2480,
      "forma": 2481,
      "ĠJo": 2482,
      "Ġreconoci": 2483,
      "ĠComo": 2484,
      "Ġquiere": 2485,
      "Ġescuch": 2486,
      "ĠFe": 2487,
      "ebrero": 2488,
      "ĠaplicaciÃ³n": 2489,
      "vÃŃa": 2490,
      "acciÃ³n": 2491,
      "bas": 2492,
      "To": 2493,
      "Ġmedios": 2494,
      "wit": 2495,
      "Esta": 2496,
      "Ġmanif": 2497,
      "pi": 2498,
      "ducciÃ³n": 2499,
      "ĠGo": 2500,
      "Ġprofesional": 2501,
      "Ġ2014": 2502,
      "Ġrecursos": 2503,
      "Ġgratis": 2504,
      "Ġlim": 2505,
      "Ġseptiembre": 2506,
      "Ġcomentarios": 2507,
      "Ġluz": 2508,
      "200": 2509,
      "OL": 2510,
      "Ġinm": 2511,
      "pro": 2512,
      "Ġ2012": 2513,
      "Ġcabo": 2514,
      "tividad": 2515,
      "Ġx": 2516,
      "ĠCON": 2517,
      "ĠpÃ¡gina": 2518,
      "Ã¡tico": 2519,
      "olor": 2520,
      "adoras": 2521,
      "Ġfacil": 2522,
      "ÃŃtica": 2523,
      "ĠDis": 2524,
      "Ġ$": 2525,
      "ple": 2526,
      "Ġtel": 2527,
      "Ġinten": 2528,
      "Ġintegr": 2529,
      "urales": 2530,
      "UN": 2531,
      "iamente": 2532,
      "Ġcapital": 2533,
      "Ã©f": 2534,
      "iana": 2535,
      "Ġactual": 2536,
      "ĠmÃºsica": 2537,
      "Ġayudar": 2538,
      "CÃ³mo": 2539,
      "Ġmiemb": 2540,
      "ingÃºn": 2541,
      "Ġabril": 2542,
      "onos": 2543,
      "Ġim": 2544,
      "okies": 2545,
      "acto": 2546,
      "Ġapoyo": 2547,
      "elo": 2548,
      "ĠSo": 2549,
      "enci": 2550,
      "Ġimpres": 2551,
      "Ġpueda": 2552,
      "ĠSeg": 2553,
      "Ġpueblo": 2554,
      "isterio": 2555,
      "Ġdepor": 2556,
      "ĠdifÃŃ": 2557,
      "lante": 2558,
      "Ġjulio": 2559,
      "igura": 2560,
      "Ġmejorar": 2561,
      "zÃ³": 2562,
      "rito": 2563,
      "Ġcreo": 2564,
      "Ġencar": 2565,
      "fica": 2566,
      "Ġfel": 2567,
      "Ġdedic": 2568,
      "ĠPre": 2569,
      "Ġfabric": 2570,
      "Ġfre": 2571,
      "Ġseguro": 2572,
      "ĠespaÃ±ol": 2573,
      "rup": 2574,
      "ÃŃamos": 2575,
      "ĠPue": 2576,
      "Ġhablar": 2577,
      "Ġdispos": 2578,
      "Ġejerci": 2579,
      "ĠHo": 2580,
      "Ġfran": 2581,
      "Ġemo": 2582,
      "ivil": 2583,
      "dar": 2584,
      "Ġacab": 2585,
      "Ġconstru": 2586,
      "iza": 2587,
      "adie": 2588,
      "Ġveh": 2589,
      "Ġprincipales": 2590,
      "Ġfundam": 2591,
      "Ġtemporada": 2592,
      "Public": 2593,
      "Ġredes": 2594,
      "Ġpropio": 2595,
      "venes": 2596,
      "Ġusted": 2597,
      "ĠNe": 2598,
      "acer": 2599,
      "Ġadap": 2600,
      "RI": 2601,
      "Ġningun": 2602,
      "18": 2603,
      "Ġagu": 2604,
      "celona": 2605,
      "AC": 2606,
      "ĠAb": 2607,
      "Ġcolabor": 2608,
      "Ġabier": 2609,
      "Ġcoc": 2610,
      "amientos": 2611,
      "Ġbal": 2612,
      "Ġimagen": 2613,
      "Ġreco": 2614,
      "Ġrecor": 2615,
      "Ġvista": 2616,
      "Ġmedida": 2617,
      "Ġhombres": 2618,
      "Ġencan": 2619,
      "Como": 2620,
      "Ġdicho": 2621,
      "Ġpromo": 2622,
      "Ġesf": 2623,
      "Ġsorp": 2624,
      "ĠCam": 2625,
      "Ġobserv": 2626,
      "umo": 2627,
      "Ġedad": 2628,
      "Ãģ": 2629,
      "ket": 2630,
      "Ġparticular": 2631,
      "Ġsigue": 2632,
      "Â».": 2633,
      "Ġcamino": 2634,
      "ĠÃºltima": 2635,
      "bal": 2636,
      "dedor": 2637,
      "ÃŃtulo": 2638,
      "Ġmedidas": 2639,
      "ĠningÃºn": 2640,
      "Ġelim": 2641,
      "entaciÃ³n": 2642,
      "ĠEsto": 2643,
      "Ġpresente": 2644,
      "ĠÃºnico": 2645,
      "ĠgestiÃ³n": 2646,
      "aca": 2647,
      "Ġfamiliar": 2648,
      "dero": 2649,
      "Ġenfr": 2650,
      "Ġhaciendo": 2651,
      "Ġcierto": 2652,
      "Ġrespuesta": 2653,
      "Ġ2013": 2654,
      "Ġpesar": 2655,
      "ĠAy": 2656,
      "Ġconseguir": 2657,
      "partam": 2658,
      "Â»,": 2659,
      "ĠAsÃŃ": 2660,
      "Ġcontar": 2661,
      "unes": 2662,
      "Ġobtener": 2663,
      "ĠPal": 2664,
      "adres": 2665,
      "Ġresultado": 2666,
      "Ġsencil": 2667,
      "Ġresta": 2668,
      "Ġtratamiento": 2669,
      "Ġproyectos": 2670,
      "Ġpantal": 2671,
      "itor": 2672,
      "ĠSec": 2673,
      "Ġperman": 2674,
      "âĢĶ": 2675,
      "culo": 2676,
      "Ġ2022": 2677,
      "Ġgusta": 2678,
      "Ġellas": 2679,
      "Ġriesgo": 2680,
      "Ġunivers": 2681,
      "jes": 2682,
      "Ġrom": 2683,
      "ke": 2684,
      "Ġtrabajar": 2685,
      "Ġpalabras": 2686,
      "Ġarti": 2687,
      "Ġgob": 2688,
      "Ġasoci": 2689,
      "tivamente": 2690,
      "Ġpiel": 2691,
      "Ġabs": 2692,
      "xic": 2693,
      "ĠÃ©x": 2694,
      "tique": 2695,
      "guien": 2696,
      "Ġequipos": 2697,
      "ĠBo": 2698,
      "ĠLuis": 2699,
      "ulos": 2700,
      "Ã³venes": 2701,
      "Ġcri": 2702,
      "Ġvel": 2703,
      "Ġcuales": 2704,
      "Ġfecha": 2705,
      "ruz": 2706,
      "ĠGra": 2707,
      "ĠUN": 2708,
      "Ġocu": 2709,
      "ĠArgentina": 2710,
      "Ġestoy": 2711,
      "Ġcomunidad": 2712,
      "Ġsecre": 2713,
      "Ġaz": 2714,
      "16": 2715,
      "Ġaire": 2716,
      "Ã©st": 2717,
      "ĠenergÃŃa": 2718,
      "ines": 2719,
      "Ġcorrec": 2720,
      "Ġgrande": 2721,
      "Ġvolver": 2722,
      "ĠThe": 2723,
      "Ġfi": 2724,
      "Ġbusc": 2725,
      "Ġpreoc": 2726,
      "Ġentrada": 2727,
      "apar": 2728,
      "ĠestÃ©": 2729,
      "ĠGeneral": 2730,
      "Ġfe": 2731,
      "Ġentren": 2732,
      "Ġpopular": 2733,
      "Ġexcl": 2734,
      "idores": 2735,
      "Ġanunci": 2736,
      "Ġaudi": 2737,
      "del": 2738,
      "Ġvic": 2739,
      "ĠinterÃ©s": 2740,
      "Ġagr": 2741,
      "ianza": 2742,
      "rido": 2743,
      "fico": 2744,
      "Ġdisfrutar": 2745,
      "aÃ±os": 2746,
      "Re": 2747,
      "Ġpropia": 2748,
      "ĠserÃŃa": 2749,
      "Ġdescub": 2750,
      "Ġcompra": 2751,
      "Ġ199": 2752,
      "Ġtuvo": 2753,
      "uerra": 2754,
      "Ġdeman": 2755,
      "Ġimportantes": 2756,
      "14": 2757,
      "Ã¼": 2758,
      "Ġense": 2759,
      "iciones": 2760,
      "igo": 2761,
      "venciÃ³n": 2762,
      "ĠBan": 2763,
      "Ġpron": 2764,
      "ĠprÃ³ximo": 2765,
      "ĠEsc": 2766,
      "ĠDirec": 2767,
      "Ġcuid": 2768,
      "Ġutilizar": 2769,
      "Ã©ctr": 2770,
      "Pro": 2771,
      "Ġbueno": 2772,
      "crip": 2773,
      "ĠtecnologÃŃa": 2774,
      "Ġrecord": 2775,
      "lares": 2776,
      "ĠopciÃ³n": 2777,
      "ila": 2778,
      "Ġoportunidad": 2779,
      "iernes": 2780,
      "igu": 2781,
      "ĠcomunicaciÃ³n": 2782,
      "ancias": 2783,
      "Ġcomprom": 2784,
      "ner": 2785,
      "istemas": 2786,
      "Ġestilo": 2787,
      "Ġconsum": 2788,
      "Ġvideo": 2789,
      "Ġoblig": 2790,
      "Ġmater": 2791,
      "Ġcob": 2792,
      "ecen": 2793,
      "demia": 2794,
      "Ġinternacional": 2795,
      "Ġconcep": 2796,
      "Ġtit": 2797,
      "ĠRec": 2798,
      "Ġamigos": 2799,
      "Ġcosa": 2800,
      "ĠÂ»": 2801,
      "OM": 2802,
      "13": 2803,
      "ĠvehÃŃcul": 2804,
      "ĠFac": 2805,
      "Ã³l": 2806,
      "Ġvamos": 2807,
      "ĠpoblaciÃ³n": 2808,
      "Ġpeso": 2809,
      "irma": 2810,
      "ĠpelÃŃcula": 2811,
      "ĠFern": 2812,
      "Ġpermit": 2813,
      "ebook": 2814,
      "Ġconci": 2815,
      "ĠcompaÃ±ÃŃa": 2816,
      "--": 2817,
      "ĠAle": 2818,
      "Ġfis": 2819,
      "Ġacciones": 2820,
      "Ġprofesionales": 2821,
      "tÃŃn": 2822,
      "Ġlista": 2823,
      "Ġvas": 2824,
      "Ġpoc": 2825,
      "Ġjuegos": 2826,
      "Ġduda": 2827,
      "trÃ¡s": 2828,
      "Ġcateg": 2829,
      "taron": 2830,
      "para": 2831,
      "Ġestrateg": 2832,
      "Ġcomien": 2833,
      "ole": 2834,
      "Ġcookies": 2835,
      "quina": 2836,
      "Ġterc": 2837,
      "ĠdemÃ¡s": 2838,
      "Ġmuestra": 2839,
      "ĠLey": 2840,
      "Ġagosto": 2841,
      "ativo": 2842,
      "Ġ40": 2843,
      "Ġ28": 2844,
      "tagon": 2845,
      "Ġrespe": 2846,
      "Ġconduc": 2847,
      "Ġrecibir": 2848,
      "Ġfan": 2849,
      "nov": 2850,
      "Ġestruc": 2851,
      "torno": 2852,
      "udo": 2853,
      "Ġcontenido": 2854,
      "Ġdado": 2855,
      "Ġmoder": 2856,
      "ĠjÃ³venes": 2857,
      "ĠCarlos": 2858,
      "Ġbuscar": 2859,
      "Ġvig": 2860,
      "Ġmuerte": 2861,
      "ĠtÃ©r": 2862,
      "zon": 2863,
      "Ã©di": 2864,
      "Ġfebrero": 2865,
      "entemente": 2866,
      "Ġcalle": 2867,
      "ht": 2868,
      "Ġindivid": 2869,
      "Ġata": 2870,
      "ĠMu": 2871,
      "Ã©l": 2872,
      "17": 2873,
      "Ġresto": 2874,
      "Ġposibilidad": 2875,
      "ste": 2876,
      "Ġseman": 2877,
      "Ġvisto": 2878,
      "ware": 2879,
      "Ġinterior": 2880,
      "tri": 2881,
      "ĠformaciÃ³n": 2882,
      "Ãºblica": 2883,
      "ardo": 2884,
      "oro": 2885,
      "ĠCiudad": 2886,
      "Ġdio": 2887,
      "Ġsean": 2888,
      "Ġmanos": 2889,
      "entas": 2890,
      "icÃŃa": 2891,
      "ĠdiseÃ±": 2892,
      "ÃŃstica": 2893,
      "itan": 2894,
      "ĠCuando": 2895,
      "Ġfuerte": 2896,
      "fil": 2897,
      "Ġusuario": 2898,
      "Ġnecesidad": 2899,
      "Ġhabl": 2900,
      "ulaciÃ³n": 2901,
      "ĠCentro": 2902,
      "Ġ2011": 2903,
      "ĠMarÃŃa": 2904,
      "ph": 2905,
      "Pero": 2906,
      "Publicado": 2907,
      "Ġrealmente": 2908,
      "Ġ27": 2909,
      "Ġses": 2910,
      "Ġexcel": 2911,
      "reas": 2912,
      "Ġder": 2913,
      "EM": 2914,
      "icidad": 2915,
      "ombia": 2916,
      "ĠacciÃ³n": 2917,
      "Ġidentific": 2918,
      "aya": 2919,
      "orpor": 2920,
      "Ġopciones": 2921,
      "IL": 2922,
      "ĠÃ¡rea": 2923,
      "Ġ26": 2924,
      "rados": 2925,
      "Ġlleva": 2926,
      "ĠEuropa": 2927,
      "Ġinicia": 2928,
      "Ġblog": 2929,
      "lio": 2930,
      "greso": 2931,
      "ĠbÃ¡s": 2932,
      ".,": 2933,
      "ĠComun": 2934,
      "Ġaquellos": 2935,
      "Ġjugar": 2936,
      "stico": 2937,
      "Ġnecesidades": 2938,
      "Ġalguien": 2939,
      "ry": 2940,
      "Ġpubl": 2941,
      "ĠMer": 2942,
      "Ġhijos": 2943,
      "ĠSol": 2944,
      "val": 2945,
      "ork": 2946,
      "cina": 2947,
      "Ġjoven": 2948,
      "ulas": 2949,
      "Ġtam": 2950,
      "ðŁ": 2951,
      "bajo": 2952,
      "uerto": 2953,
      "Ġcampo": 2954,
      "ical": 2955,
      "ĠahÃŃ": 2956,
      "Ġviene": 2957,
      "rag": 2958,
      "ĠBarcelona": 2959,
      "ogle": 2960,
      "Ac": 2961,
      "tim": 2962,
      "ĠdÃ³": 2963,
      "Ġnadie": 2964,
      "Ġpost": 2965,
      "Ã©m": 2966,
      "Ġcult": 2967,
      "abe": 2968,
      "witter": 2969,
      "pl": 2970,
      "idor": 2971,
      "ĠTer": 2972,
      "Ġindep": 2973,
      "Ġlit": 2974,
      "Ġprimeros": 2975,
      "Ġconec": 2976,
      "Ġconjunto": 2977,
      "Ġdura": 2978,
      "Ġexig": 2979,
      "ĠSanta": 2980,
      "ĠdifÃŃcil": 2981,
      "Ġlar": 2982,
      "Ġdia": 2983,
      "Ex": 2984,
      "ĠQue": 2985,
      "rimon": 2986,
      "Ã¡ndose": 2987,
      "Ġplante": 2988,
      "tia": 2989,
      "24": 2990,
      "ĠmÃ³vil": 2991,
      "ĠeducaciÃ³n": 2992,
      "Ġdemas": 2993,
      "Ġesas": 2994,
      "alizado": 2995,
      "Ġcrecimiento": 2996,
      "Ġconcre": 2997,
      "Ġcarrera": 2998,
      "ĠVen": 2999,
      "ĠdirecciÃ³n": 3000,
      "ĠNav": 3001,
      "US": 3002,
      "Ġviaje": 3003,
      "ĠPr": 3004,
      "Ġcara": 3005,
      "ong": 3006,
      "xim": 3007,
      "Le": 3008,
      "ĠmÃŃ": 3009,
      "Ġtenido": 3010,
      "ferencia": 3011,
      "Ġmaterial": 3012,
      "ĠÃ©xito": 3013,
      "Ġcrisis": 3014,
      "ĠBuen": 3015,
      "Ġnecesita": 3016,
      "Ġprem": 3017,
      "UR": 3018,
      "irse": 3019,
      "Ġhttp": 3020,
      "Ġfru": 3021,
      "Ġcontr": 3022,
      "Ġcabeza": 3023,
      "ĠBol": 3024,
      "Ġoficial": 3025,
      "ĠMi": 3026,
      "ĠPlan": 3027,
      "fe": 3028,
      "Ġbusca": 3029,
      "Ġreserv": 3030,
      "Ġsir": 3031,
      "Ġcontacto": 3032,
      "cular": 3033,
      "au": 3034,
      "si": 3035,
      "Ġmucha": 3036,
      "Ġconsidera": 3037,
      "Ġelementos": 3038,
      "Ġarch": 3039,
      "Ġprueba": 3040,
      "Ġdescon": 3041,
      "ĠCrist": 3042,
      "ck": 3043,
      "tora": 3044,
      "Ã¡mara": 3045,
      "Ġalre": 3046,
      "Ġfuerza": 3047,
      "Ġobras": 3048,
      "iencias": 3049,
      "esta": 3050,
      "vech": 3051,
      "tÃ©": 3052,
      "ender": 3053,
      "Ġcandida": 3054,
      "Ġnaci": 3055,
      "25": 3056,
      "Ġcambios": 3057,
      "Ġpresencia": 3058,
      "Ġespecialmente": 3059,
      "Ġtrabajadores": 3060,
      "pone": 3061,
      "istro": 3062,
      "ĠconstrucciÃ³n": 3063,
      "IO": 3064,
      "Ġesfuer": 3065,
      "Ġgrupos": 3066,
      "put": 3067,
      "men": 3068,
      "telig": 3069,
      "gles": 3070,
      "Ġtemas": 3071,
      "ĠfunciÃ³n": 3072,
      "Ġresist": 3073,
      "uye": 3074,
      "hu": 3075,
      "Ġcliente": 3076,
      "Ġsolu": 3077,
      "Ġpago": 3078,
      "pir": 3079,
      "eral": 3080,
      "rÃ³": 3081,
      "ĠConse": 3082,
      "Ġgratu": 3083,
      "ĠâĢĶ": 3084,
      "Ġsuperior": 3085,
      "ertad": 3086,
      "ĠversiÃ³n": 3087,
      "ĠorganizaciÃ³n": 3088,
      "Ġmadre": 3089,
      "Ġplazo": 3090,
      "entan": 3091,
      "tamos": 3092,
      "Ġmayores": 3093,
      "ieza": 3094,
      "Ã¡genes": 3095,
      "Ġsust": 3096,
      "www": 3097,
      "puÃ©s": 3098,
      "remos": 3099,
      "ĠEduc": 3100,
      "Ġvari": 3101,
      "Ġpudi": 3102,
      "Ġped": 3103,
      "terÃŃa": 3104,
      "Ġfotos": 3105,
      "Ġnegocio": 3106,
      "ĠRep": 3107,
      "ĠUS": 3108,
      "ĠServ": 3109,
      "dific": 3110,
      "tiendo": 3111,
      "Ġ&": 3112,
      "ĠInstitu": 3113,
      "ĠSon": 3114,
      "Ġprotagon": 3115,
      "ĠJes": 3116,
      "Ġrequier": 3117,
      "ĠOb": 3118,
      "Ġexiste": 3119,
      "Ġinme": 3120,
      "ĠSer": 3121,
      "ĠaÃ±ad": 3122,
      "ale": 3123,
      "ly": 3124,
      "ĠtelÃ©f": 3125,
      "Ġvisit": 3126,
      "ĠMay": 3127,
      "Ġpasa": 3128,
      "uesto": 3129,
      "Ġqueda": 3130,
      "ĠtodavÃŃa": 3131,
      "Ġimportancia": 3132,
      "Ġlig": 3133,
      "ultura": 3134,
      "cÃŃa": 3135,
      "Ġfrecu": 3136,
      "ĠelÃ©ctr": 3137,
      "Ġsalir": 3138,
      "Ġjorn": 3139,
      "Ġrepar": 3140,
      "âĢĿ,": 3141,
      "Ġeuro": 3142,
      "Â«": 3143,
      "ĠserÃ¡n": 3144,
      "Ġenci": 3145,
      "Ġjur": 3146,
      "diz": 3147,
      "ĠanÃ¡lisis": 3148,
      "Ġdemos": 3149,
      "ĠmÃŃn": 3150,
      "Ġencuentro": 3151,
      "ospital": 3152,
      "Ġprecis": 3153,
      "Ġpier": 3154,
      "uestas": 3155,
      "ceder": 3156,
      "Ġalmac": 3157,
      "Ġofrecer": 3158,
      "via": 3159,
      "Ġpuedan": 3160,
      "Ã³di": 3161,
      "eratura": 3162,
      "uelo": 3163,
      "eria": 3164,
      "Ġproteg": 3165,
      "Ġincorpor": 3166,
      "Ġterri": 3167,
      "IT": 3168,
      "Ãºa": 3169,
      "Ġcargo": 3170,
      "americ": 3171,
      "ĠTor": 3172,
      "ÃŃos": 3173,
      "Ġeran": 3174,
      "23": 3175,
      "Ġcambiar": 3176,
      "Ġcora": 3177,
      "Ġagra": 3178,
      "Ġleer": 3179,
      "Ġhijo": 3180,
      "teriores": 3181,
      "Ġpermitir": 3182,
      "Te": 3183,
      "Ġregres": 3184,
      "tisf": 3185,
      "tarse": 3186,
      "Ġambiente": 3187,
      "hib": 3188,
      "imientos": 3189,
      "idencia": 3190,
      "ĠcaracterÃŃsticas": 3191,
      "Ġelabor": 3192,
      "arte": 3193,
      "ĠSalud": 3194,
      "ĠtÃ©rmin": 3195,
      "Ġ2010": 3196,
      "edor": 3197,
      "Ġajust": 3198,
      "ĠPas": 3199,
      "Ġhacerlo": 3200,
      "AT": 3201,
      "Ġconcl": 3202,
      "Ġcoloc": 3203,
      "Ġcurso": 3204,
      "Ġadi": 3205,
      "Ġninguna": 3206,
      "AdemÃ¡s": 3207,
      "ĠpequeÃ±o": 3208,
      "Ġestudiantes": 3209,
      "Ġmismos": 3210,
      "ĠMartÃŃn": 3211,
      "Ġambos": 3212,
      "ant": 3213,
      "Ġmic": 3214,
      "Res": 3215,
      "Ġcine": 3216,
      "Ġseis": 3217,
      "Ġpartes": 3218,
      "Ġarte": 3219,
      "ĠrazÃ³n": 3220,
      "Ġviernes": 3221,
      "Ġmenor": 3222,
      "umen": 3223,
      "li": 3224,
      "ĠdecisiÃ³n": 3225,
      "iro": 3226,
      "Ġespaci": 3227,
      "Ġhogar": 3228,
      "ĠCons": 3229,
      "ampoco": 3230,
      "ueves": 3231,
      "Ġsiglo": 3232,
      "ĠediciÃ³n": 3233,
      "ond": 3234,
      "Ġtierra": 3235,
      "ĠcomÃºn": 3236,
      "vers": 3237,
      "Ġpagar": 3238,
      "ĠHay": 3239,
      "Sin": 3240,
      "rÃ¡n": 3241,
      "ĠDel": 3242,
      "ĠhistÃ³r": 3243,
      "ĠTen": 3244,
      "Ġdolor": 3245,
      "Ġtem": 3246,
      "Ġmane": 3247,
      "ĠparticipaciÃ³n": 3248,
      "Ġpuedo": 3249,
      "rum": 3250,
      "Ġautom": 3251,
      "acin": 3252,
      "Ġprincipio": 3253,
      "inado": 3254,
      "ĠtendrÃ¡": 3255,
      "Ġmat": 3256,
      "Ġdom": 3257,
      "Ġcorreo": 3258,
      "Ġprom": 3259,
      "Ġ+": 3260,
      "Ġbrin": 3261,
      "mpres": 3262,
      "vieron": 3263,
      "Ġformas": 3264,
      "ps": 3265,
      "ĠpÃºblica": 3266,
      "Ġespera": 3267,
      "Ġsoy": 3268,
      "ĠregiÃ³n": 3269,
      "aces": 3270,
      "Ġpul": 3271,
      "Ġsiguientes": 3272,
      "Ġ29": 3273,
      "olver": 3274,
      "ĠSa": 3275,
      "__": 3276,
      "Ġdiferencia": 3277,
      "Ã¡ndez": 3278,
      "Ġmedia": 3279,
      "itario": 3280,
      "Ãī": 3281,
      "Ġlugares": 3282,
      "Ġbor": 3283,
      "ĠChile": 3284,
      "ĠenseÃ±": 3285,
      "Ġdo": 3286,
      "ĠCa": 3287,
      "ĠÂ·": 3288,
      "Ã¡bado": 3289,
      "ĠCap": 3290,
      "ĠDEL": 3291,
      "Ġverda": 3292,
      "ĠelectrÃ³nico": 3293,
      "table": 3294,
      "Ġmundial": 3295,
      "Ġcompleto": 3296,
      "Ġhici": 3297,
      "ĠallÃŃ": 3298,
      "vent": 3299,
      "vista": 3300,
      "Ġmulti": 3301,
      "esa": 3302,
      "Ġbel": 3303,
      "asa": 3304,
      "Ġlen": 3305,
      "cle": 3306,
      "dra": 3307,
      "Ġplanta": 3308,
      "Ġestudios": 3309,
      "ĠÃ©p": 3310,
      "Ġefecto": 3311,
      "este": 3312,
      "vi": 3313,
      "ff": 3314,
      "Ġbaja": 3315,
      "Ġhas": 3316,
      "Ġconocimiento": 3317,
      "ĠMinisterio": 3318,
      "ĠimÃ¡genes": 3319,
      "Ġtradici": 3320,
      "ĠprotecciÃ³n": 3321,
      "ĠLib": 3322,
      "Ġvivir": 3323,
      "Ġaprob": 3324,
      "Ġglo": 3325,
      "Ġacon": 3326,
      "ĠColombia": 3327,
      "ĠHer": 3328,
      "Ġpareja": 3329,
      "Ġalimentos": 3330,
      "Ġefectos": 3331,
      "ĠÃºnica": 3332,
      "Ġaprovech": 3333,
      "ativa": 3334,
      "Ġtenga": 3335,
      "Ġpen": 3336,
      "pan": 3337,
      "Ġevalu": 3338,
      "grafÃŃa": 3339,
      "Ġvin": 3340,
      "glÃ©s": 3341,
      "ĠsÃ©": 3342,
      "tiles": 3343,
      "Ġexten": 3344,
      "Ġsistemas": 3345,
      "Ġhotel": 3346,
      "Ġextre": 3347,
      "UL": 3348,
      "Ġrecl": 3349,
      "olÃ³gico": 3350,
      "Ġpadres": 3351,
      "Ġfies": 3352,
      "ientÃŃf": 3353,
      "ajas": 3354,
      "Ġautoridades": 3355,
      "Ġencuentran": 3356,
      "Mar": 3357,
      "ĠcampaÃ±a": 3358,
      "ĠâĢ¢": 3359,
      "onz": 3360,
      "Ġeta": 3361,
      "Ġsemanas": 3362,
      "Ġcausa": 3363,
      "ĠSE": 3364,
      "Ġsabe": 3365,
      "tadas": 3366,
      "tbol": 3367,
      "Cuando": 3368,
      "Ġmiembros": 3369,
      "Ġdan": 3370,
      "ĠNoticias": 3371,
      "ĠdÃ³lares": 3372,
      "tilla": 3373,
      "Ġpantalla": 3374,
      "ka": 3375,
      "bil": 3376,
      "Ġclase": 3377,
      "teles": 3378,
      "mite": 3379,
      "formaciÃ³n": 3380,
      "Ġentrega": 3381,
      "partamento": 3382,
      "Ġpadre": 3383,
      "Ġconsumo": 3384,
      "Ġtran": 3385,
      "Ġ60": 3386,
      "Ãºsque": 3387,
      "Ġciento": 3388,
      "ENT": 3389,
      "Ġcocina": 3390,
      "orme": 3391,
      "Ġobst": 3392,
      "Ġevento": 3393,
      "eso": 3394,
      "Ġcultura": 3395,
      "ĠâĢ¦": 3396,
      "cionado": 3397,
      "Ġalrededor": 3398,
      "estr": 3399,
      "itivos": 3400,
      "tÃ³n": 3401,
      "estion": 3402,
      "indo": 3403,
      "IM": 3404,
      "ĠtrÃ¡": 3405,
      "Desde": 3406,
      "Ġmez": 3407,
      "60": 3408,
      "Ġtipos": 3409,
      "LE": 3410,
      "endiente": 3411,
      "Ġsatisf": 3412,
      "deo": 3413,
      "Ġperder": 3414,
      "40": 3415,
      "ĠInternet": 3416,
      "Ġimag": 3417,
      "dente": 3418,
      "Ġconserv": 3419,
      "cti": 3420,
      "rÃŃa": 3421,
      "Ġmomentos": 3422,
      "todo": 3423,
      "Ġdev": 3424,
      "Ġconsul": 3425,
      "ĠpodrÃ¡": 3426,
      "encial": 3427,
      "Ġjugadores": 3428,
      "cionales": 3429,
      "ĠDer": 3430,
      "Ġlunes": 3431,
      "rios": 3432,
      "Ġdomingo": 3433,
      "ity": 3434,
      "dena": 3435,
      "ati": 3436,
      "Ġdesarrollar": 3437,
      "Ġlibros": 3438,
      "Ġmovimiento": 3439,
      "ĠReal": 3440,
      "ĠAnton": 3441,
      "Ġpm": 3442,
      "irÃ¡": 3443,
      "Ġcel": 3444,
      "AP": 3445,
      "aller": 3446,
      "Ġindustria": 3447,
      "Ġsum": 3448,
      "rada": 3449,
      "udas": 3450,
      "Ġahor": 3451,
      "',": 3452,
      "oble": 3453,
      "ĠPAR": 3454,
      "Ġpelig": 3455,
      "Ã¡lo": 3456,
      "Ġps": 3457,
      "culos": 3458,
      "Ġ>": 3459,
      "Ġmostr": 3460,
      "Ġmetros": 3461,
      "itaria": 3462,
      "cados": 3463,
      "ciona": 3464,
      "Ġdigital": 3465,
      "Ġgal": 3466,
      "untamiento": 3467,
      "Ġquieres": 3468,
      "Ãºtbol": 3469,
      "Ġid": 3470,
      "Ġpresenta": 3471,
      "Ġlograr": 3472,
      "Ġoro": 3473,
      "ĠYa": 3474,
      "metros": 3475,
      "ormente": 3476,
      "ee": 3477,
      "lev": 3478,
      "Ġsil": 3479,
      "âĢĿ.": 3480,
      "iere": 3481,
      "Ġdesarroll": 3482,
      "Ġrad": 3483,
      "ciÃ³": 3484,
      "Ġclub": 3485,
      "uri": 3486,
      "itado": 3487,
      "Ġganar": 3488,
      "Ġalterna": 3489,
      "gura": 3490,
      "tad": 3491,
      "Ġprocesos": 3492,
      "ĠSuper": 3493,
      "Ġsepar": 3494,
      "siones": 3495,
      "Ġexclus": 3496,
      "coles": 3497,
      "Ġayer": 3498,
      "Ġinterpre": 3499,
      "tios": 3500,
      "ĠMic": 3501,
      "bu": 3502,
      "hat": 3503,
      "ĠGoogle": 3504,
      "ink": 3505,
      "Ġestrel": 3506,
      "ĠtamaÃ±o": 3507,
      "iguel": 3508,
      "ende": 3509,
      "reno": 3510,
      "Ġpensar": 3511,
      "Ġpreocup": 3512,
      "Ġsuficiente": 3513,
      "Ġincre": 3514,
      "ÃŃm": 3515,
      "ĠCos": 3516,
      "tencia": 3517,
      "Ġpropie": 3518,
      "Ġojos": 3519,
      "Ġcompartir": 3520,
      "Ġbon": 3521,
      "riv": 3522,
      "zan": 3523,
      "eÃ±o": 3524,
      "ĠPrim": 3525,
      "Ġllega": 3526,
      "Ġprovincia": 3527,
      "aco": 3528,
      "Ġencontra": 3529,
      "Ġclave": 3530,
      "Seg": 3531,
      "Ġanun": 3532,
      "ĠRos": 3533,
      "Ġsuel": 3534,
      "Ġcic": 3535,
      "ĠpequeÃ±os": 3536,
      "taria": 3537,
      "Ġnum": 3538,
      "dÃŃa": 3539,
      "ĠmÃ¡ximo": 3540,
      "Ġrendi": 3541,
      "rit": 3542,
      "ĠDÃŃa": 3543,
      "isl": 3544,
      "Ġkil": 3545,
      "ĠDesde": 3546,
      "Ġalmacen": 3547,
      "DO": 3548,
      "ear": 3549,
      "vin": 3550,
      "Ġsuce": 3551,
      "Ġincluye": 3552,
      "ĠallÃ¡": 3553,
      "ĠeconomÃŃa": 3554,
      "ablo": 3555,
      "ĠAu": 3556,
      "ticamente": 3557,
      "rimonio": 3558,
      "Ġideas": 3559,
      "fa": 3560,
      "Yo": 3561,
      "Ġlibertad": 3562,
      "Ġherramientas": 3563,
      "Ġhom": 3564,
      "mer": 3565,
      "ĠniÃ±o": 3566,
      "Ġquiero": 3567,
      "Ġexperim": 3568,
      "isa": 3569,
      "ĠMunicip": 3570,
      "Ġnar": 3571,
      "05": 3572,
      "itales": 3573,
      "Ġpresu": 3574,
      "ĠAL": 3575,
      "Ġta": 3576,
      "ĠbÃºsque": 3577,
      "Ġdistintos": 3578,
      "Ġverano": 3579,
      "diendo": 3580,
      "rende": 3581,
      "col": 3582,
      "ĠsoluciÃ³n": 3583,
      "Ã©rcoles": 3584,
      "http": 3585,
      "Ġpreten": 3586,
      "Ġmec": 3587,
      "ÃŃdo": 3588,
      "ĠLat": 3589,
      "Ġace": 3590,
      "Ġprofun": 3591,
      "Ġmateriales": 3592,
      "izado": 3593,
      "Ġmateria": 3594,
      "Inicio": 3595,
      "ajo": 3596,
      "ezuela": 3597,
      "Ġmexic": 3598,
      "Ġintelig": 3599,
      "Ġsupuesto": 3600,
      "Ġprogramas": 3601,
      "Ã³nde": 3602,
      "Ġbienes": 3603,
      "ĠcorazÃ³n": 3604,
      "orta": 3605,
      "Ġacerca": 3606,
      "Ġdirectamente": 3607,
      "mail": 3608,
      "cisco": 3609,
      "Ġfondo": 3610,
      "Ġpacientes": 3611,
      "Ġcolores": 3612,
      "Ġprovoc": 3613,
      "Ġniveles": 3614,
      "Ġhumanos": 3615,
      "Ġmem": 3616,
      "Ġpien": 3617,
      "erto": 3618,
      "Ġejecu": 3619,
      "Ġsomos": 3620,
      "Ġpersonales": 3621,
      "Ġindustri": 3622,
      "Ġplataforma": 3623,
      "op": 3624,
      "ĠInternacional": 3625,
      "Ġdeja": 3626,
      "oper": 3627,
      "Ġgobern": 3628,
      "Ã©tica": 3629,
      "Ġconvertir": 3630,
      "ĠFin": 3631,
      "03": 3632,
      "Ġsalida": 3633,
      "Ġzonas": 3634,
      "Ġenfermedad": 3635,
      "Ġcrist": 3636,
      "orge": 3637,
      "orÃŃas": 3638,
      "tric": 3639,
      "Ġconsecu": 3640,
      "Ch": 3641,
      "ablemente": 3642,
      "Ġpartidos": 3643,
      "Ġtab": 3644,
      "ĠinversiÃ³n": 3645,
      "09": 3646,
      "ĠSh": 3647,
      "ĠGal": 3648,
      "ime": 3649,
      "Ġbeneficios": 3650,
      "Ã¡ticos": 3651,
      "tidades": 3652,
      "Ġmodelos": 3653,
      "Ġmodific": 3654,
      "Ġtotalmente": 3655,
      "ĠespecÃŃf": 3656,
      "Ġentender": 3657,
      "Ġvie": 3658,
      "Ġveloci": 3659,
      "teriormente": 3660,
      "01": 3661,
      "ĠPan": 3662,
      "ĠprÃ¡ctica": 3663,
      "âĢ¢": 3664,
      "Ġcomida": 3665,
      "Ġdemasiado": 3666,
      "Ġorigen": 3667,
      "Ġvisita": 3668,
      "Ġpun": 3669,
      "Ã³nica": 3670,
      "ĠllegÃ³": 3671,
      "AB": 3672,
      "Ġexisten": 3673,
      "Ġens": 3674,
      "ĠeconÃ³mica": 3675,
      "CO": 3676,
      "enda": 3677,
      "irmÃ³": 3678,
      "ribun": 3679,
      "ĠcrÃ©di": 3680,
      "Ġvoy": 3681,
      "Ġdetalles": 3682,
      "Ġfamilias": 3683,
      "Ġprove": 3684,
      "Ġalcal": 3685,
      "Ġedifici": 3686,
      "Ġvolun": 3687,
      "Ġguerra": 3688,
      "ĠcontinuaciÃ³n": 3689,
      "ĠMus": 3690,
      "lez": 3691,
      "Ġnorte": 3692,
      "tarÃŃa": 3693,
      "render": 3694,
      "ĠdÃ©": 3695,
      "dicos": 3696,
      "ĠcientÃŃf": 3697,
      "mento": 3698,
      "Ġiz": 3699,
      "Ġlocales": 3700,
      "ĠGarcÃŃa": 3701,
      "ame": 3702,
      "Ã³digo": 3703,
      "ĠpolÃŃticas": 3704,
      "Ġnaveg": 3705,
      "04": 3706,
      "Ġclic": 3707,
      "Ġacus": 3708,
      "MP": 3709,
      "Ġperten": 3710,
      "laz": 3711,
      "Ġelegir": 3712,
      "Ġpros": 3713,
      "ĠsÃ¡bado": 3714,
      "Ġviolencia": 3715,
      "torial": 3716,
      "Ġeurope": 3717,
      "imismo": 3718,
      "Ġaplicaciones": 3719,
      "Ġmarco": 3720,
      "SO": 3721,
      "Ġmensaje": 3722,
      "TambiÃ©n": 3723,
      "Ġescen": 3724,
      "28": 3725,
      "26": 3726,
      "Ġinicio": 3727,
      "ĠhabÃŃan": 3728,
      "itiva": 3729,
      "ĠvÃŃcti": 3730,
      "Ġtiempos": 3731,
      "ĠSocial": 3732,
      "ĠAmÃ©rica": 3733,
      "Ġintro": 3734,
      "hes": 3735,
      "Ġnaturaleza": 3736,
      "abil": 3737,
      "Car": 3738,
      "ĠtÃŃtulo": 3739,
      "Ġprome": 3740,
      "estiv": 3741,
      "ĠpequeÃ±a": 3742,
      "Ġutiliza": 3743,
      "cepciÃ³n": 3744,
      "08": 3745,
      "Ġprensa": 3746,
      "Ġconcent": 3747,
      "edro": 3748,
      "iales": 3749,
      "Ġoriginal": 3750,
      "ĠJust": 3751,
      "Ġrelaciones": 3752,
      "ĠgÃ©n": 3753,
      "ĠMas": 3754,
      "Ġinnov": 3755,
      "dientes": 3756,
      "Ġaprender": 3757,
      "ĠposiciÃ³n": 3758,
      "ET": 3759,
      "ello": 3760,
      "Ġpelo": 3761,
      "Ġdisponible": 3762,
      "dimiento": 3763,
      "ĠtelÃ©fono": 3764,
      "ĠTur": 3765,
      "Ġren": 3766,
      "Ġ*": 3767,
      "entales": 3768,
      "ĠOl": 3769,
      "Ġmad": 3770,
      "idamente": 3771,
      "ĠopiniÃ³n": 3772,
      "ificar": 3773,
      "Ġreconoc": 3774,
      "inaria": 3775,
      "Ġacces": 3776,
      "Ġpruebas": 3777,
      "ĠNueva": 3778,
      "Ġtarje": 3779,
      "amo": 3780,
      "Ġtampoco": 3781,
      "pal": 3782,
      "teca": 3783,
      "olÃ³gica": 3784,
      "Su": 3785,
      "Ġveci": 3786,
      "Ġ2009": 3787,
      "uestro": 3788,
      "Ġejercicio": 3789,
      "ĠAma": 3790,
      "ĠAntonio": 3791,
      "Ã³pez": 3792,
      "Ġdiferente": 3793,
      "Ġideal": 3794,
      "Ġfut": 3795,
      "ĠDan": 3796,
      "07": 3797,
      "Que": 3798,
      "keting": 3799,
      "VID": 3800,
      "Ġhumano": 3801,
      "Ġrecuer": 3802,
      "Ġorient": 3803,
      "Ġaumento": 3804,
      "Ġadelante": 3805,
      "iete": 3806,
      "Ġgaranti": 3807,
      "tarÃ¡": 3808,
      "Ġhon": 3809,
      "27": 3810,
      "rer": 3811,
      "ĠcreaciÃ³n": 3812,
      "Ġllamado": 3813,
      "cla": 3814,
      "Ġtransporte": 3815,
      "??": 3816,
      "DE": 3817,
      "Ġpregunta": 3818,
      "Ġizquier": 3819,
      "Ġjef": 3820,
      "quÃ©": 3821,
      "Ġmit": 3822,
      "onia": 3823,
      "Ġblanco": 3824,
      "entado": 3825,
      "Ġinforme": 3826,
      "ĠSecre": 3827,
      "MA": 3828,
      "Ġmarcha": 3829,
      "06": 3830,
      "Ġelev": 3831,
      "Ġjornada": 3832,
      "ĠNO": 3833,
      "ulares": 3834,
      "ĠMundial": 3835,
      "29": 3836,
      "Ġtienda": 3837,
      "Ġsuperfici": 3838,
      "Ã³sito": 3839,
      "enos": 3840,
      "ticia": 3841,
      "ĠGonz": 3842,
      "Pre": 3843,
      "Ġvalores": 3844,
      "ĠOc": 3845,
      "Ġmilitar": 3846,
      "ĠMÃ¡s": 3847,
      "pens": 3848,
      "Ġalumnos": 3849,
      "ICI": 3850,
      "Ġtrabajos": 3851,
      "Ġcivil": 3852,
      "Ġdesapar": 3853,
      "Ġcapaci": 3854,
      "SegÃºn": 3855,
      "ĠpÃ©r": 3856,
      "uta": 3857,
      "Ġtexto": 3858,
      "ĠÃ©poca": 3859,
      "Ġlanz": 3860,
      "Ġdemoc": 3861,
      "ĠeconÃ³mico": 3862,
      "ĠJesÃºs": 3863,
      "Ġpandemia": 3864,
      "ĠpodrÃ¡s": 3865,
      "ore": 3866,
      "ĠartÃŃculos": 3867,
      "quitec": 3868,
      "pectos": 3869,
      "Ġantigu": 3870,
      "Ġoferta": 3871,
      "Ġhechos": 3872,
      "ĠVic": 3873,
      "Ġsimplemente": 3874,
      "Ġfra": 3875,
      "ĠÃ¡mb": 3876,
      "quer": 3877,
      "ismos": 3878,
      "uniden": 3879,
      "ĠEducaciÃ³n": 3880,
      "cito": 3881,
      "Ġlucha": 3882,
      "ins": 3883,
      "org": 3884,
      "Ġentorno": 3885,
      "ĠestÃ¡s": 3886,
      "Ġequ": 3887,
      "Ġvoz": 3888,
      "Ġtro": 3889,
      "itaciÃ³n": 3890,
      "Ġencima": 3891,
      "Ġcat": 3892,
      "Ġamena": 3893,
      "ker": 3894,
      "rantes": 3895,
      "ance": 3896,
      "Ġcomercial": 3897,
      "ĠpolÃŃtico": 3898,
      "fes": 3899,
      "Ġpesos": 3900,
      "Ġjueves": 3901,
      "fÃŃa": 3902,
      "Ġfamos": 3903,
      "ĠrÃ¡pido": 3904,
      "inc": 3905,
      "ĠFrancisco": 3906,
      "ĠMiguel": 3907,
      "tales": 3908,
      "tarios": 3909,
      "ĠbÃºsqueda": 3910,
      "Ġinvers": 3911,
      "ologÃŃas": 3912,
      "arla": 3913,
      "Ġespacios": 3914,
      "deral": 3915,
      "ĠEntre": 3916,
      "pres": 3917,
      "ÃŃstico": 3918,
      "ftware": 3919,
      "Ġresponsabilidad": 3920,
      "Ġhistor": 3921,
      "imas": 3922,
      "ĠinglÃ©s": 3923,
      "Ġcentros": 3924,
      "Ġimpacto": 3925,
      "ĠRE": 3926,
      "riba": 3927,
      "erte": 3928,
      "irus": 3929,
      "Ġarm": 3930,
      "Ġfunciones": 3931,
      "Hay": 3932,
      "UC": 3933,
      "Ġconce": 3934,
      "Ġobten": 3935,
      "ĠInstituto": 3936,
      "ted": 3937,
      "02": 3938,
      "Ġdistintas": 3939,
      "ĠsÃŃn": 3940,
      "Ġcontrario": 3941,
      "Ġlevan": 3942,
      "ĠHa": 3943,
      "Ġdisco": 3944,
      "ĠAhora": 3945,
      "gada": 3946,
      "Ġrelig": 3947,
      "pero": 3948,
      "ĠFacebook": 3949,
      "uestos": 3950,
      "ĠLÃ³pez": 3951,
      "guez": 3952,
      "Ġsosten": 3953,
      "Ġpis": 3954,
      "rique": 3955,
      "Ġcarga": 3956,
      "iados": 3957,
      "Ġcoche": 3958,
      "ĠselecciÃ³n": 3959,
      "ĠChina": 3960,
      "jero": 3961,
      "ificado": 3962,
      "utri": 3963,
      "ires": 3964,
      "IEN": 3965,
      "Ġresponsable": 3966,
      "Ġaproxim": 3967,
      "ĠcategorÃŃa": 3968,
      "Ġpresentar": 3969,
      "Ġobjetivos": 3970,
      "ĠManuel": 3971,
      "Ġcompromiso": 3972,
      "Ġtoma": 3973,
      "edores": 3974,
      "Ġlaboral": 3975,
      "tiago": 3976,
      "Ġcomplic": 3977,
      "ĠQUE": 3978,
      "ĠclÃ¡s": 3979,
      "ĠdÃ©c": 3980,
      "Ġinternet": 3981,
      "teras": 3982,
      "ĠVenezuela": 3983,
      "log": 3984,
      "ĠAg": 3985,
      "Ġmanifest": 3986,
      "Ġnorma": 3987,
      "Ġcompleta": 3988,
      "Ġestim": 3989,
      "Ã¡logo": 3990,
      "Ġmesa": 3991,
      "Ġcif": 3992,
      "Ġdoble": 3993,
      "Ġestaban": 3994,
      "ĠCub": 3995,
      "Ġpropuesta": 3996,
      "Ġvers": 3997,
      "Ġado": 3998,
      "ĠConsejo": 3999,
      "Ġinfl": 4000,
      "Ap": 4001,
      "Ġdorm": 4002,
      "ĠRed": 4003,
      "Ġfron": 4004,
      "Ġhabitu": 4005,
      "ĠAyuntamiento": 4006,
      "ĠAt": 4007,
      "Ġconfianza": 4008,
      "Ġcumplir": 4009,
      "gram": 4010,
      "ĠtÃ©cnico": 4011,
      "ĠlÃŃder": 4012,
      "dios": 4013,
      "ĠDa": 4014,
      "Ġagre": 4015,
      "Ġby": 4016,
      "ĠAsoci": 4017,
      "ĠOs": 4018,
      "Ġpocos": 4019,
      "MÃ¡s": 4020,
      "Ġcur": 4021,
      "ribuciÃ³n": 4022,
      "Ġcomentario": 4023,
      "Ġ198": 4024,
      "torios": 4025,
      "Ã¡cter": 4026,
      "Ġfem": 4027,
      "Ġagrade": 4028,
      "Ãĳ": 4029,
      "Ġatrac": 4030,
      "ense": 4031,
      "ĠEE": 4032,
      "Ġsuelo": 4033,
      "Ġaband": 4034,
      "Ġestrategia": 4035,
      "Ġtir": 4036,
      "Ġimpos": 4037,
      "ĠTodo": 4038,
      "antil": 4039,
      "diente": 4040,
      "toral": 4041,
      "ĠTrans": 4042,
      "pol": 4043,
      "uegos": 4044,
      "ĠBen": 4045,
      "ĠAdminist": 4046,
      "Ġlog": 4047,
      "ĠcarÃ¡cter": 4048,
      "Ġapre": 4049,
      "AsÃŃ": 4050,
      "Ġocasiones": 4051,
      "Ġrealizado": 4052,
      "Hola": 4053,
      "ĠpodrÃ¡n": 4054,
      "Ġcuidado": 4055,
      "su": 4056,
      "Ġdiario": 4057,
      "Ġescuela": 4058,
      "trol": 4059,
      "ĠEurope": 4060,
      "Ġnoticias": 4061,
      "Ġ31": 4062,
      "Ġimple": 4063,
      "Ġreferencia": 4064,
      "ĠÃŃn": 4065,
      "rupo": 4066,
      "mentos": 4067,
      "Ġgri": 4068,
      "lad": 4069,
      "Ġperm": 4070,
      "Ġcoron": 4071,
      "Ġtratar": 4072,
      "RES": 4073,
      "Ġmotivo": 4074,
      "Ġhid": 4075,
      "Ġmag": 4076,
      "Ġmonta": 4077,
      "Ġrece": 4078,
      "ive": 4079,
      "tuvo": 4080,
      "Ġfl": 4081,
      "rump": 4082,
      "cen": 4083,
      "pin": 4084,
      "ĠÃī": 4085,
      "ordin": 4086,
      "ĠreuniÃ³n": 4087,
      "Ġentrar": 4088,
      "âĤ¬": 4089,
      "Ġcompon": 4090,
      "riendo": 4091,
      "ĠtÃº": 4092,
      "ave": 4093,
      "Ġpalabra": 4094,
      "titu": 4095,
      "ĠHab": 4096,
      "ĠpresentaciÃ³n": 4097,
      "Ġacto": 4098,
      "ĠBe": 4099,
      "aliza": 4100,
      "Ġdemanda": 4101,
      "Ġimpuls": 4102,
      "Ġexcelente": 4103,
      "Ġvelocidad": 4104,
      "ĠHum": 4105,
      "Ġvuelta": 4106,
      "Ġsuje": 4107,
      "Ġqueremos": 4108,
      "Ġsegura": 4109,
      "don": 4110,
      "Ã©tico": 4111,
      "Ġconocido": 4112,
      "Ġreducir": 4113,
      "Ġliber": 4114,
      "Ġnormal": 4115,
      "aro": 4116,
      "illos": 4117,
      "ĠEj": 4118,
      "Ġenl": 4119,
      "Ġestadouniden": 4120,
      "IV": 4121,
      "Ġmartes": 4122,
      "ju": 4123,
      "wn": 4124,
      "Ġ%": 4125,
      "LO": 4126,
      "ĠPRO": 4127,
      "ĠmÃ©dico": 4128,
      "genier": 4129,
      "Ġaspectos": 4130,
      "enov": 4131,
      "ĠCongreso": 4132,
      "45": 4133,
      "ull": 4134,
      "ang": 4135,
      "Ġmadera": 4136,
      "Ġrepro": 4137,
      "cent": 4138,
      "Ġsexo": 4139,
      "Ġempleo": 4140,
      "Ġpuerta": 4141,
      "villa": 4142,
      "Ġ@": 4143,
      "Ġdific": 4144,
      "ĠTh": 4145,
      "Ġadul": 4146,
      "Ġmarcas": 4147,
      "ĠRepÃºblica": 4148,
      "Ġbloque": 4149,
      "Ã¡ticas": 4150,
      "Ġbanda": 4151,
      "Ġiba": 4152,
      "Ġplantas": 4153,
      "Ġextran": 4154,
      "och": 4155,
      "Ġciudadanos": 4156,
      "ĠRob": 4157,
      "Ġnegro": 4158,
      "Ġros": 4159,
      "Ġcru": 4160,
      "Ġmaes": 4161,
      "anÃŃa": 4162,
      "ĠPos": 4163,
      "rica": 4164,
      "ses": 4165,
      "Ġfortal": 4166,
      "Ġcuad": 4167,
      "acia": 4168,
      "ienen": 4169,
      "cripciÃ³n": 4170,
      "ĠAunque": 4171,
      ".\"": 4172,
      "uelas": 4173,
      "iudades": 4174,
      "ĠUnivers": 4175,
      "Ġherm": 4176,
      "ĠmiÃ©rcoles": 4177,
      "ĠOn": 4178,
      "Ġrob": 4179,
      "Ġq": 4180,
      "Ġelecciones": 4181,
      "ĠestarÃ¡": 4182,
      "jeros": 4183,
      "ĠâĤ¬": 4184,
      "xto": 4185,
      "guay": 4186,
      "igue": 4187,
      "Ġmunicipio": 4188,
      "Ġcoleg": 4189,
      "rasil": 4190,
      "ĠEcon": 4191,
      "Ġquiz": 4192,
      "alizada": 4193,
      "ĠSur": 4194,
      "Ġresulta": 4195,
      "ĠComisiÃ³n": 4196,
      "enso": 4197,
      "Ġacceder": 4198,
      "ĠBl": 4199,
      "ĠocasiÃ³n": 4200,
      "drÃ¡": 4201,
      "Ġdisponibles": 4202,
      "Ġpersonajes": 4203,
      "Ġmues": 4204,
      "'s": 4205,
      "tiquetas": 4206,
      "Ġperfil": 4207,
      "ĠPat": 4208,
      "Ġorg": 4209,
      "ĠvÃŃa": 4210,
      "Ġcentral": 4211,
      "Ġconstante": 4212,
      "Ġinteresante": 4213,
      "ĠPedro": 4214,
      "fin": 4215,
      "ĠÃ¡reas": 4216,
      "Ġbuenas": 4217,
      "ĠpolÃŃticos": 4218,
      "oj": 4219,
      "taciones": 4220,
      "Ġadop": 4221,
      "Ġnega": 4222,
      "ICA": 4223,
      "Ġlic": 4224,
      "tern": 4225,
      "Ġanimales": 4226,
      "ritu": 4227,
      "Ġbot": 4228,
      "ĠCab": 4229,
      "ĠquiÃ©n": 4230,
      "Ġcompeti": 4231,
      "chez": 4232,
      "Ġconflic": 4233,
      "Ġdebes": 4234,
      "crib": 4235,
      "Ġcrea": 4236,
      "indows": 4237,
      "arrollo": 4238,
      "Ġclases": 4239,
      "Ġflu": 4240,
      "ĠpodÃŃa": 4241,
      "Ġvoc": 4242,
      "grÃ¡": 4243,
      "Ġpena": 4244,
      "sas": 4245,
      "iles": 4246,
      "lea": 4247,
      "roso": 4248,
      "ĠpresiÃ³n": 4249,
      "Ġcm": 4250,
      "ierte": 4251,
      "etas": 4252,
      "tid": 4253,
      "Ġpronto": 4254,
      "Ġmicro": 4255,
      "roid": 4256,
      "Ġdismin": 4257,
      "ĠImp": 4258,
      "ĠAmb": 4259,
      "Ġinstalaciones": 4260,
      "eos": 4261,
      "ĠInv": 4262,
      "Ġconstitu": 4263,
      "Ġdistancia": 4264,
      "Ġrespec": 4265,
      "âĢľ": 4266,
      "Ġpone": 4267,
      "hn": 4268,
      "cÃ³": 4269,
      "ĠbaÃ±o": 4270,
      "Ġdecor": 4271,
      "Ġinstituciones": 4272,
      "Ġbuscando": 4273,
      "Ġactualmente": 4274,
      "ĠJav": 4275,
      "ko": 4276,
      "Ġetapa": 4277,
      "Ġrefle": 4278,
      "tom": 4279,
      "Ġposib": 4280,
      "Ġdetec": 4281,
      "Ġcarre": 4282,
      "Ġacciden": 4283,
      "Ġdefensa": 4284,
      "Ġamigo": 4285,
      "bilidad": 4286,
      "Ġconvers": 4287,
      "Ġllama": 4288,
      "ĠCer": 4289,
      "Ġestuvo": 4290,
      "Ġnegocios": 4291,
      "Ã¡st": 4292,
      "Ġconex": 4293,
      "Ġpresiden": 4294,
      "ĠIgles": 4295,
      "ĠdeberÃŃa": 4296,
      "ĠgÃ©nero": 4297,
      "ADO": 4298,
      "Ġincon": 4299,
      "ĠHe": 4300,
      "Ġ80": 4301,
      "estival": 4302,
      "Ġdiput": 4303,
      "ĠJun": 4304,
      "ĠSeguridad": 4305,
      "Ġmitad": 4306,
      "ÃŃp": 4307,
      "Ġvolv": 4308,
      "Ġdiez": 4309,
      "isiones": 4310,
      "cidos": 4311,
      "Ġestructura": 4312,
      "ĠBa": 4313,
      "Ġbril": 4314,
      "99": 4315,
      "Ġep": 4316,
      "Ġmaqu": 4317,
      "portes": 4318,
      "UU": 4319,
      "Ġventas": 4320,
      "Ġesfuerzo": 4321,
      "imen": 4322,
      "Ġrealiza": 4323,
      "Ġdebemos": 4324,
      "Ġ2008": 4325,
      "Ġofertas": 4326,
      "Ġsangre": 4327,
      "Ġeres": 4328,
      "Ġprefer": 4329,
      "Ġdiversos": 4330,
      "ĠÃ³": 4331,
      "ĠMac": 4332,
      "Ġiniciativa": 4333,
      "Ġescol": 4334,
      "ĠRey": 4335,
      "!!!": 4336,
      "Ġprincipios": 4337,
      "BA": 4338,
      "TER": 4339,
      "Ġnegoci": 4340,
      "ky": 4341,
      "Ġpareci": 4342,
      "Ġprogram": 4343,
      "Ġsitios": 4344,
      "Ġempezar": 4345,
      "Ġincrem": 4346,
      "tienen": 4347,
      "ĠMujer": 4348,
      "ĠtelevisiÃ³n": 4349,
      "ki": 4350,
      "ĠEdi": 4351,
      "Ġras": 4352,
      "anda": 4353,
      "itud": 4354,
      "Ġmoda": 4355,
      "Ġciudades": 4356,
      "Ġcertific": 4357,
      "Ġnota": 4358,
      "Ġocup": 4359,
      "ĠfÃºtbol": 4360,
      "Ġpropiedad": 4361,
      "Ġabrir": 4362,
      "tron": 4363,
      "Ġfres": 4364,
      "Ġrepresenta": 4365,
      "Ġpic": 4366,
      "Ġtrabajando": 4367,
      "Ġmotor": 4368,
      "Ġdeten": 4369,
      "ĠAM": 4370,
      "Ġcomba": 4371,
      "ĠDav": 4372,
      "zones": 4373,
      "Ġves": 4374,
      "ĠFund": 4375,
      "ĠBel": 4376,
      "Ġotor": 4377,
      "Ġdescargar": 4378,
      "iego": 4379,
      "Ġsiete": 4380,
      "ĠSantiago": 4381,
      "ĠtÃ©cnica": 4382,
      "Ġabog": 4383,
      "ĠhabrÃ¡": 4384,
      "Ġcapaz": 4385,
      "ish": 4386,
      "ualmente": 4387,
      "ianos": 4388,
      "Ġexterior": 4389,
      "IG": 4390,
      "Ġmiedo": 4391,
      "dores": 4392,
      "dal": 4393,
      "ĠFu": 4394,
      "we": 4395,
      "........": 4396,
      "Ġquieren": 4397,
      "Ġreac": 4398,
      "CIÃĵN": 4399,
      "gust": 4400,
      "uno": 4401,
      "ĠBlan": 4402,
      "ĠadministraciÃ³n": 4403,
      "Ġmiles": 4404,
      "estruc": 4405,
      "Ġgo": 4406,
      "Ġmostrar": 4407,
      "Ġgras": 4408,
      "ash": 4409,
      "Ġsentir": 4410,
      "Ġsoluciones": 4411,
      "Ġcampe": 4412,
      "avirus": 4413,
      "TR": 4414,
      "ĠTV": 4415,
      "âĢĻ": 4416,
      "Ġsuerte": 4417,
      "Entre": 4418,
      "Ġhermos": 4419,
      "Ġrevis": 4420,
      "Ġobjeto": 4421,
      "Ġinver": 4422,
      "ÂŃ": 4423,
      "ĠTodos": 4424,
      "ĠRa": 4425,
      "CION": 4426,
      "ĠcuÃ¡n": 4427,
      "Ġcorpor": 4428,
      "ĠÃ³r": 4429,
      "Ġrendimiento": 4430,
      "Ġconform": 4431,
      "Ġfuncionamiento": 4432,
      "cun": 4433,
      "iblio": 4434,
      "Ġcelebr": 4435,
      "ĠPARA": 4436,
      "Ãºlti": 4437,
      "Ġpreguntas": 4438,
      "ĠseÃ±alÃ³": 4439,
      "Ġgolpe": 4440,
      "ĠDec": 4441,
      "ĠInd": 4442,
      "ĠatrÃ¡s": 4443,
      "Ġhabla": 4444,
      "ierto": 4445,
      "Ġmara": 4446,
      "Ġjard": 4447,
      "Ġcontrato": 4448,
      "35": 4449,
      "ÃŃr": 4450,
      "ĠFor": 4451,
      "ĠcomenzÃ³": 4452,
      "deres": 4453,
      "ĠCasa": 4454,
      "ivas": 4455,
      "Ġnaturales": 4456,
      "Ġparticipar": 4457,
      "Ġfundamental": 4458,
      "Ġperfecto": 4459,
      "Ġprac": 4460,
      "ĠÃ¡r": 4461,
      "Ya": 4462,
      "pes": 4463,
      "Ġart": 4464,
      "Ġamar": 4465,
      "ĠSus": 4466,
      "ĠdisposiciÃ³n": 4467,
      "âĢ¦âĢ¦": 4468,
      "tina": 4469,
      "Ġinstrum": 4470,
      "Ġolvid": 4471,
      "ty": 4472,
      "ĠpelÃŃculas": 4473,
      "Ġvivienda": 4474,
      "Ġdenomin": 4475,
      "Ġentidad": 4476,
      "Ġbuenos": 4477,
      "Ġherramienta": 4478,
      "ĠpÃºblicos": 4479,
      "Ġrequiere": 4480,
      "zada": 4481,
      "ramos": 4482,
      "Ġfuente": 4483,
      "viv": 4484,
      "Ġorganizaciones": 4485,
      "jor": 4486,
      "Ġhaga": 4487,
      "titud": 4488,
      "Ġvino": 4489,
      "ĠMal": 4490,
      "ÃŃguez": 4491,
      "Ġperiodi": 4492,
      "Ġropa": 4493,
      "Ġran": 4494,
      "ĠcolaboraciÃ³n": 4495,
      "Ġazul": 4496,
      "Ġvariedad": 4497,
      "inta": 4498,
      "ĠsesiÃ³n": 4499,
      "olesc": 4500,
      "Ten": 4501,
      "Ġconcepto": 4502,
      "Ġrevel": 4503,
      "Ġeventos": 4504,
      "edas": 4505,
      "dizaje": 4506,
      "Ġsexual": 4507,
      "Ã¡lez": 4508,
      "quilib": 4509,
      "Ġadqui": 4510,
      "Â°": 4511,
      "Ġsacar": 4512,
      "drÃŃguez": 4513,
      "como": 4514,
      "berto": 4515,
      "vel": 4516,
      "Ġunidad": 4517,
      "Ġfirm": 4518,
      "ĠgeneraciÃ³n": 4519,
      "ribunal": 4520,
      "):": 4521,
      "Ġcompletamente": 4522,
      "VA": 4523,
      "ultad": 4524,
      "ĠNic": 4525,
      "Ġ90": 4526,
      "Ġcompro": 4527,
      "ĠPablo": 4528,
      "Ġarro": 4529,
      "riente": 4530,
      "ches": 4531,
      "Ġdispositivo": 4532,
      "Ġinternacionales": 4533,
      "Ġtorn": 4534,
      "Ġaceite": 4535,
      "Ġfras": 4536,
      "IP": 4537,
      "Ġfer": 4538,
      "char": 4539,
      "ler": 4540,
      "Ġintereses": 4541,
      "Ġactualidad": 4542,
      "Ġesperar": 4543,
      "Ġjugador": 4544,
      "Ġnove": 4545,
      "Ġaltura": 4546,
      "Ġdesaf": 4547,
      "ĠTwitter": 4548,
      "Ã¡nica": 4549,
      "Ġequiv": 4550,
      "âĢ¦]": 4551,
      "Ġministro": 4552,
      "Ġvisitar": 4553,
      "Ġdiversas": 4554,
      "usa": 4555,
      "ude": 4556,
      "ĠCruz": 4557,
      "Ġadministra": 4558,
      "dentes": 4559,
      "Ġamplia": 4560,
      "ĠvehÃŃculos": 4561,
      "ĠtÃ©cnicas": 4562,
      "echas": 4563,
      "abetes": 4564,
      "Ġmemoria": 4565,
      "ĠDeb": 4566,
      "Ġ70": 4567,
      "ĠcuestiÃ³n": 4568,
      "Ġterritorio": 4569,
      "Ġ35": 4570,
      "Ġcontenidos": 4571,
      "ĠAsociaciÃ³n": 4572,
      "Ġdestino": 4573,
      "Ġvecinos": 4574,
      "ĠRam": 4575,
      "ĠÃºltimas": 4576,
      "Ġasum": 4577,
      "Ġrequis": 4578,
      "endencia": 4579,
      "Ġinfec": 4580,
      "Ġvivo": 4581,
      "ĠCre": 4582,
      "ĠdÃ³nde": 4583,
      "ĠHu": 4584,
      "ACIÃĵN": 4585,
      "ĠvisiÃ³n": 4586,
      "teros": 4587,
      "endientes": 4588,
      "ĠLOS": 4589,
      "Ġtritur": 4590,
      "Ġreflex": 4591,
      "Ġfiscal": 4592,
      "ĠprÃ©st": 4593,
      "ĠDomin": 4594,
      "Ã¡nchez": 4595,
      "Ġfamiliares": 4596,
      "Ġarriba": 4597,
      "Ġtradicional": 4598,
      "Ġguard": 4599,
      "Ġrelev": 4600,
      "DA": 4601,
      "ĠÃģn": 4602,
      "ĠPolicÃŃa": 4603,
      "Ġpid": 4604,
      "Ġfunciona": 4605,
      "Ġeng": 4606,
      "Ġmejora": 4607,
      "Ġhar": 4608,
      "ĠAires": 4609,
      "Ġinmedia": 4610,
      "Ġfir": 4611,
      "Ġtaller": 4612,
      "Ġambient": 4613,
      "Ġfuentes": 4614,
      "Ġexplica": 4615,
      "ĠBal": 4616,
      "ĠÃ©ste": 4617,
      "ĠespaÃ±ola": 4618,
      "Ġteniendo": 4619,
      "Ġopiniones": 4620,
      "Ġgenerar": 4621,
      "Ġdecisiones": 4622,
      "Ġpedir": 4623,
      "ĠPerÃº": 4624,
      "Ġtercer": 4625,
      "cur": 4626,
      "ĠMedi": 4627,
      "ĠAmazon": 4628,
      "Ġpaz": 4629,
      "Ġpasos": 4630,
      "ĠAC": 4631,
      "Ġcuyo": 4632,
      "ĠpodrÃŃan": 4633,
      "Ġanal": 4634,
      "tino": 4635,
      "Ġenten": 4636,
      "Ġingresos": 4637,
      "Ġescribir": 4638,
      "TU": 4639,
      "uncia": 4640,
      "Ġaspecto": 4641,
      "apia": 4642,
      "jan": 4643,
      "ices": 4644,
      "Ġdibu": 4645,
      "MO": 4646,
      "san": 4647,
      "ĠFis": 4648,
      "Gra": 4649,
      "amento": 4650,
      "onales": 4651,
      "Ġcuentas": 4652,
      "Ġcultural": 4653,
      "ĠDesarrollo": 4654,
      "Ġjusticia": 4655,
      "Ġsoftware": 4656,
      "Ġherman": 4657,
      "Ã¡nico": 4658,
      "ĠcrÃŃt": 4659,
      "vas": 4660,
      "ĠAN": 4661,
      "tÃŃculo": 4662,
      "Ġalcanzar": 4663,
      "ĠRodrÃŃguez": 4664,
      "ioso": 4665,
      "jado": 4666,
      "ĠGonzÃ¡lez": 4667,
      "ÃŃgen": 4668,
      "IB": 4669,
      "Ġguar": 4670,
      "ĠBuenos": 4671,
      "taba": 4672,
      "33": 4673,
      "Ġproduci": 4674,
      "puestas": 4675,
      "ĠInf": 4676,
      "Ġfinales": 4677,
      "ĠPl": 4678,
      "Ġdicen": 4679,
      "Ġcomercio": 4680,
      "Ġcomerci": 4681,
      "Ġorigin": 4682,
      "ĠComer": 4683,
      "ĠSeÃ±": 4684,
      "Ġfigura": 4685,
      "Ġapenas": 4686,
      "ĠHoy": 4687,
      "Ġinvit": 4688,
      "Ġton": 4689,
      "raz": 4690,
      "Ġargu": 4691,
      "Ġcalles": 4692,
      "ĠBrasil": 4693,
      "Ġtesti": 4694,
      "uchas": 4695,
      "Ġglobal": 4696,
      "Ġlectura": 4697,
      "Buen": 4698,
      "Ġdarle": 4699,
      "grama": 4700,
      "mpor": 4701,
      "ĠII": 4702,
      "Ġdescan": 4703,
      "amar": 4704,
      "Ã¡ncer": 4705,
      "Ġasi": 4706,
      "Ġtercera": 4707,
      "Ġembara": 4708,
      "Ġverde": 4709,
      "Ġsituaciones": 4710,
      "Ġderecha": 4711,
      "Ġesco": 4712,
      "Ġpudo": 4713,
      "IF": 4714,
      "pira": 4715,
      "Ġoperaciones": 4716,
      "ĠtÃ©rminos": 4717,
      "ĠActu": 4718,
      "Ġgrave": 4719,
      "ĠexplicÃ³": 4720,
      "So": 4721,
      "Ġinfer": 4722,
      "Ġprimeras": 4723,
      "Ġmente": 4724,
      "ĠGrupo": 4725,
      "udicial": 4726,
      "Ġpiezas": 4727,
      "Ġcircun": 4728,
      "ĠHist": 4729,
      "tillas": 4730,
      "PA": 4731,
      "ÃŃsimo": 4732,
      "Ġtransform": 4733,
      "ĠMil": 4734,
      "Ġllamada": 4735,
      "ÃŃda": 4736,
      "ĠRom": 4737,
      "ACION": 4738,
      "emp": 4739,
      "onda": 4740,
      "Ġconvir": 4741,
      "ĠÃ¡mbito": 4742,
      "Ġpropios": 4743,
      "Ġdudas": 4744,
      "mÃ¡n": 4745,
      "Ġejec": 4746,
      "ind": 4747,
      "int": 4748,
      "acho": 4749,
      "Ġlegal": 4750,
      "ĠElec": 4751,
      "Ġmagn": 4752,
      "Ġmencion": 4753,
      "ĠClub": 4754,
      "ĠpÃ¡ginas": 4755,
      "ung": 4756,
      "Ġ197": 4757,
      "Ġcumple": 4758,
      "Ġobstante": 4759,
      "ĠEspaÃ±": 4760,
      "Ġkm": 4761,
      "ks": 4762,
      "ĠFernÃ¡ndez": 4763,
      "ĠFrancia": 4764,
      "ĠTele": 4765,
      "Ġsala": 4766,
      "Ġexpertos": 4767,
      "rupciÃ³n": 4768,
      "Ġderro": 4769,
      "Ġrenov": 4770,
      "rom": 4771,
      "Ġdim": 4772,
      "adÃ©m": 4773,
      "king": 4774,
      "Ġarquitec": 4775,
      "ĠvehÃŃculo": 4776,
      "Ġcosto": 4777,
      "Ġcop": 4778,
      "Rec": 4779,
      "ierta": 4780,
      "ĠGracias": 4781,
      "Ġtengan": 4782,
      "Ġposibles": 4783,
      "poner": 4784,
      "osotros": 4785,
      "ube": 4786,
      "Ġespeciales": 4787,
      "eche": 4788,
      "ciente": 4789,
      "ĠYork": 4790,
      "QU": 4791,
      "Ġdando": 4792,
      "ĠdejÃ³": 4793,
      "Ġmenores": 4794,
      "Ġprior": 4795,
      "80": 4796,
      "quiera": 4797,
      "Ġsectores": 4798,
      "Ġnumeros": 4799,
      "36": 4800,
      "mania": 4801,
      "ortar": 4802,
      "Ġpiedra": 4803,
      "ĠLeÃ³n": 4804,
      "oque": 4805,
      "Ġequip": 4806,
      "Ġintens": 4807,
      "anzas": 4808,
      "mitir": 4809,
      "Ġcorre": 4810,
      "Ġfiesta": 4811,
      "Pue": 4812,
      "Ġluc": 4813,
      "ĠPC": 4814,
      "Ġaumentar": 4815,
      "ĠperÃŃo": 4816,
      ");": 4817,
      "Ġbara": 4818,
      "Ġmedic": 4819,
      "Ġmantenimiento": 4820,
      "Hoy": 4821,
      "Ġgrado": 4822,
      "ĠComp": 4823,
      "Ġjefe": 4824,
      "ciendo": 4825,
      "Ġnecesit": 4826,
      "Ġfalle": 4827,
      "Ġdicha": 4828,
      "Mi": 4829,
      "ĠSÃ¡nchez": 4830,
      "use": 4831,
      "Ġocho": 4832,
      "Ġperiodo": 4833,
      "tador": 4834,
      "Ġsorpren": 4835,
      "Ġprincipalmente": 4836,
      "Ġanteriores": 4837,
      "Ġtriun": 4838,
      "Ġfines": 4839,
      "Dis": 4840,
      "Ġcomunidades": 4841,
      "ativos": 4842,
      "ĠUr": 4843,
      "Ġretir": 4844,
      "Ġemerg": 4845,
      "Ġmanda": 4846,
      "Ġintent": 4847,
      "arnos": 4848,
      "Ver": 4849,
      "Ġth": 4850,
      "ĠEmpres": 4851,
      "ipe": 4852,
      "Ġfase": 4853,
      "Ġlin": 4854,
      "ilares": 4855,
      "Ġtitular": 4856,
      "ĠPers": 4857,
      "cipl": 4858,
      "dieron": 4859,
      "ure": 4860,
      "Ġinteg": 4861,
      "Ġaun": 4862,
      "ese": 4863,
      "Ġbra": 4864,
      "ĠvÃŃdeo": 4865,
      "ĠEstos": 4866,
      "ĠUniÃ³n": 4867,
      "CH": 4868,
      "amÃ¡": 4869,
      "Ġcomenz": 4870,
      "ĠLi": 4871,
      "ĠBus": 4872,
      "Ã©rez": 4873,
      "ĠLeg": 4874,
      "Ġtiendas": 4875,
      "Ġcomport": 4876,
      "oo": 4877,
      "Ġfuego": 4878,
      "Ġdirecto": 4879,
      "Ġprofesor": 4880,
      "ĠmÃŃnimo": 4881,
      "uma": 4882,
      "olid": 4883,
      "ĠPP": 4884,
      "bra": 4885,
      "Ġmala": 4886,
      "Di": 4887,
      "Ġllegado": 4888,
      "ĠAz": 4889,
      "Ġpsic": 4890,
      "Ġizquierda": 4891,
      "Ġpersonaje": 4892,
      "ĠFer": 4893,
      "ĠEsp": 4894,
      "Ã©g": 4895,
      "Ġnoticia": 4896,
      "eÃ±": 4897,
      "iaciÃ³n": 4898,
      "IDAD": 4899,
      "urg": 4900,
      "Ġpeor": 4901,
      "Ãļ": 4902,
      "Ġmismas": 4903,
      "34": 4904,
      "Ġgrab": 4905,
      "ĠWeb": 4906,
      "ĠWindows": 4907,
      "Ġga": 4908,
      "ĠNi": 4909,
      "Ġargent": 4910,
      "uos": 4911,
      "ade": 4912,
      "eÃ±a": 4913,
      "ĠinformÃ³": 4914,
      "Ġpermiten": 4915,
      "Ġmunicipal": 4916,
      "ĠJusticia": 4917,
      "CA": 4918,
      "Ġradio": 4919,
      "tÃŃa": 4920,
      "Ġvincul": 4921,
      "Ġdenunci": 4922,
      "ĠoperaciÃ³n": 4923,
      "Ġnie": 4924,
      "torias": 4925,
      "Ġhicieron": 4926,
      "Ġposibilidades": 4927,
      "izada": 4928,
      "Ġdocumento": 4929,
      "Ġcomerciales": 4930,
      "Ġdesemp": 4931,
      "Ġfinalmente": 4932,
      "ĠcÃ¡mara": 4933,
      "ĠValencia": 4934,
      "Ġpresupuesto": 4935,
      "ĠlÃŃneas": 4936,
      "Ġavent": 4937,
      "Ġescenario": 4938,
      "ĠasegurÃ³": 4939,
      "ĠÃ¡n": 4940,
      "Ġrequer": 4941,
      "Ġ[âĢ¦]": 4942,
      "acas": 4943,
      "ĠPrem": 4944,
      "Ġtemperatura": 4945,
      "ĠsueÃ±o": 4946,
      "Ġlav": 4947,
      "Ġvacun": 4948,
      "Ġsede": 4949,
      "Ġrepe": 4950,
      "Ġsalv": 4951,
      "ĠDespuÃ©s": 4952,
      "Ġcome": 4953,
      "Ġofrecen": 4954,
      "GO": 4955,
      "racia": 4956,
      "bres": 4957,
      "chas": 4958,
      "Ġenfermedades": 4959,
      "Ġdieta": 4960,
      "Ġdue": 4961,
      "Ġapun": 4962,
      "Ġzapa": 4963,
      "ĠkilÃ³": 4964,
      "Ġfactores": 4965,
      "usia": 4966,
      "Ġsel": 4967,
      "ĠConstitu": 4968,
      "ĠcrÃ©dito": 4969,
      "trÃ³": 4970,
      "Ġdispositivos": 4971,
      "Ġescal": 4972,
      "tillo": 4973,
      "Durante": 4974,
      "Ġescrito": 4975,
      "Ġcompetencia": 4976,
      "icaciÃ³n": 4977,
      "Ġinforma": 4978,
      "Ahora": 4979,
      "fre": 4980,
      "ĠSil": 4981,
      "'.": 4982,
      "venida": 4983,
      "ĠpequeÃ±as": 4984,
      "Ġcomenzar": 4985,
      "Ġnutri": 4986,
      "Ġacum": 4987,
      "leza": 4988,
      "Ġcuarto": 4989,
      "ĠAut": 4990,
      "Ġpais": 4991,
      "Ġgarantizar": 4992,
      "ĠBer": 4993,
      "ĠJorge": 4994,
      "Ġconfirm": 4995,
      "Ġadolesc": 4996,
      "ĠXX": 4997,
      "ĠjurÃŃ": 4998,
      "Ġhospital": 4999,
      "Ġregal": 5000,
      "Ġlengu": 5001,
      "Ġtamb": 5002,
      "Ġpuertas": 5003,
      "tig": 5004,
      "Ġsabemos": 5005,
      "Ġeliminar": 5006,
      "Ġsiguen": 5007,
      "Ġentrevista": 5008,
      "Ġcalor": 5009,
      "ĠpÃ©rdida": 5010,
      "ĠPuerto": 5011,
      "ulado": 5012,
      "urar": 5013,
      "ĠEso": 5014,
      "lamento": 5015,
      "Ġenfrent": 5016,
      "ficiencia": 5017,
      "Ġlejos": 5018,
      "Ġabandon": 5019,
      "itarios": 5020,
      "ĠinstalaciÃ³n": 5021,
      "ĠÃģngel": 5022,
      "Ġaport": 5023,
      "ĠPresidente": 5024,
      "ĠincreÃŃ": 5025,
      "Ġvictoria": 5026,
      "Ġcita": 5027,
      "ĠprÃ¡cticas": 5028,
      "Ġobliga": 5029,
      "Ġfirma": 5030,
      "Ġmeta": 5031,
      "Ġaprendizaje": 5032,
      "Ġlarga": 5033,
      "Ġconm": 5034,
      "ĠrÃ¡pida": 5035,
      "Ġcontexto": 5036,
      "iores": 5037,
      "Ġcorte": 5038,
      "ambio": 5039,
      "amentos": 5040,
      "Ġconsecuencia": 5041,
      "Ġunidades": 5042,
      "ĠCatal": 5043,
      "tomas": 5044,
      "let": 5045,
      "ĠDavid": 5046,
      "Ġrue": 5047,
      "Ġllegada": 5048,
      "Ġresolver": 5049,
      "Ġpag": 5050,
      "ĠprÃ³xima": 5051,
      "37": 5052,
      "olÃ³gicos": 5053,
      "Ġremo": 5054,
      "ĠdeberÃ¡": 5055,
      "Ġmantiene": 5056,
      "ĠrealizÃ³": 5057,
      "Ġsimilar": 5058,
      "Ġec": 5059,
      "ĠMol": 5060,
      "Ġsecund": 5061,
      "pertura": 5062,
      "ples": 5063,
      "ĠelecciÃ³n": 5064,
      "Ġcasas": 5065,
      "arm": 5066,
      "Ġ500": 5067,
      "ĠfÃŃsica": 5068,
      "Ġsuperficie": 5069,
      "ĠhabitaciÃ³n": 5070,
      "ĠJa": 5071,
      "elas": 5072,
      "Ġlimit": 5073,
      "yas": 5074,
      "Ġcoin": 5075,
      "Ġempleados": 5076,
      "Ġconocimientos": 5077,
      "Ġedificio": 5078,
      "ficial": 5079,
      "Ġ=": 5080,
      "Ġalquil": 5081,
      "ĠAndroid": 5082,
      "ys": 5083,
      "Ġhal": 5084,
      "mart": 5085,
      "ĠEm": 5086,
      "ĠEstudi": 5087,
      "Ġhubo": 5088,
      "Ġexac": 5089,
      "Ġfuerzas": 5090,
      "Ġpedido": 5091,
      "raestruc": 5092,
      "oluc": 5093,
      "ÃŃtulos": 5094,
      "Ġdispar": 5095,
      "Ġsuele": 5096,
      "arial": 5097,
      "ĠmÃºlti": 5098,
      "Ġcuya": 5099,
      "ĠNorte": 5100,
      "Ġaparece": 5101,
      "Ġagreg": 5102,
      "Ġganas": 5103,
      "ini": 5104,
      "ĠPÃ©rez": 5105,
      "Ġdomici": 5106,
      "eca": 5107,
      "Ġjusto": 5108,
      "ĠOrgan": 5109,
      "Ġbio": 5110,
      "Ġoportunidades": 5111,
      "ĠCuba": 5112,
      "ith": 5113,
      "Ġhubiera": 5114,
      "Ġconstruir": 5115,
      "rue": 5116,
      "Ġestablecer": 5117,
      "arra": 5118,
      "ĠDig": 5119,
      "Ġexperiencias": 5120,
      "Ġhija": 5121,
      "Ġcadena": 5122,
      "Tras": 5123,
      "dencias": 5124,
      "Ġaten": 5125,
      "ensiÃ³n": 5126,
      "Ġgusto": 5127,
      "ley": 5128,
      "todos": 5129,
      "fon": 5130,
      "uencias": 5131,
      "2020": 5132,
      "Ġhuman": 5133,
      "puestos": 5134,
      "Ġestad": 5135,
      "ĠpublicaciÃ³n": 5136,
      "art": 5137,
      "Ġcog": 5138,
      "Â·": 5139,
      "Ġenviar": 5140,
      "tem": 5141,
      "Ġproduce": 5142,
      "Ġhier": 5143,
      "ĠCivil": 5144,
      "ĠHotel": 5145,
      "Ġrit": 5146,
      "ella": 5147,
      "ĠmÃ©todo": 5148,
      "eda": 5149,
      "Ġcarb": 5150,
      "Ġterror": 5151,
      "ÃįA": 5152,
      "Ġtraslad": 5153,
      "tantes": 5154,
      "Ġdeporte": 5155,
      "2019": 5156,
      "Ġtales": 5157,
      "venir": 5158,
      "Ġge": 5159,
      "Ġerror": 5160,
      "ienes": 5161,
      "Ġcualquiera": 5162,
      "ĠgrÃ¡": 5163,
      "Ġpremio": 5164,
      "bit": 5165,
      "31": 5166,
      "ĠIglesia": 5167,
      "itÃ©": 5168,
      "ĠquedÃ³": 5169,
      "Ġregistro": 5170,
      "Ġacog": 5171,
      "Ġ2007": 5172,
      "metro": 5173,
      "Ġsencillo": 5174,
      "55": 5175,
      "ĠVir": 5176,
      "Ġdespe": 5177,
      "ams": 5178,
      "Ã©nd": 5179,
      "ICO": 5180,
      "reras": 5181,
      "mites": 5182,
      "Ġmig": 5183,
      "blos": 5184,
      "Ġplanes": 5185,
      "Ġsola": 5186,
      "entarios": 5187,
      "Ġproteger": 5188,
      "48": 5189,
      "misiÃ³n": 5190,
      "Ġment": 5191,
      "ĠexposiciÃ³n": 5192,
      "ĠmÃ¡xima": 5193,
      "Ġrode": 5194,
      "Ġasegura": 5195,
      "Ġfas": 5196,
      "Ġcoronavirus": 5197,
      "ĠharÃ¡": 5198,
      "ĠTa": 5199,
      "ĠSegÃºn": 5200,
      "han": 5201,
      "Ġvuelve": 5202,
      "Ġmaravil": 5203,
      "Ġcorto": 5204,
      "Ġpref": 5205,
      "dis": 5206,
      "iero": 5207,
      "Ġfondos": 5208,
      "ĠMat": 5209,
      "ĠguÃŃa": 5210,
      "mina": 5211,
      "Ġcuan": 5212,
      "Ġpublicado": 5213,
      "Ġflo": 5214,
      "Ġartes": 5215,
      "onato": 5216,
      "Ġbre": 5217,
      "ĠpasÃ³": 5218,
      "Ġpotencial": 5219,
      "quinas": 5220,
      "Ġsolamente": 5221,
      "Ġpropias": 5222,
      "Ġdiabetes": 5223,
      "39": 5224,
      "CE": 5225,
      "ĠcompaÃ±eros": 5226,
      "ogra": 5227,
      "Ġbarrio": 5228,
      "ĠJul": 5229,
      "ĠpolicÃŃa": 5230,
      "ĠFel": 5231,
      "Ġhipo": 5232,
      "Ġabierto": 5233,
      "Ġbici": 5234,
      "2018": 5235,
      "Ġlimpieza": 5236,
      "Ġtej": 5237,
      "gadas": 5238,
      "ĠNos": 5239,
      "dÃ³n": 5240,
      "ox": 5241,
      "Ġplaya": 5242,
      "ĠPOR": 5243,
      "rael": 5244,
      "Ġresistencia": 5245,
      "Ġerr": 5246,
      "Ġcierre": 5247,
      "Ġmecan": 5248,
      "Ġ45": 5249,
      "ĠMÃ¡": 5250,
      "erop": 5251,
      "Ġrelacionados": 5252,
      "Ġcrim": 5253,
      "riz": 5254,
      "Ġregular": 5255,
      "ĠÃºtil": 5256,
      "Ġciencia": 5257,
      "Ġindica": 5258,
      "deraciÃ³n": 5259,
      "Ġarchivos": 5260,
      "Ġsuminist": 5261,
      "ĠTu": 5262,
      "Ġrazones": 5263,
      "ĠcÃ¡ncer": 5264,
      "iendas": 5265,
      "Ġinterc": 5266,
      "ĠBanco": 5267,
      "hor": 5268,
      "ight": 5269,
      "ĠSem": 5270,
      "Ġequilib": 5271,
      "Ġcarta": 5272,
      "ĠProvin": 5273,
      "Ġurb": 5274,
      "ezol": 5275,
      "deros": 5276,
      "uyen": 5277,
      "Ġabsolu": 5278,
      "ĠFernando": 5279,
      "ãĢ": 5280,
      "SE": 5281,
      "Ġruta": 5282,
      "Ġfeliz": 5283,
      "ota": 5284,
      "icion": 5285,
      "2021": 5286,
      "Aunque": 5287,
      "Ġrespeto": 5288,
      "mentar": 5289,
      "Ġjuntos": 5290,
      "Ġcriter": 5291,
      "Ġidi": 5292,
      "Ġveg": 5293,
      "Ġhttps": 5294,
      "ĠSte": 5295,
      "ÃŃz": 5296,
      "Ã¡les": 5297,
      "tumb": 5298,
      "Ġcircunst": 5299,
      "Ġdisp": 5300,
      "ĠseÃ±or": 5301,
      "38": 5302,
      "ĠllevÃ³": 5303,
      "Ġfen": 5304,
      "ĠAR": 5305,
      "land": 5306,
      "Ġutil": 5307,
      "Ġconstit": 5308,
      "Ġentidades": 5309,
      "ĠItal": 5310,
      "Ġcereb": 5311,
      "Ġnormas": 5312,
      "Ã©gimen": 5313,
      "ÃŃritu": 5314,
      "Ġcircul": 5315,
      "ĠhabrÃŃa": 5316,
      "Ġboca": 5317,
      "Ġaproximadamente": 5318,
      "iosa": 5319,
      "49": 5320,
      "47": 5321,
      "ĠSU": 5322,
      "ĠGre": 5323,
      "ĠacadÃ©m": 5324,
      "Ġescuchar": 5325,
      "oche": 5326,
      "Ġimper": 5327,
      "Ġparticipantes": 5328,
      "ieran": 5329,
      "ĠMartÃŃnez": 5330,
      "Ġcontras": 5331,
      "doba": 5332,
      "isla": 5333,
      "Ġsupone": 5334,
      "CIA": 5335,
      "ĠðŁ": 5336,
      "Ġocul": 5337,
      "ĠpÃºblicas": 5338,
      "Ġresul": 5339,
      "ĠmÃ¡quina": 5340,
      "estre": 5341,
      "Po": 5342,
      "IR": 5343,
      "uelos": 5344,
      "dado": 5345,
      "ĠresoluciÃ³n": 5346,
      "yos": 5347,
      "gencias": 5348,
      "Ġprivado": 5349,
      "Pos": 5350,
      "ucÃŃa": 5351,
      "Ġexplo": 5352,
      "Ġnacionales": 5353,
      "duce": 5354,
      "Ġsuma": 5355,
      "ood": 5356,
      "ĠCOVID": 5357,
      "Ġadquirir": 5358,
      "stru": 5359,
      "Ġsoporte": 5360,
      "Ġpodido": 5361,
      "Ġenorme": 5362,
      "ĠCultura": 5363,
      "Ġaquellas": 5364,
      "ĠAP": 5365,
      "ĠiP": 5366,
      "Ġbanco": 5367,
      "ĠFundaciÃ³n": 5368,
      "Ġvacaciones": 5369,
      "Ġrecordar": 5370,
      "Ġprotes": 5371,
      "ĠdistribuciÃ³n": 5372,
      "cimientos": 5373,
      "Ġpaciente": 5374,
      "Ġartistas": 5375,
      "Ġconsegu": 5376,
      "Gracias": 5377,
      "ĠMunicipal": 5378,
      "Ġcaja": 5379,
      "amor": 5380,
      "ĠhÃ¡b": 5381,
      "Ġporta": 5382,
      "Ġambas": 5383,
      "ĠPolÃŃtica": 5384,
      "vera": 5385,
      "ĠconexiÃ³n": 5386,
      "Ġcatal": 5387,
      "Ġintentar": 5388,
      "ĠquerÃŃa": 5389,
      "andro": 5390,
      "Ġadecuado": 5391,
      "Ġwww": 5392,
      "Ġtarjeta": 5393,
      "ĠON": 5394,
      "tismo": 5395,
      "pen": 5396,
      "ĠcÃ³digo": 5397,
      "ĠperÃŃodo": 5398,
      "hol": 5399,
      "ibra": 5400,
      "ique": 5401,
      "reto": 5402,
      "Ġjuicio": 5403,
      "ĠPÃºbl": 5404,
      "by": 5405,
      "The": 5406,
      "ĠVilla": 5407,
      "Ġpobre": 5408,
      "ĠestÃ©n": 5409,
      "Ġgastos": 5410,
      "Ġconsec": 5411,
      "Ġdebate": 5412,
      "quez": 5413,
      "Ġadultos": 5414,
      "Ġsirve": 5415,
      "Ġcompos": 5416,
      "Ġalcalde": 5417,
      "enes": 5418,
      "ĠAll": 5419,
      "Ġavis": 5420,
      "Ġcooper": 5421,
      "Ġbu": 5422,
      "gunos": 5423,
      "Ġconsejos": 5424,
      "ĠNeg": 5425,
      "Ġllu": 5426,
      "ucha": 5427,
      "Ġnomb": 5428,
      "ĠGe": 5429,
      "Ġdistribu": 5430,
      "Ġplaza": 5431,
      "Ġalguno": 5432,
      "ĠpropÃ³sito": 5433,
      "Ġrecorrido": 5434,
      "Ġfol": 5435,
      "Ġadelan": 5436,
      "ĠdetrÃ¡s": 5437,
      "Ġcaf": 5438,
      "Ġestadounidense": 5439,
      "inter": 5440,
      "uebles": 5441,
      "aremos": 5442,
      "Ġexcep": 5443,
      "Ġincluyendo": 5444,
      "Ġformato": 5445,
      "Ġpropuestas": 5446,
      "Ġmotiv": 5447,
      "Ġvit": 5448,
      "ĠTecn": 5449,
      "ĠsecciÃ³n": 5450,
      "ĠtecnologÃŃas": 5451,
      "ayo": 5452,
      "Ġtarea": 5453,
      "Ġtareas": 5454,
      "idez": 5455,
      "Ã¡mica": 5456,
      "ivamente": 5457,
      "ij": 5458,
      "ĠintenciÃ³n": 5459,
      "Ġprote": 5460,
      "ĠYou": 5461,
      "ĠNov": 5462,
      "ĠFue": 5463,
      "Ġpotencia": 5464,
      "ĠclÃŃn": 5465,
      "Ġilum": 5466,
      "Ma": 5467,
      "Ġexistencia": 5468,
      "ĠkilÃ³metros": 5469,
      "Ġbajar": 5470,
      "trado": 5471,
      "Ġmarc": 5472,
      "Ġenlace": 5473,
      "Ġcanal": 5474,
      "Ġimplement": 5475,
      "Ġrequisitos": 5476,
      "gal": 5477,
      "ĠHern": 5478,
      "Ġvul": 5479,
      "ecÃŃa": 5480,
      "Ġcontrolar": 5481,
      "Ġcerc": 5482,
      "Ġentra": 5483,
      "Ġtren": 5484,
      "Ġgl": 5485,
      "Par": 5486,
      "Ġestrellas": 5487,
      "Ġcarne": 5488,
      "ĠtenÃŃan": 5489,
      "Ġrol": 5490,
      "ike": 5491,
      "ĠTal": 5492,
      "ĠanunciÃ³": 5493,
      "Gu": 5494,
      "Ġturismo": 5495,
      "Ġmercados": 5496,
      "ĠinstituciÃ³n": 5497,
      "Ġvive": 5498,
      "Ġciclo": 5499,
      "ĠEstas": 5500,
      "Ġataque": 5501,
      "sen": 5502,
      "ÃŃc": 5503,
      "ĠAlemania": 5504,
      "ĠIndust": 5505,
      "Ġcomienza": 5506,
      "Ġdro": 5507,
      "Etiquetas": 5508,
      "Ġsonido": 5509,
      "ĠEspe": 5510,
      "Ġreforma": 5511,
      "Ġvideos": 5512,
      "ĠRiv": 5513,
      "Ġido": 5514,
      "ĠTras": 5515,
      "eles": 5516,
      "Ġnecesitan": 5517,
      "Ġidentidad": 5518,
      "ĠSevilla": 5519,
      "Actu": 5520,
      "Ġrum": 5521,
      "uir": 5522,
      "tÃ©g": 5523,
      "rano": 5524,
      "Ġvender": 5525,
      "ĠDoc": 5526,
      "ciles": 5527,
      "Pres": 5528,
      "ĠbebÃ©": 5529,
      "Ġocurre": 5530,
      "ĠvÃŃctimas": 5531,
      "Ġcompras": 5532,
      "triz": 5533,
      "Ġsale": 5534,
      "Ġperspec": 5535,
      "Ġconoce": 5536,
      "Ġrevista": 5537,
      "ĠServicio": 5538,
      "yecto": 5539,
      "ĠCopa": 5540,
      "ĠJavier": 5541,
      "Ġproto": 5542,
      "ĠindicÃ³": 5543,
      "Ġpublicidad": 5544,
      "ey": 5545,
      "ĠCla": 5546,
      "Ġtendencia": 5547,
      "aso": 5548,
      "ĠZapa": 5549,
      "afa": 5550,
      "udos": 5551,
      "Ġfrecuencia": 5552,
      "Ġpreci": 5553,
      "Ġobjetos": 5554,
      "Ġcomunicado": 5555,
      "Ġsuelen": 5556,
      "cidad": 5557,
      "Ġcostos": 5558,
      "Ġaus": 5559,
      "Ġconsigu": 5560,
      "Ġbeneficio": 5561,
      "ĠHar": 5562,
      "inados": 5563,
      "ĠCada": 5564,
      "jal": 5565,
      "Ġdeseo": 5566,
      "Ġabajo": 5567,
      "mes": 5568,
      "Ġoptim": 5569,
      "Ġproducir": 5570,
      "ĠMed": 5571,
      "cor": 5572,
      "ĠintervenciÃ³n": 5573,
      "Ġmenudo": 5574,
      "ĠsensaciÃ³n": 5575,
      "ĠIncl": 5576,
      "ĠJunta": 5577,
      "ALES": 5578,
      "Ġimplic": 5579,
      "ĠmÃ©dicos": 5580,
      "Ġmarketing": 5581,
      "Ġflex": 5582,
      "Ġaudio": 5583,
      "ielo": 5584,
      "Ġbro": 5585,
      "eran": 5586,
      "cÃ©s": 5587,
      "Ġviajes": 5588,
      "Ġrestaur": 5589,
      "Ġcrec": 5590,
      "Per": 5591,
      "Ġsorpres": 5592,
      "ĠmÃºltiples": 5593,
      "SS": 5594,
      "\":": 5595,
      "Ġbelleza": 5596,
      "ĠAst": 5597,
      "Ġtuv": 5598,
      "ĠRu": 5599,
      "Ġchica": 5600,
      "Ġlocalidad": 5601,
      "Ġsient": 5602,
      "Ġpaque": 5603,
      "46": 5604,
      "Ġdocumentos": 5605,
      "Ġbomb": 5606,
      "Ġespecie": 5607,
      "ĠpresentÃ³": 5608,
      "ray": 5609,
      "Ġpiso": 5610,
      "Ġarran": 5611,
      "ĠTom": 5612,
      "Ġdul": 5613,
      "Ġigles": 5614,
      "Ġfemen": 5615,
      "ĠAdministraciÃ³n": 5616,
      "ld": 5617,
      "Ġconvertido": 5618,
      "Ġhabitantes": 5619,
      "ĠPon": 5620,
      "ĠRev": 5621,
      "ĠrÃŃo": 5622,
      "ĠcondiciÃ³n": 5623,
      "Ġ300": 5624,
      "ĠJohn": 5625,
      "ĠDip": 5626,
      "ni": 5627,
      "endiendo": 5628,
      "ĠAD": 5629,
      "Ġisla": 5630,
      "ondo": 5631,
      "ami": 5632,
      "atas": 5633,
      "ĠFoto": 5634,
      "dice": 5635,
      "Ġcontiene": 5636,
      "Ġcontrib": 5637,
      "Ġproporcion": 5638,
      "Ġ..": 5639,
      "Ġpresentes": 5640,
      "Ġago": 5641,
      "Ġagres": 5642,
      "Ġdebajo": 5643,
      "Ġdescrib": 5644,
      "2017": 5645,
      "FE": 5646,
      "Ġaloj": 5647,
      "Ġcanciones": 5648,
      "Man": 5649,
      "ĠNuevo": 5650,
      "ĠFuer": 5651,
      "**": 5652,
      "ĠrecibiÃ³": 5653,
      "ĠrecuperaciÃ³n": 5654,
      "%.": 5655,
      "Ġencontramos": 5656,
      "Ġdesper": 5657,
      "Pol": 5658,
      "32": 5659,
      "Ġpies": 5660,
      "Ġartista": 5661,
      "Ġorganismo": 5662,
      "DespuÃ©s": 5663,
      "Ġincluyen": 5664,
      "Âª": 5665,
      "deras": 5666,
      "ĠPen": 5667,
      "Ġdigo": 5668,
      "Ġriesgos": 5669,
      "Ġsomb": 5670,
      "cida": 5671,
      "Esto": 5672,
      "PE": 5673,
      "ĠLiga": 5674,
      "Ġprima": 5675,
      "Ġleche": 5676,
      "Ġtre": 5677,
      "ille": 5678,
      "net": 5679,
      "Ġtasa": 5680,
      "ĠrÃ¡pidamente": 5681,
      "Ġgama": 5682,
      "Ġaquella": 5683,
      "ĠalimentaciÃ³n": 5684,
      "Ġprohib": 5685,
      "icciÃ³n": 5686,
      "alizados": 5687,
      "ĠPartido": 5688,
      "ĠEd": 5689,
      "Ġabre": 5690,
      "Ġrecibido": 5691,
      "Ġoficina": 5692,
      "Ġcolomb": 5693,
      "rador": 5694,
      "Ġterminar": 5695,
      "Ġduro": 5696,
      "ĠafirmÃ³": 5697,
      "Ġreduci": 5698,
      "ĠDaniel": 5699,
      "Ġparque": 5700,
      "ultades": 5701,
      "ĠVe": 5702,
      "Ġreconocimiento": 5703,
      "Ġvirus": 5704,
      "Ã¡stico": 5705,
      "ĠGer": 5706,
      "Ġsolicitar": 5707,
      "ĠDo": 5708,
      "Ġimposible": 5709,
      "uÃ±a": 5710,
      "Ġconvoca": 5711,
      "Ġintegra": 5712,
      "PS": 5713,
      "Ġ36": 5714,
      "Ġparecer": 5715,
      "Ġritmo": 5716,
      "ĠfÃŃsico": 5717,
      "Ġcumplimiento": 5718,
      "Ġcuentan": 5719,
      "ĠhacÃŃa": 5720,
      "Ġinvoluc": 5721,
      "orios": 5722,
      "Ġcree": 5723,
      "Ġital": 5724,
      "Ġgana": 5725,
      "Ġpasada": 5726,
      "ĠCentral": 5727,
      "Ġhabitaciones": 5728,
      "tigo": 5729,
      "Ġutilizado": 5730,
      "cib": 5731,
      "ĠprÃ³ximos": 5732,
      "Ã³rdoba": 5733,
      "stagram": 5734,
      "Ġseleccion": 5735,
      "ĠsÃŃntomas": 5736,
      "entro": 5737,
      "tuales": 5738,
      "Ġpec": 5739,
      "Ġmolino": 5740,
      "Ġconfigura": 5741,
      "Ġutilizan": 5742,
      "into": 5743,
      "ueva": 5744,
      "Ġsurg": 5745,
      "Ġcama": 5746,
      "Ġmensajes": 5747,
      "Ġtranspar": 5748,
      "Ġvolumen": 5749,
      "edes": 5750,
      "Ġestren": 5751,
      "Ġlegisl": 5752,
      "ĠHol": 5753,
      "Ġfutbol": 5754,
      "didos": 5755,
      "tista": 5756,
      "ĠTri": 5757,
      "ĠFiscal": 5758,
      "44": 5759,
      "gÃ¼": 5760,
      "olucion": 5761,
      "enciales": 5762,
      "Ġasc": 5763,
      "Ġreciente": 5764,
      "ĠComunidad": 5765,
      "Ġdepartamento": 5766,
      "Ã³stico": 5767,
      "Ġdeuda": 5768,
      "tamientos": 5769,
      "Ġagrad": 5770,
      "ĠLuego": 5771,
      "Ġacos": 5772,
      "ock": 5773,
      "Ġnecesarias": 5774,
      "Ġvenezol": 5775,
      "Ġpueblos": 5776,
      "Ġdescubrir": 5777,
      "Ġaclar": 5778,
      "ĠGab": 5779,
      "Ġdirecta": 5780,
      "Ġagentes": 5781,
      "idar": 5782,
      "ĠSen": 5783,
      "usiones": 5784,
      "Ġterreno": 5785,
      "Ã©rcito": 5786,
      "Ġutilizando": 5787,
      "Ġdich": 5788,
      "Ġveo": 5789,
      "Ġsecretario": 5790,
      "OD": 5791,
      "TOR": 5792,
      "Ġtes": 5793,
      "Ġexam": 5794,
      "ĠfÃ¡cilmente": 5795,
      "ĠCÃ¡mara": 5796,
      "Ġsilen": 5797,
      "Ġrecog": 5798,
      "ĠDirecciÃ³n": 5799,
      "500": 5800,
      "Ãºcar": 5801,
      "Ġmezcla": 5802,
      "ĠJulio": 5803,
      "ĠexpresiÃ³n": 5804,
      "amÃ©rica": 5805,
      "rente": 5806,
      "Ġhistorias": 5807,
      "Ġarmas": 5808,
      "Ġger": 5809,
      "olv": 5810,
      "fl": 5811,
      "ĠEv": 5812,
      "Ġhumana": 5813,
      "Ġinfraestruc": 5814,
      "ĠgustarÃŃa": 5815,
      "Ġaplicar": 5816,
      "ĠProfes": 5817,
      "Ġverdadera": 5818,
      "Ġast": 5819,
      "ĠPuede": 5820,
      "ĠCosta": 5821,
      "Ġalco": 5822,
      "Ġdejado": 5823,
      "Ġhayan": 5824,
      "Ġnecesaria": 5825,
      "San": 5826,
      "Ġinflu": 5827,
      "ĠSalv": 5828,
      "osos": 5829,
      "ĠcolecciÃ³n": 5830,
      "Ġgestion": 5831,
      "ĠTar": 5832,
      "ĠNat": 5833,
      "Ġinci": 5834,
      "ĠtendrÃ¡n": 5835,
      "Ġconden": 5836,
      "Ġartic": 5837,
      "Ġcomput": 5838,
      "estiones": 5839,
      "ĠevoluciÃ³n": 5840,
      "Ġprofund": 5841,
      "Ġ09": 5842,
      "Ġhos": 5843,
      "Ġtranqu": 5844,
      "Ad": 5845,
      "Ãł": 5846,
      "Ġnecesitas": 5847,
      "ĠAndr": 5848,
      "ĠDiario": 5849,
      "ics": 5850,
      "Ġpuso": 5851,
      "ĠDr": 5852,
      "ĠDic": 5853,
      "IZ": 5854,
      "Ġpasando": 5855,
      "Ġcreado": 5856,
      "Ġestrategias": 5857,
      "mun": 5858,
      "Ġexpan": 5859,
      "tizaciÃ³n": 5860,
      "redi": 5861,
      "Ġcontam": 5862,
      "ĠEuropea": 5863,
      "ĠrÃ©gimen": 5864,
      "%,": 5865,
      "ĠDef": 5866,
      "iri": 5867,
      "ĠquÃŃm": 5868,
      "ĠÃ©sta": 5869,
      "ĠcanciÃ³n": 5870,
      "lano": 5871,
      "Ġtraduc": 5872,
      "Ġderiv": 5873,
      "Co": 5874,
      "ĠReino": 5875,
      "ĠForm": 5876,
      "Ġacero": 5877,
      "iber": 5878,
      "ua": 5879,
      "ĠcÃ¡l": 5880,
      "Ġnovela": 5881,
      "ĠAquÃŃ": 5882,
      "Ġcontinuar": 5883,
      "gados": 5884,
      "Ġelemento": 5885,
      "esper": 5886,
      "Ġtr": 5887,
      "amblea": 5888,
      "ĠFederal": 5889,
      "olÃ³gicas": 5890,
      "Ġhabitual": 5891,
      "Ġrecur": 5892,
      "Ġsiquiera": 5893,
      "Ġaument": 5894,
      "ĠHospital": 5895,
      "cir": 5896,
      "Ġclara": 5897,
      "Ġarchivo": 5898,
      "Ġmm": 5899,
      "gamos": 5900,
      "ĠDon": 5901,
      "Ġentregar": 5902,
      "arme": 5903,
      "entario": 5904,
      "Ġusa": 5905,
      "58": 5906,
      "Ġencanta": 5907,
      "isten": 5908,
      "ast": 5909,
      "Ã¡is": 5910,
      "Ġvo": 5911,
      "ÃŃsticos": 5912,
      "Ġestan": 5913,
      "Ġchoc": 5914,
      "Ã§": 5915,
      "Ġingre": 5916,
      "Ġllevan": 5917,
      "ĠNa": 5918,
      "Ġpase": 5919,
      "Ġconcreto": 5920,
      "Ġjam": 5921,
      "uchos": 5922,
      "56": 5923,
      "57": 5924,
      "Tra": 5925,
      "ĠdaÃ±o": 5926,
      "Ġtorno": 5927,
      "ĠFre": 5928,
      "Ġcandidato": 5929,
      "Ġventaja": 5930,
      "Ġcelebra": 5931,
      "Ġconsecuencias": 5932,
      "Ġrod": 5933,
      "enar": 5934,
      "Ġpuestos": 5935,
      "Ġaguas": 5936,
      "ĠGa": 5937,
      "Ġhabilidades": 5938,
      "Ġinfantil": 5939,
      "tiende": 5940,
      "ADA": 5941,
      "Ġsimilares": 5942,
      "Ġresiden": 5943,
      "ĠoposiciÃ³n": 5944,
      "Ġsabor": 5945,
      "ritos": 5946,
      "Mo": 5947,
      "Ġfuncionarios": 5948,
      "adura": 5949,
      "ĠhistÃ³rico": 5950,
      "Ġdosis": 5951,
      "wer": 5952,
      "âĢĭ": 5953,
      "Ġregalo": 5954,
      "ĠSistema": 5955,
      "Ġprocedimiento": 5956,
      "ueve": 5957,
      "Todo": 5958,
      "Ġprogres": 5959,
      "Ġexplor": 5960,
      "ĠTrump": 5961,
      "ĠcafÃ©": 5962,
      "59": 5963,
      "Ġenter": 5964,
      "Ġgr": 5965,
      "ĠDist": 5966,
      "Ġventajas": 5967,
      "ĠRadio": 5968,
      "Ġrelo": 5969,
      "Ġtrabaja": 5970,
      "ye": 5971,
      "ham": 5972,
      "Ġrespal": 5973,
      "Ġgratuita": 5974,
      "UD": 5975,
      "Ġporcent": 5976,
      "ĠEjecu": 5977,
      "Ġanalizar": 5978,
      "ĠTribunal": 5979,
      "Ġce": 5980,
      "aÃ±a": 5981,
      "Ġconsulta": 5982,
      "Ġcomportamiento": 5983,
      "Ġplaneta": 5984,
      "gÃ³": 5985,
      "yn": 5986,
      "Ġexpec": 5987,
      "Ġpocas": 5988,
      "Ġacudi": 5989,
      "ĠVie": 5990,
      "ĠSecretarÃŃa": 5991,
      "quia": 5992,
      "iernos": 5993,
      "Ġelectoral": 5994,
      "Ġdetalle": 5995,
      "hats": 5996,
      "Ġescena": 5997,
      "2016": 5998,
      "olas": 5999,
      "quen": 6000,
      "Ã³rm": 6001,
      "____": 6002,
      "Ġmaravillos": 6003,
      "tus": 6004,
      "ĠGol": 6005,
      "Ġmiembro": 6006,
      "ardia": 6007,
      "Ġsolicitud": 6008,
      "Ġerrores": 6009,
      "Ġasistencia": 6010,
      "Ġrey": 6011,
      "ĠAlberto": 6012,
      "Ġcursos": 6013,
      "seg": 6014,
      "ux": 6015,
      "ĠespaÃ±oles": 6016,
      "ĠMundo": 6017,
      "eropuerto": 6018,
      "Ġconsiste": 6019,
      "Ġnecesarios": 6020,
      "Ġcomunes": 6021,
      "Ġmod": 6022,
      "Ġmineral": 6023,
      "ĠNew": 6024,
      "ĠpromociÃ³n": 6025,
      "ĠItalia": 6026,
      "Bus": 6027,
      "inario": 6028,
      "Ġpractic": 6029,
      "ĠPlata": 6030,
      "Ġdepende": 6031,
      "ĠDerecho": 6032,
      "ĠCorte": 6033,
      "ĠSeÃ±or": 6034,
      "Ġclima": 6035,
      "Ġvisitantes": 6036,
      "ciar": 6037,
      "ames": 6038,
      "Ġvirtual": 6039,
      "Ġdieron": 6040,
      "Hace": 6041,
      "ĠCamp": 6042,
      "ĠPorque": 6043,
      "ĠEscuela": 6044,
      "Ġesencial": 6045,
      "UM": 6046,
      "inarias": 6047,
      "ĠFlor": 6048,
      "ivia": 6049,
      "Ġalcance": 6050,
      "maras": 6051,
      "Ġamplio": 6052,
      "Ġlide": 6053,
      "deos": 6054,
      "Ġpromedio": 6055,
      "epres": 6056,
      "Ġfotograf": 6057,
      "Ġfom": 6058,
      "Ġmusical": 6059,
      "Ġpuedas": 6060,
      "Ġrepresentantes": 6061,
      "TOS": 6062,
      "Ġrojo": 6063,
      "Ġges": 6064,
      "ĠMag": 6065,
      "ĠtÃ©rmino": 6066,
      "ĠBas": 6067,
      "ĠâĢĺ": 6068,
      "ĠCr": 6069,
      "Col": 6070,
      "ĠseÃ±ala": 6071,
      "icultura": 6072,
      "Ġentradas": 6073,
      "ENTE": 6074,
      "Ġinferior": 6075,
      "izados": 6076,
      "Ġpide": 6077,
      "ĠDurante": 6078,
      "Comp": 6079,
      "Ġauton": 6080,
      "eler": 6081,
      "Ġcuidad": 6082,
      "apacidad": 6083,
      "Ġrecibe": 6084,
      "ĠSub": 6085,
      "Ġpresentado": 6086,
      "wa": 6087,
      "ites": 6088,
      "ĠAir": 6089,
      "Ġdefens": 6090,
      "Ġleyes": 6091,
      "ĠDigital": 6092,
      "----": 6093,
      "Ġperfecta": 6094,
      "Ġadecuada": 6095,
      "Ġrecuerda": 6096,
      "mm": 6097,
      "ĠTrabajo": 6098,
      "Ġmovil": 6099,
      "ERO": 6100,
      "Ca": 6101,
      ".)": 6102,
      "Ġpopulares": 6103,
      "Ġbrit": 6104,
      "Ġfuertes": 6105,
      "Ġapertura": 6106,
      "leo": 6107,
      "Ġprobar": 6108,
      "Ġresid": 6109,
      "Ġconocida": 6110,
      "Ġsaben": 6111,
      "Ġbi": 6112,
      "Ġcercan": 6113,
      "ĠBur": 6114,
      "df": 6115,
      "Ġflor": 6116,
      "Ġprecisamente": 6117,
      "ife": 6118,
      "ĠRusia": 6119,
      "Ġresponsables": 6120,
      "Ġmovimientos": 6121,
      "Ġvale": 6122,
      "ney": 6123,
      "Ġrestaurante": 6124,
      "ideo": 6125,
      "Â´": 6126,
      "Ġurg": 6127,
      "Ġpermanente": 6128,
      "ĠCÃ³rdoba": 6129,
      "ĠAlej": 6130,
      "Ġbatal": 6131,
      "orld": 6132,
      "ĠPlaza": 6133,
      "Ġhacemos": 6134,
      "Ġabra": 6135,
      "ĠSO": 6136,
      "Ġimporta": 6137,
      "Ġrefiere": 6138,
      "ĠHor": 6139,
      "Ġbuscan": 6140,
      "Ġadv": 6141,
      "hi": 6142,
      "Ġconciencia": 6143,
      "emente": 6144,
      "grÃŃa": 6145,
      "ĠpermitirÃ¡": 6146,
      "tistas": 6147,
      "Ġrecuperar": 6148,
      "Ġpropiedades": 6149,
      "Ġactivos": 6150,
      "ĠcaÃŃda": 6151,
      "Ġmirada": 6152,
      "Ġenem": 6153,
      "ArtÃŃculo": 6154,
      "iller": 6155,
      "ĠespectÃ¡": 6156,
      "Ġchicas": 6157,
      "Ã³logo": 6158,
      "Ġcorrespondiente": 6159,
      "Ġ2006": 6160,
      "ĠSab": 6161,
      "Ġindustrial": 6162,
      "endas": 6163,
      "Ġhoteles": 6164,
      "ĠtrÃ¡fico": 6165,
      "tieron": 6166,
      "ĠevaluaciÃ³n": 6167,
      "uz": 6168,
      "ĠdÃ©cada": 6169,
      "Ġcontribu": 6170,
      "ĠFil": 6171,
      "Ġformul": 6172,
      "Ġconvierte": 6173,
      "ĠperiÃ³": 6174,
      "jeron": 6175,
      "Sal": 6176,
      "sar": 6177,
      "Ġpose": 6178,
      "Ġfuncional": 6179,
      "Ġlenguaje": 6180,
      "hone": 6181,
      "Ġactuales": 6182,
      "Ġresponder": 6183,
      "ĠTierra": 6184,
      "formas": 6185,
      "Ġindependiente": 6186,
      "Ġbienestar": 6187,
      "Ġalma": 6188,
      "ĠSp": 6189,
      "Ġpil": 6190,
      "Ġdesea": 6191,
      "Ġdescuento": 6192,
      "iada": 6193,
      "ĠtÃŃp": 6194,
      "rucciones": 6195,
      "Ġhuel": 6196,
      "vio": 6197,
      "ÃŃti": 6198,
      "ĠMad": 6199,
      "ĠlÃ³g": 6200,
      "VI": 6201,
      "Ġasign": 6202,
      "Ġbos": 6203,
      "ĠAgu": 6204,
      "Ġpeligro": 6205,
      "Ġaler": 6206,
      "teo": 6207,
      "Ġyou": 6208,
      "olina": 6209,
      "Ġasesor": 6210,
      "Ġvulner": 6211,
      "Ġileg": 6212,
      "Ġpositivo": 6213,
      "Ġinicial": 6214,
      "Ġvoluntad": 6215,
      "Ġgar": 6216,
      "Ġprodu": 6217,
      "isos": 6218,
      "ĠSala": 6219,
      "Ġconflicto": 6220,
      "adÃ¡": 6221,
      "ĠProduc": 6222,
      "iter": 6223,
      "tions": 6224,
      "Ġabierta": 6225,
      "ĠDiego": 6226,
      "Ġvemos": 6227,
      "Ġsegundos": 6228,
      "54": 6229,
      "Ġvot": 6230,
      "Ġentrenamiento": 6231,
      "for": 6232,
      "Ġcabello": 6233,
      "ĠNavidad": 6234,
      "Ã³c": 6235,
      "ters": 6236,
      "Ġactos": 6237,
      "Ġhablando": 6238,
      "ĠmÃ³viles": 6239,
      "ĠLAS": 6240,
      "Ġperro": 6241,
      "Ġhermano": 6242,
      "90": 6243,
      "ĠniÃ±as": 6244,
      "100": 6245,
      "ĠPaz": 6246,
      "GU": 6247,
      "Ġfig": 6248,
      "Ġsubs": 6249,
      "Ġilust": 6250,
      "Ġcontag": 6251,
      "ĠPS": 6252,
      "utaciÃ³n": 6253,
      "ĠAna": 6254,
      "Ġmanejo": 6255,
      "Ġtrist": 6256,
      "ĠactuaciÃ³n": 6257,
      "ĠcuÃ¡l": 6258,
      "ĠenvÃŃo": 6259,
      "ĠNet": 6260,
      "Ġcausas": 6261,
      "cre": 6262,
      "sos": 6263,
      "Ġespal": 6264,
      "Ġquedan": 6265,
      "olos": 6266,
      "Ġleyendo": 6267,
      "etido": 6268,
      "ĠduraciÃ³n": 6269,
      "Ġsupon": 6270,
      "Ġescuelas": 6271,
      "Ġcamp": 6272,
      "Ġcarretera": 6273,
      "ĠcÃ©l": 6274,
      "Ġcentr": 6275,
      "ĠautÃ³n": 6276,
      "Ġtap": 6277,
      "Ġformar": 6278,
      "erales": 6279,
      "ane": 6280,
      "Ġimpresion": 6281,
      "Ġsubir": 6282,
      "Ġrecuerdo": 6283,
      "how": 6284,
      "Ġseguros": 6285,
      "Ġreconocer": 6286,
      "ĠmisiÃ³n": 6287,
      "NO": 6288,
      "aman": 6289,
      "Ġvienen": 6290,
      "Ġsup": 6291,
      "aturas": 6292,
      "cleta": 6293,
      "Ġaltos": 6294,
      "bum": 6295,
      "Ġdomicilio": 6296,
      "aa": 6297,
      "ativas": 6298,
      "ĠestratÃ©g": 6299,
      "ting": 6300,
      "ocal": 6301,
      "ĠdestacÃ³": 6302,
      "piraciÃ³n": 6303,
      "uestros": 6304,
      "Ġlist": 6305,
      "Ġresal": 6306,
      "ĠcompaÃ±ÃŃas": 6307,
      "ĠRafa": 6308,
      "Ġlanzamiento": 6309,
      "Ġdelante": 6310,
      "Ġseres": 6311,
      "Ġbur": 6312,
      "rieron": 6313,
      "Ġimplica": 6314,
      "udio": 6315,
      "eciÃ³": 6316,
      "Ġcomprender": 6317,
      "Ġsencilla": 6318,
      "Ġacaba": 6319,
      "Ġpretende": 6320,
      "Ġperdido": 6321,
      "ĠInvestig": 6322,
      "Ġingenier": 6323,
      "Ġabord": 6324,
      "Ġindividual": 6325,
      "ĠMientras": 6326,
      "Ġdesen": 6327,
      "ĠcÃ¡": 6328,
      "Ġespero": 6329,
      "Ġadicional": 6330,
      "Ġacuer": 6331,
      "Ġsimp": 6332,
      "Ġescolar": 6333,
      "Ġmasa": 6334,
      "Ġ08": 6335,
      "Ġprivacidad": 6336,
      "Compar": 6337,
      "Ġapos": 6338,
      "Deb": 6339,
      "Fin": 6340,
      "Ġafirma": 6341,
      "Ġsabes": 6342,
      "Ġgenera": 6343,
      "ĠcelebraciÃ³n": 6344,
      "Ġreceta": 6345,
      "Ġalar": 6346,
      "iblioteca": 6347,
      "ĠJap": 6348,
      "Ġdestacar": 6349,
      "Ġdestaca": 6350,
      "Ġalter": 6351,
      "uf": 6352,
      "Ġnombres": 6353,
      "ĠlogrÃ³": 6354,
      "Ġcombust": 6355,
      "Ġestados": 6356,
      "ĠMen": 6357,
      "inte": 6358,
      "ĠVol": 6359,
      "Ġcierta": 6360,
      "ĠincreÃŃble": 6361,
      "Ġarena": 6362,
      "cuador": 6363,
      "Ġ196": 6364,
      "MI": 6365,
      "Ġflores": 6366,
      "ĠfenÃ³m": 6367,
      "its": 6368,
      "Ġnerv": 6369,
      "quÃŃa": 6370,
      "rante": 6371,
      "Ġactor": 6372,
      "Ġtoque": 6373,
      "ĠVil": 6374,
      "Ġhermanos": 6375,
      "ml": 6376,
      "Ã³lica": 6377,
      "Ġalmacenamiento": 6378,
      "ĠeconÃ³micos": 6379,
      "Ġvaya": 6380,
      "Ġconsiderar": 6381,
      "Ġpensamiento": 6382,
      "Ġpuesta": 6383,
      "Ġencontrado": 6384,
      "Son": 6385,
      "isas": 6386,
      "Ġprivada": 6387,
      "Ġpremios": 6388,
      "Ġmoto": 6389,
      "Ġhacerse": 6390,
      "Todos": 6391,
      "Ġestablece": 6392,
      "ĠUnido": 6393,
      "Ġinde": 6394,
      "Ġperros": 6395,
      "Ġtantos": 6396,
      "ĠApple": 6397,
      "Ġ?": 6398,
      "ilaciÃ³n": 6399,
      "ferencias": 6400,
      "mpleo": 6401,
      "Ġdemocracia": 6402,
      "jud": 6403,
      "Ġalternativa": 6404,
      "Ġimpuestos": 6405,
      "Ġpolvo": 6406,
      "Ġprobablemente": 6407,
      "frica": 6408,
      "ĠDem": 6409,
      "ĠbaterÃŃa": 6410,
      "lin": 6411,
      "ĠCat": 6412,
      "ĠGuerra": 6413,
      "ĠlÃŃderes": 6414,
      "ides": 6415,
      "Ġvotos": 6416,
      "vie": 6417,
      "Ġmotivos": 6418,
      "ĠCU": 6419,
      "bia": 6420,
      "turaciÃ³n": 6421,
      "Ġdeterminar": 6422,
      "rÃŃ": 6423,
      "Ġ32": 6424,
      "Ġsustitu": 6425,
      "Ġposterior": 6426,
      "inten": 6427,
      "Ġsiento": 6428,
      "ari": 6429,
      "ĠsÃ³l": 6430,
      "Ãºl": 6431,
      "Ġacu": 6432,
      "ÃŃna": 6433,
      "ick": 6434,
      "Ġdiscipl": 6435,
      "Ġprobable": 6436,
      "Ġpese": 6437,
      "Ġbolas": 6438,
      "ans": 6439,
      "ĠquizÃ¡s": 6440,
      "Ġchicos": 6441,
      "ĠreducciÃ³n": 6442,
      "Ġintegral": 6443,
      "Ġseguimiento": 6444,
      "ĠdiÃ¡logo": 6445,
      "cura": 6446,
      "edi": 6447,
      "ĠCE": 6448,
      "tudes": 6449,
      "ĠdecidiÃ³": 6450,
      "Ġprostitu": 6451,
      "ĠcontinÃºa": 6452,
      "Ġtrituradora": 6453,
      "Ġespecta": 6454,
      "Ġhonor": 6455,
      "Ġllevado": 6456,
      "ĠCÃ¡": 6457,
      "ĠServicios": 6458,
      "Cons": 6459,
      "Ġanimal": 6460,
      "allo": 6461,
      "Ġustedes": 6462,
      "ticiÃ³n": 6463,
      "Ġesperanza": 6464,
      "grado": 6465,
      "Ġprotec": 6466,
      "ĠConstituciÃ³n": 6467,
      "rimiento": 6468,
      "RAN": 6469,
      "Ġvidas": 6470,
      "isp": 6471,
      "Ġcoste": 6472,
      "ĠRÃŃo": 6473,
      "Ġesposa": 6474,
      "Ġdol": 6475,
      "ĠDepartamento": 6476,
      "inada": 6477,
      "Ġgobernador": 6478,
      "Ġhorm": 6479,
      "ĠMedio": 6480,
      "ĠprÃ¡cticamente": 6481,
      "Ġiniciar": 6482,
      "Ġusando": 6483,
      "Ġconvoc": 6484,
      "Ġpolici": 6485,
      "onedas": 6486,
      "Ġviajar": 6487,
      "Ġdelan": 6488,
      "Ġextrac": 6489,
      "Ġcoord": 6490,
      "Ġgenerales": 6491,
      "Ġinspir": 6492,
      "abel": 6493,
      "Ġjuez": 6494,
      "ĠLond": 6495,
      "Ġconsent": 6496,
      "Ġdelito": 6497,
      "Ġreserva": 6498,
      "uo": 6499,
      "Ã©ndose": 6500,
      "ĠlÃŃqu": 6501,
      "ĠEr": 6502,
      "Ġdiferencias": 6503,
      "Ġautoridad": 6504,
      "Ġtuvieron": 6505,
      "dÃŃ": 6506,
      "ĠprevenciÃ³n": 6507,
      "ĠbotÃ³n": 6508,
      "Ġactores": 6509,
      "Ãºan": 6510,
      "ĠnÃºmeros": 6511,
      "Ġcerrar": 6512,
      "Ġbe": 6513,
      "Ġforo": 6514,
      "Ġservir": 6515,
      "ĠRod": 6516,
      "Ġantiguo": 6517,
      "ĠSalvador": 6518,
      "ristas": 6519,
      "Ġorgul": 6520,
      "2015": 6521,
      "Ã¨": 6522,
      "Ġasunto": 6523,
      "Ġescala": 6524,
      "Ã³mez": 6525,
      "tesis": 6526,
      "Ġrespuestas": 6527,
      "Ġmunicipios": 6528,
      "ĠagregÃ³": 6529,
      "?,": 6530,
      "Ġefectivo": 6531,
      "ĠAndrÃ©s": 6532,
      "ĠniÃ±a": 6533,
      "Ġrealizan": 6534,
      "ĠLatina": 6535,
      "Ġgrasa": 6536,
      "ĠSch": 6537,
      "Ġautores": 6538,
      "ĠPlay": 6539,
      "ĠfrancÃ©s": 6540,
      "Ġubicado": 6541,
      "ĠazÃºcar": 6542,
      "Ġprotagonista": 6543,
      "ĠMuseo": 6544,
      "ĠinnovaciÃ³n": 6545,
      "ĠLuc": 6546,
      "Ġperfectamente": 6547,
      "Ġconcurso": 6548,
      "adal": 6549,
      "Ġinvesti": 6550,
      "https": 6551,
      "ĠubicaciÃ³n": 6552,
      "Ġespecies": 6553,
      "ĠPu": 6554,
      "Ġcomod": 6555,
      "Ġabor": 6556,
      "Ġdeclaraciones": 6557,
      "Ġcielo": 6558,
      "izon": 6559,
      "Ġans": 6560,
      "Ġestudiar": 6561,
      "SA": 6562,
      "mobil": 6563,
      "Ġdesac": 6564,
      "ĠdaÃ±os": 6565,
      "ĠInstagram": 6566,
      "Ã³mico": 6567,
      "Ġinstalar": 6568,
      "rÃ³n": 6569,
      "ĠEX": 6570,
      "Ġporno": 6571,
      "ĠMes": 6572,
      "istencia": 6573,
      "Ġincluir": 6574,
      "ĠAust": 6575,
      "ĠasociaciÃ³n": 6576,
      "TRA": 6577,
      "ĠAB": 6578,
      "ĠValle": 6579,
      "ĠRub": 6580,
      "Cor": 6581,
      "ĠFl": 6582,
      "ĠmÃ©todos": 6583,
      "Ġatender": 6584,
      "cesa": 6585,
      "asti": 6586,
      "Ġexc": 6587,
      "Ġciertos": 6588,
      "Ġpuerto": 6589,
      "Ġlleno": 6590,
      "rosoft": 6591,
      "vos": 6592,
      "ĠArm": 6593,
      "Ġverdadero": 6594,
      "Ġoficiales": 6595,
      "Ġexpecta": 6596,
      "ego": 6597,
      "ĠreciÃ©n": 6598,
      "Ġproveedores": 6599,
      "Ġincremento": 6600,
      "endido": 6601,
      "ĠelÃ©ctrica": 6602,
      "ĠCovid": 6603,
      "Ġinmedi": 6604,
      "Ġcomponentes": 6605,
      "Ġsuave": 6606,
      "Ġidentificar": 6607,
      "Ġdenuncia": 6608,
      "SOE": 6609,
      "ster": 6610,
      "osas": 6611,
      "ĠBro": 6612,
      "Ġmatrimonio": 6613,
      "ii": 6614,
      "arca": 6615,
      "genda": 6616,
      "Ġemergencia": 6617,
      "porta": 6618,
      "Ġinterac": 6619,
      "Ġameric": 6620,
      "Ġalquiler": 6621,
      "arro": 6622,
      "ĠtÃ©cnicos": 6623,
      "emor": 6624,
      "Ġpatr": 6625,
      "Ġpresentan": 6626,
      "Ġiglesia": 6627,
      "GA": 6628,
      "Ġdesplaz": 6629,
      "Ġrap": 6630,
      "Ġliter": 6631,
      "70": 6632,
      "Ġplacer": 6633,
      "43": 6634,
      "Ġaccidente": 6635,
      "Nos": 6636,
      "guro": 6637,
      "Ġcaer": 6638,
      "Ġcosta": 6639,
      "chaz": 6640,
      "ianas": 6641,
      "Ġhel": 6642,
      "Ġefectu": 6643,
      "Ġcable": 6644,
      "Ġcasino": 6645,
      "ĠrealizaciÃ³n": 6646,
      "dom": 6647,
      "uan": 6648,
      "iss": 6649,
      "ĠRel": 6650,
      "ecido": 6651,
      "Ġpieza": 6652,
      "ĠLO": 6653,
      "berg": 6654,
      "Ġreales": 6655,
      "ĠPÃºblica": 6656,
      "Ġexpe": 6657,
      "ington": 6658,
      "ĠArch": 6659,
      "42": 6660,
      "Ġchil": 6661,
      "Ġreform": 6662,
      "rÃ©s": 6663,
      "tive": 6664,
      "ĠColeg": 6665,
      "ĠFun": 6666,
      "Ġteatro": 6667,
      "Ġminuto": 6668,
      "ĠejecuciÃ³n": 6669,
      "Ġregional": 6670,
      "Ġbreve": 6671,
      "ĠdeclaraciÃ³n": 6672,
      "tell": 6673,
      "ĠEnrique": 6674,
      "Ġactitud": 6675,
      "ĠFestival": 6676,
      "Ġcorriente": 6677,
      "ionar": 6678,
      "Ġfacilitar": 6679,
      "iti": 6680,
      "Ġnuevamente": 6681,
      "ĠjardÃŃn": 6682,
      "ĠdeberÃ¡n": 6683,
      "Ġbancos": 6684,
      "aste": 6685,
      "Ġrecha": 6686,
      "Ġsuces": 6687,
      "uevo": 6688,
      "americana": 6689,
      "ĠTÃ©cn": 6690,
      "Ġconvertirse": 6691,
      "Ġviven": 6692,
      "Ġsiente": 6693,
      "laga": 6694,
      "Ġmanifies": 6695,
      "Ġpenal": 6696,
      "Ġdiscurso": 6697,
      "lvar": 6698,
      "Ġjap": 6699,
      "ement": 6700,
      "Ġrent": 6701,
      "Ġsuperar": 6702,
      "Ġpensando": 6703,
      "Ġquis": 6704,
      "ĠcorrupciÃ³n": 6705,
      "Ġviviendas": 6706,
      "Ġdiver": 6707,
      "41": 6708,
      "iforn": 6709,
      "Leer": 6710,
      "CON": 6711,
      "ĠViv": 6712,
      "Ġdetall": 6713,
      "Ġdesconoci": 6714,
      "Ġesfuerzos": 6715,
      "Ġpreocu": 6716,
      "ADOR": 6717,
      "Ġrestaurantes": 6718,
      "ĠMos": 6719,
      "Ġarreg": 6720,
      "ĠParque": 6721,
      "ĠDÃŃaz": 6722,
      "ĠMc": 6723,
      "ĠMAR": 6724,
      "oce": 6725,
      "Ġinvierno": 6726,
      "sal": 6727,
      "ĠAndal": 6728,
      "Ġcontes": 6729,
      "ilos": 6730,
      "portar": 6731,
      "ERS": 6732,
      "Ġexplicar": 6733,
      "Ġterceros": 6734,
      "Ho": 6735,
      "ĠBr": 6736,
      "Ġfiestas": 6737,
      "Ġreca": 6738,
      "ax": 6739,
      "Ġrecientemente": 6740,
      "ĠfrÃŃo": 6741,
      "ĠEmp": 6742,
      "Ġimpon": 6743,
      "Ġcircu": 6744,
      "Ġproporciona": 6745,
      "VO": 6746,
      "Ġapara": 6747,
      "Ġregul": 6748,
      "ĠPrograma": 6749,
      "ĠCD": 6750,
      "bor": 6751,
      "ĠLor": 6752,
      "Ġcancel": 6753,
      "ĠÃºnicamente": 6754,
      "enaje": 6755,
      "Ġprofesores": 6756,
      "dÃ³": 6757,
      "terial": 6758,
      "dimientos": 6759,
      "Ġtocar": 6760,
      "Ġcelebrar": 6761,
      "Ġcay": 6762,
      "Ġclim": 6763,
      "ĠLatino": 6764,
      "ĠComercio": 6765,
      "Ġgir": 6766,
      "ĠDiv": 6767,
      "Ġargentino": 6768,
      "ficos": 6769,
      "Ġinterna": 6770,
      "Ġvisitas": 6771,
      "Ġtambien": 6772,
      "Ġpeg": 6773,
      "Ġtarif": 6774,
      "Ġcompati": 6775,
      "ĠCristo": 6776,
      "Ġ01": 6777,
      "ĠSolo": 6778,
      "Ġempren": 6779,
      "Ġrelacionadas": 6780,
      "Ġcircunstancias": 6781,
      "Ġcorresponde": 6782,
      "Ġul": 6783,
      "Ġapuesta": 6784,
      "ĠJer": 6785,
      "Ã¡bamos": 6786,
      "88": 6787,
      "Ġbru": 6788,
      "Ġcomienzo": 6789,
      "ĠestaciÃ³n": 6790,
      "Ġlabora": 6791,
      "ĠPel": 6792,
      "orio": 6793,
      "Ġcoinci": 6794,
      "Ġacord": 6795,
      "Pa": 6796,
      "Ġexter": 6797,
      "Ġquedar": 6798,
      "Ġgarantiz": 6799,
      "ĠBor": 6800,
      "icales": 6801,
      "ERA": 6802,
      "ĠvolviÃ³": 6803,
      "top": 6804,
      "Ġimpac": 6805,
      "ĠaÃ±adir": 6806,
      "Ġfich": 6807,
      "ĠSociedad": 6808,
      "tida": 6809,
      "Ġposee": 6810,
      "Ġcaliente": 6811,
      "mal": 6812,
      "Ġdestru": 6813,
      "ĠautÃ©n": 6814,
      "Ġmetal": 6815,
      "Ġsocio": 6816,
      "Ġingredientes": 6817,
      "ĠfotografÃŃa": 6818,
      "-,": 6819,
      "Ġreb": 6820,
      "ieren": 6821,
      "Ġescap": 6822,
      "hua": 6823,
      "Ġaltas": 6824,
      "Ġafirm": 6825,
      "Ġdefender": 6826,
      "ĠgarantÃŃa": 6827,
      "ĠRic": 6828,
      "Ġexport": 6829,
      "Ġcapaces": 6830,
      "Ġperiodista": 6831,
      "Ġescon": 6832,
      "riel": 6833,
      "ficientes": 6834,
      "Ġvistas": 6835,
      "ĠMur": 6836,
      "uyÃ³": 6837,
      "Ġllegan": 6838,
      "Ġrecurso": 6839,
      "ĠVis": 6840,
      "Ġenfoc": 6841,
      "Ġincendi": 6842,
      "52": 6843,
      "ĠJuegos": 6844,
      "itarias": 6845,
      "Ġ)": 6846,
      "ĠAS": 6847,
      "ierras": 6848,
      "Ġbolsa": 6849,
      "Ġsof": 6850,
      "Ġlogrado": 6851,
      "Ġcuestion": 6852,
      "Ġactivo": 6853,
      "ficaz": 6854,
      "Ġreto": 6855,
      "Ġmoles": 6856,
      "ĠEntonces": 6857,
      "Ġaprovechar": 6858,
      "ĠSanto": 6859,
      "Ġfactor": 6860,
      "ĠIb": 6861,
      "Ġjuz": 6862,
      "Ġcomplejo": 6863,
      "Ġafecta": 6864,
      "ĠÃ¡l": 6865,
      "Ġnueve": 6866,
      "radas": 6867,
      "Ġcitas": 6868,
      "Ġanual": 6869,
      "Ġfren": 6870,
      "ĠGÃ³mez": 6871,
      "ĠUE": 6872,
      "uraciÃ³n": 6873,
      "ipo": 6874,
      "Ġolv": 6875,
      "ortun": 6876,
      "asas": 6877,
      "Â®": 6878,
      "ny": 6879,
      "Ġinvertir": 6880,
      "Ġtorneo": 6881,
      "ĠEjecutivo": 6882,
      "ĠLin": 6883,
      "Ġviendo": 6884,
      "Ġdesa": 6885,
      "Ġdoctor": 6886,
      "dremos": 6887,
      "Ġ<": 6888,
      "Ġeficiencia": 6889,
      "Ġdesn": 6890,
      "igos": 6891,
      "Ġmel": 6892,
      "ĠGas": 6893,
      "Ġplataformas": 6894,
      "Ġcruz": 6895,
      "ĠLE": 6896,
      "Ġlengua": 6897,
      "Ġcantante": 6898,
      "Ġpleno": 6899,
      "Ġempieza": 6900,
      "Ġdiagn": 6901,
      "Ġasegurar": 6902,
      "idal": 6903,
      "Ġcuesta": 6904,
      "ĠIns": 6905,
      "Ġpromoci": 6906,
      "Ġterra": 6907,
      "ĠMov": 6908,
      "habil": 6909,
      "ĠespÃŃritu": 6910,
      "Ġtrip": 6911,
      "Ġpromover": 6912,
      "Ġdesarrollado": 6913,
      "ĠÃīl": 6914,
      "domin": 6915,
      "ĠAlex": 6916,
      "ĠTurismo": 6917,
      "Ġ150": 6918,
      "Ġsosp": 6919,
      "Ġllena": 6920,
      "Ġ2000": 6921,
      "Ġcampos": 6922,
      "tificaciÃ³n": 6923,
      "ĠAndalucÃŃa": 6924,
      "mag": 6925,
      "Sobre": 6926,
      "ĠHistoria": 6927,
      "abora": 6928,
      "Ġculturales": 6929,
      "Ġepiso": 6930,
      "Ġanteriormente": 6931,
      "Ġanuncios": 6932,
      "Ġcrecer": 6933,
      "Hab": 6934,
      "ĠsaliÃ³": 6935,
      "Ġtum": 6936,
      "ĠPh": 6937,
      "ĠdecÃŃa": 6938,
      "Ġeficaz": 6939,
      "Ġelig": 6940,
      "ĠIP": 6941,
      "ÃŃsima": 6942,
      "ĠWar": 6943,
      "Noticias": 6944,
      "Ġenfoque": 6945,
      "Ġdefinitiva": 6946,
      "ĠFederaciÃ³n": 6947,
      "ĠPremio": 6948,
      "ĠMel": 6949,
      "Ġhosp": 6950,
      "Ġciertas": 6951,
      "Ġmira": 6952,
      "Ġintelec": 6953,
      "ĠVar": 6954,
      "Ġllamar": 6955,
      "Ġconsumidores": 6956,
      "ĠdecoraciÃ³n": 6957,
      "Ġlogra": 6958,
      "2012": 6959,
      "Ġvigil": 6960,
      "ĠDerechos": 6961,
      "Ġestrella": 6962,
      "53": 6963,
      "ĠplÃ¡stico": 6964,
      "desa": 6965,
      "Ġalcohol": 6966,
      "ĠâĨ": 6967,
      "gunas": 6968,
      "Ġvio": 6969,
      "Ġmuestran": 6970,
      "anes": 6971,
      "Ġconqu": 6972,
      "ĠCÃ³mo": 6973,
      "Ġmonitor": 6974,
      "Ġdificultades": 6975,
      "Ġsocios": 6976,
      "xil": 6977,
      "ĠcomparaciÃ³n": 6978,
      "Ġdigitales": 6979,
      "ĠpreparaciÃ³n": 6980,
      "ĠCastilla": 6981,
      "SÃŃ": 6982,
      "Ġfinalidad": 6983,
      "usos": 6984,
      "Ġcorrecto": 6985,
      "ĠdaÃ±": 6986,
      "Ġcoordin": 6987,
      "Ġwith": 6988,
      "Ġjudicial": 6989,
      "fas": 6990,
      "Ġperspectiva": 6991,
      "anc": 6992,
      "igh": 6993,
      "ĠtransmisiÃ³n": 6994,
      "ĠdÃ©cadas": 6995,
      "guen": 6996,
      "Ġquerido": 6997,
      "III": 6998,
      "Ġexitos": 6999,
      "ĠSim": 7000,
      "ĠvÃŃctima": 7001,
      "Ġestatal": 7002,
      "mol": 7003,
      "Ġgig": 7004,
      "Ġdecidido": 7005,
      "DF": 7006,
      "Ġactiva": 7007,
      "cindi": 7008,
      "Ġamist": 7009,
      "ĠMayo": 7010,
      "Ġhojas": 7011,
      "Ġgobiernos": 7012,
      "ĠBos": 7013,
      "Ġign": 7014,
      "Ġ07": 7015,
      "Ġventana": 7016,
      "duardo": 7017,
      "Ã³rmula": 7018,
      "entaria": 7019,
      "Ġdur": 7020,
      "Ã³mica": 7021,
      "Ġcuel": 7022,
      "ertura": 7023,
      "Ã³nico": 7024,
      "imnas": 7025,
      "Ġincluido": 7026,
      "Ġtradicionales": 7027,
      "ĠpidiÃ³": 7028,
      "ĠHernÃ¡ndez": 7029,
      "ION": 7030,
      "Ã©ut": 7031,
      "ĠFamil": 7032,
      "ÃŃfico": 7033,
      "Ġcorrecta": 7034,
      "tenimiento": 7035,
      "Ġpeligros": 7036,
      "ezas": 7037,
      "itando": 7038,
      "ĠrepresentaciÃ³n": 7039,
      "CU": 7040,
      "Ġcuestiones": 7041,
      "Ġdispone": 7042,
      "ĠmÃ¡quinas": 7043,
      "ĠDos": 7044,
      "Ġox": 7045,
      "DI": 7046,
      "elos": 7047,
      "ĠInformaciÃ³n": 7048,
      "americano": 7049,
      "Ġdejo": 7050,
      "Ġcanales": 7051,
      "ĠportÃ¡": 7052,
      "drÃŃa": 7053,
      "ĠOro": 7054,
      "ĠclÃ¡sico": 7055,
      "tencias": 7056,
      "ĠSegun": 7057,
      "Ġevidente": 7058,
      "Ġinvestigadores": 7059,
      "ĠempezÃ³": 7060,
      "Ġbases": 7061,
      "ĠcrÃŃtica": 7062,
      "Ġtranquil": 7063,
      "Ġingreso": 7064,
      "plic": 7065,
      "Ġmedicamentos": 7066,
      "Ġesque": 7067,
      "ĠexpresÃ³": 7068,
      "Ġ38": 7069,
      "quilla": 7070,
      "Ġconvocatoria": 7071,
      "Ġgira": 7072,
      "ĠBlog": 7073,
      "ĠVI": 7074,
      "Ġproporcionar": 7075,
      "Ġvoto": 7076,
      "Ġpared": 7077,
      "Ã¡gina": 7078,
      "Ġencab": 7079,
      "ĠTea": 7080,
      "Ġambiental": 7081,
      "Ġactuar": 7082,
      "Ġdesign": 7083,
      "tadores": 7084,
      "ĠJim": 7085,
      "Ġretro": 7086,
      "ambre": 7087,
      "tube": 7088,
      "Ġgeneralmente": 7089,
      "Ġagradable": 7090,
      "Ġ48": 7091,
      "Home": 7092,
      "ds": 7093,
      "olate": 7094,
      "Ġpreparar": 7095,
      "ĠcÃ¡r": 7096,
      "Ã³d": 7097,
      "Ġbl": 7098,
      "MS": 7099,
      "timos": 7100,
      "alizÃ³": 7101,
      "ucho": 7102,
      "ĠÃģlvar": 7103,
      "irmar": 7104,
      "Ġreglas": 7105,
      "Ġcifra": 7106,
      "Ġdejando": 7107,
      "bla": 7108,
      "Ġmanual": 7109,
      "ĠNegro": 7110,
      "Ġavanz": 7111,
      "Ġdiscu": 7112,
      "Ġmover": 7113,
      "Foto": 7114,
      "Ġempresarial": 7115,
      "iese": 7116,
      "Ġalternativas": 7117,
      "Ġconsultar": 7118,
      "Ġabogado": 7119,
      "utas": 7120,
      "ĠStar": 7121,
      "sin": 7122,
      "ĠvÃ¡l": 7123,
      "Ġoperativo": 7124,
      "Ġnavegador": 7125,
      "Ġic": 7126,
      "Ġaisl": 7127,
      "arago": 7128,
      "Ġmac": 7129,
      "ĠteorÃŃa": 7130,
      "ĠTiene": 7131,
      "Cre": 7132,
      "ensiones": 7133,
      "ĠcomisiÃ³n": 7134,
      "Ġinteligente": 7135,
      "Ġtriunfo": 7136,
      "PO": 7137,
      "Ġaceptar": 7138,
      "quir": 7139,
      "ĠPSOE": 7140,
      "Ġdecidir": 7141,
      "Ġanuncio": 7142,
      "Ġina": 7143,
      "osofÃŃa": 7144,
      "Ġcocin": 7145,
      "Ġtono": 7146,
      "Ġpot": 7147,
      "Ġaconte": 7148,
      "Ġfinanciera": 7149,
      "Ġfantas": 7150,
      "ĠEconomÃŃa": 7151,
      "Ġbatalla": 7152,
      "Ġhabil": 7153,
      "Ġrealizada": 7154,
      "ĠAtl": 7155,
      "Ġejercicios": 7156,
      "Ġsuger": 7157,
      "ĠMA": 7158,
      "box": 7159,
      "Ġquedado": 7160,
      "tral": 7161,
      "voz": 7162,
      "Ġdescanso": 7163,
      "Ġlicencia": 7164,
      "Ġ400": 7165,
      "Ġaceler": 7166,
      "Ġindis": 7167,
      "ĠDirector": 7168,
      "Ġinversiones": 7169,
      "Ġfechas": 7170,
      "ĠfabricaciÃ³n": 7171,
      "Ġcotid": 7172,
      "Ġvay": 7173,
      "ĠUno": 7174,
      "ĠVi": 7175,
      "Ġprevia": 7176,
      "Ġrestric": 7177,
      "ĠPopular": 7178,
      "imp": 7179,
      "Ġvuelo": 7180,
      "!!!!": 7181,
      "ifornia": 7182,
      "ĠcombinaciÃ³n": 7183,
      "Ġinfraestructura": 7184,
      "Ġama": 7185,
      "ĠAlejandro": 7186,
      "Ġavance": 7187,
      "Ġantigua": 7188,
      "Ġembarazo": 7189,
      "Ġmexicano": 7190,
      "ME": 7191,
      "Ob": 7192,
      "ĠPues": 7193,
      "Ġhago": 7194,
      "Ġordenador": 7195,
      "Ã¡rez": 7196,
      "Ġlujo": 7197,
      "POR": 7198,
      "Ġcreer": 7199,
      "ĠactualizaciÃ³n": 7200,
      "ĠParÃŃs": 7201,
      "Ġefic": 7202,
      "Ġporcentaje": 7203,
      "Ġtengas": 7204,
      "ĠconfiguraciÃ³n": 7205,
      "medi": 7206,
      "Ġcruc": 7207,
      "Ġtendencias": 7208,
      "ĠcÃ©lulas": 7209,
      "ĠMario": 7210,
      "terrÃ¡n": 7211,
      "Ġcerebro": 7212,
      "jera": 7213,
      "Ġadquis": 7214,
      "ĠtradiciÃ³n": 7215,
      "ĠprÃ³": 7216,
      "Ġminerales": 7217,
      "ĠME": 7218,
      "ibe": 7219,
      "ĠHD": 7220,
      "Ġ37": 7221,
      "ĠJapÃ³n": 7222,
      "Ġmunicipales": 7223,
      "BI": 7224,
      "Ġuniversidad": 7225,
      "oler": 7226,
      "ĠganÃ³": 7227,
      "ĠIsrael": 7228,
      "ĠtÃŃtulos": 7229,
      "tible": 7230,
      "Ġapoyar": 7231,
      "ĠOnline": 7232,
      "dicas": 7233,
      "ĠInform": 7234,
      "cargar": 7235,
      "idel": 7236,
      "pera": 7237,
      "zca": 7238,
      "Ġcifras": 7239,
      "Ġcuadr": 7240,
      "ĠsalÃ³n": 7241,
      "ips": 7242,
      "ĠPuedes": 7243,
      "ĠdarÃ¡": 7244,
      "ser": 7245,
      "Ġconoz": 7246,
      "Ġagencia": 7247,
      "ĠInst": 7248,
      "risa": 7249,
      "Ġvs": 7250,
      "ĠLondres": 7251,
      "Ġcuadro": 7252,
      "amina": 7253,
      "tod": 7254,
      "umbre": 7255,
      "Ġfar": 7256,
      "ĠAra": 7257,
      "Ġgastron": 7258,
      "Ġrostro": 7259,
      "Ġconsolid": 7260,
      "Ġeficiente": 7261,
      "tornos": 7262,
      "ĠEnerg": 7263,
      "Ġentrev": 7264,
      "ĠHasta": 7265,
      "iversario": 7266,
      "Asimismo": 7267,
      "Ġvende": 7268,
      "Ġdocentes": 7269,
      "Ġcolectivo": 7270,
      "isco": 7271,
      "ificados": 7272,
      "Ġrefor": 7273,
      "ĠSÃŃ": 7274,
      "Ġobservar": 7275,
      "sh": 7276,
      "teral": 7277,
      "Ġconviv": 7278,
      "ĠMir": 7279,
      "ariamente": 7280,
      "Ġafron": 7281,
      "ĠescribiÃ³": 7282,
      "Tu": 7283,
      "Ġinmediato": 7284,
      "Ġhomenaje": 7285,
      "Ġconferencia": 7286,
      "Ġreemp": 7287,
      "raciones": 7288,
      "derÃŃa": 7289,
      "Ġline": 7290,
      "Ġhorario": 7291,
      "Can": 7292,
      "Ser": 7293,
      "Ġmental": 7294,
      "Ã¡nea": 7295,
      "ĠDES": 7296,
      "hop": 7297,
      "Ġaconse": 7298,
      "ete": 7299,
      "ĠIl": 7300,
      "Ġganado": 7301,
      "Ġmuertos": 7302,
      "Ġmapa": 7303,
      "ĠAgr": 7304,
      "Ġcurios": 7305,
      "Ġoficinas": 7306,
      "esiÃ³n": 7307,
      "ĠprisiÃ³n": 7308,
      "Ġtelevis": 7309,
      "ĠDom": 7310,
      "Ġjugue": 7311,
      "ĠdemocrÃ¡": 7312,
      "ĠEcuador": 7313,
      "Ġaquello": 7314,
      "Ġrecop": 7315,
      "lÃŃn": 7316,
      "Ġtrayec": 7317,
      "itivamente": 7318,
      "ĠClas": 7319,
      "ĠcomentÃ³": 7320,
      "51": 7321,
      "comun": 7322,
      "Ġimpul": 7323,
      "Ġacercar": 7324,
      "Ġdesay": 7325,
      "ĠSelec": 7326,
      "Ġcolocar": 7327,
      "Ġmet": 7328,
      "Ġsentencia": 7329,
      "2013": 7330,
      "Ġreclam": 7331,
      "ĠTO": 7332,
      "Ġseries": 7333,
      "Ġsorpresa": 7334,
      "ĠPA": 7335,
      "Ġsusp": 7336,
      "Ġalm": 7337,
      "Ã©ro": 7338,
      "ergio": 7339,
      "ĠestarÃ¡n": 7340,
      "ĠtendrÃ¡s": 7341,
      "Ġreuniones": 7342,
      "ĠPM": 7343,
      "inio": 7344,
      "ĠOf": 7345,
      "Ġdivid": 7346,
      "Ġestuv": 7347,
      "Ã±ez": 7348,
      "ĠDepor": 7349,
      "tecas": 7350,
      "ĠeconÃ³micas": 7351,
      "ĠprÃ©stamo": 7352,
      "Ġregiones": 7353,
      "Ġdormir": 7354,
      "ning": 7355,
      "apor": 7356,
      "Ġaparecen": 7357,
      "ezca": 7358,
      "Ġpiscina": 7359,
      "ventud": 7360,
      "lon": 7361,
      "ĠconvirtiÃ³": 7362,
      "rillo": 7363,
      "Ġcelular": 7364,
      "nidad": 7365,
      "Ġech": 7366,
      "Ġcomprome": 7367,
      "itco": 7368,
      "Ġrefug": 7369,
      "Ġseguidores": 7370,
      "Ġforman": 7371,
      "Ġinteligencia": 7372,
      "ĠBra": 7373,
      "Ġintento": 7374,
      "Ġpade": 7375,
      "ĠPaÃŃs": 7376,
      "Ġemociones": 7377,
      "cada": 7378,
      "Ġperu": 7379,
      "ĠÃ¡lbum": 7380,
      "ĠalegrÃŃa": 7381,
      "Ġbr": 7382,
      "ĠlÃŃmites": 7383,
      "Ġhierro": 7384,
      "Ġsom": 7385,
      "iver": 7386,
      "Ġposicion": 7387,
      "ĠMejor": 7388,
      "Ġtabla": 7389,
      "Ġtantas": 7390,
      "ĠelÃ©ctrico": 7391,
      "ruguay": 7392,
      "Ġliteratura": 7393,
      "Mientras": 7394,
      "Ġestablecido": 7395,
      "Ġconcierto": 7396,
      "Ġentrenador": 7397,
      "Ġcolum": 7398,
      "Ġpartida": 7399,
      "Ġexactamente": 7400,
      "BL": 7401,
      "Ġgratuito": 7402,
      "Ġ33": 7403,
      "bus": 7404,
      "ĠEstÃ¡": 7405,
      "Ġcandidatos": 7406,
      "iÃ±o": 7407,
      "ĠSeb": 7408,
      "mpla": 7409,
      "ĠÃļ": 7410,
      "Ġinteresantes": 7411,
      "ĠCiencias": 7412,
      "dy": 7413,
      "drÃ¡n": 7414,
      "Ġtelef": 7415,
      "Ġenfrentar": 7416,
      "ĠWill": 7417,
      "Ġcompren": 7418,
      "TC": 7419,
      "Ġfiel": 7420,
      "ĠciudadanÃŃa": 7421,
      "?.": 7422,
      "ĠcontÃ³": 7423,
      "Ġayudan": 7424,
      "ĠCOM": 7425,
      "ĠTrabaj": 7426,
      "Estos": 7427,
      "Ġsaludable": 7428,
      "Sus": 7429,
      "2014": 7430,
      "ĠCult": 7431,
      "ĠAlcal": 7432,
      "Ġproductores": 7433,
      "Â¡Â¡": 7434,
      "lear": 7435,
      "ĠDI": 7436,
      "Ġsolar": 7437,
      "Ġgoles": 7438,
      "fecto": 7439,
      "gica": 7440,
      "Ġfrac": 7441,
      "Ġplena": 7442,
      "ĠGestiÃ³n": 7443,
      "Ġsignificado": 7444,
      "Ġabsor": 7445,
      "Ġidioma": 7446,
      "ĠClar": 7447,
      "Ġacostumb": 7448,
      "Ġhip": 7449,
      "Ġfederal": 7450,
      "Ġespalda": 7451,
      "Ġtable": 7452,
      "Ġexhib": 7453,
      "Ġtrabajan": 7454,
      "ĠSiempre": 7455,
      "Ġcarreras": 7456,
      "Ġemocional": 7457,
      "ĠRafael": 7458,
      "He": 7459,
      "quie": 7460,
      "ĠsÃŃmb": 7461,
      "bos": 7462,
      "Ġsucede": 7463,
      "Ġit": 7464,
      "Luego": 7465,
      "ĠrevisiÃ³n": 7466,
      "Ġaparecer": 7467,
      "ĠMercado": 7468,
      "Ġacredi": 7469,
      "Ġmilitares": 7470,
      "Ġcolegio": 7471,
      "Ġsilencio": 7472,
      "aque": 7473,
      "Ġreti": 7474,
      "ĠindÃŃgen": 7475,
      "ĠiPhone": 7476,
      "ĠCine": 7477,
      "aragoza": 7478,
      "ĠLima": 7479,
      "Ġcorrer": 7480,
      "ets": 7481,
      "ĠAsamblea": 7482,
      "cedentes": 7483,
      "Ġdescrip": 7484,
      "Ġnovedades": 7485,
      "Ġcientos": 7486,
      "ĠCH": 7487,
      "ak": 7488,
      "Ġresca": 7489,
      "Ġinfluencia": 7490,
      "Au": 7491,
      "ĠsabÃŃa": 7492,
      "ĠenseÃ±anza": 7493,
      "ĠWal": 7494,
      "Ġintegrantes": 7495,
      "lay": 7496,
      "quito": 7497,
      "ĠcientÃŃficos": 7498,
      "Ġaeropuerto": 7499,
      "trada": 7500,
      "Ġdominio": 7501,
      "Ġpintura": 7502,
      "atamente": 7503,
      "Ġacabar": 7504,
      "Ġtribu": 7505,
      "Ġlaborales": 7506,
      "Ġregreso": 7507,
      "ileg": 7508,
      "Ġbrindar": 7509,
      "Ġpasaj": 7510,
      "Ġ00": 7511,
      "ĠCel": 7512,
      "Esc": 7513,
      "Ġpersonalidad": 7514,
      "Ġaj": 7515,
      "ĠComitÃ©": 7516,
      "ionado": 7517,
      "Cada": 7518,
      "ĠHace": 7519,
      "Ġhiper": 7520,
      "PN": 7521,
      "Ġdir": 7522,
      "Ġprevenir": 7523,
      "ĠautomÃ³vil": 7524,
      "Ġconfig": 7525,
      "Ġquiera": 7526,
      "Ġasesina": 7527,
      "ĠfotografÃŃas": 7528,
      "Ġbasado": 7529,
      "ĠâĨĴ": 7530,
      "Ġexces": 7531,
      "Ġconseguido": 7532,
      "Ġlibres": 7533,
      "Ġpuntu": 7534,
      "ĠTeatro": 7535,
      "77": 7536,
      "fal": 7537,
      "Ġconsiderado": 7538,
      "Ġestric": 7539,
      "dimos": 7540,
      "Ġrazon": 7541,
      "Ġestrech": 7542,
      "atch": 7543,
      "Ġplano": 7544,
      "Ġcamis": 7545,
      "ĠcÃ¡maras": 7546,
      "ĠaÃ©": 7547,
      "ĠNaciÃ³n": 7548,
      "Ġinfin": 7549,
      "terÃŃas": 7550,
      "Ġfracas": 7551,
      "Ġ06": 7552,
      "Ġmult": 7553,
      "Ġ;": 7554,
      "ĠAsimismo": 7555,
      "Ġestablecimiento": 7556,
      "ijo": 7557,
      "ĠSobre": 7558,
      "Ġviento": 7559,
      "ĠCAR": 7560,
      "Ġdesh": 7561,
      "TAS": 7562,
      "eco": 7563,
      "ĠIng": 7564,
      "95": 7565,
      "Ġmascul": 7566,
      "Ġempresarios": 7567,
      "Ġrepresentante": 7568,
      "Ġdefinir": 7569,
      "ĠBlack": 7570,
      "Ġmalo": 7571,
      "abilidades": 7572,
      "Ġrecomienda": 7573,
      "Fac": 7574,
      "icen": 7575,
      "Ġcorta": 7576,
      "Ġcubrir": 7577,
      "Ġgrad": 7578,
      "Ġeconom": 7579,
      "ĠfÃ¡br": 7580,
      "ĠFiscalÃŃa": 7581,
      "Ġdil": 7582,
      "Ġmetro": 7583,
      "Ġtrim": 7584,
      "Ġpropon": 7585,
      "ĠUnidad": 7586,
      "Ġtonel": 7587,
      "Ġcerv": 7588,
      "ĠintegraciÃ³n": 7589,
      "Ġgraves": 7590,
      "Cal": 7591,
      "Ġaccesorios": 7592,
      "Ġcomplicado": 7593,
      "Ġcrip": 7594,
      "Ġvest": 7595,
      "ĠrealizarÃ¡": 7596,
      "letas": 7597,
      "Ġpagos": 7598,
      "ocas": 7599,
      "Ġlegales": 7600,
      "ĠAf": 7601,
      "ieres": 7602,
      "ĠOrganizaciÃ³n": 7603,
      "Ġorganizado": 7604,
      "arlos": 7605,
      "icado": 7606,
      "ĠtransformaciÃ³n": 7607,
      "ĠSupre": 7608,
      "ĠhÃŃ": 7609,
      "orado": 7610,
      "Ġllegaron": 7611,
      "Ġminist": 7612,
      "Ġimprescindi": 7613,
      "Ġfundamentales": 7614,
      "rando": 7615,
      "Ġ75": 7616,
      "Ġpatrimonio": 7617,
      "Ġzapatos": 7618,
      "Fu": 7619,
      "ÃŃmp": 7620,
      "Ġafil": 7621,
      "Ġtalleres": 7622,
      "Ġfisc": 7623,
      "ĠBern": 7624,
      "Ġelegido": 7625,
      "Ġnacimiento": 7626,
      "Ġgasto": 7627,
      "ĠMÃ¡laga": 7628,
      "Ġdeleg": 7629,
      "Ġtec": 7630,
      "Ãºr": 7631,
      "Ġtarjetas": 7632,
      "ĠlÃŃmite": 7633,
      "ĠConst": 7634,
      "Ġcolon": 7635,
      "Ġcoches": 7636,
      "ĠMicrosoft": 7637,
      "Pues": 7638,
      "ĠDar": 7639,
      "Ġpunta": 7640,
      "Ġcrema": 7641,
      "ĠMetro": 7642,
      "Ġ2005": 7643,
      "Ġenamor": 7644,
      "Ġpronunci": 7645,
      "Ġversiones": 7646,
      "Ġrell": 7647,
      "Ġdiri": 7648,
      "iosos": 7649,
      "app": 7650,
      "ĠespectÃ¡culo": 7651,
      "ĠOfici": 7652,
      "cidente": 7653,
      "sic": 7654,
      "otÃ³": 7655,
      "Ġgenial": 7656,
      "tle": 7657,
      "ĠGob": 7658,
      "endario": 7659,
      "Ġanticip": 7660,
      "ĠArte": 7661,
      "Ġejemplos": 7662,
      "Ġpista": 7663,
      "Ġclaramente": 7664,
      "Ġchico": 7665,
      "ĠdefiniciÃ³n": 7666,
      "Ġboda": 7667,
      "rate": 7668,
      "Ġpoca": 7669,
      "erio": 7670,
      "Ġcomprob": 7671,
      "Ġprevisto": 7672,
      "Ġdirigido": 7673,
      "Ġblanca": 7674,
      "Ġparticulares": 7675,
      "Ġfrase": 7676,
      "Ġsug": 7677,
      "Ġaudiencia": 7678,
      "Ġtextos": 7679,
      "Ġsome": 7680,
      "App": 7681,
      "Ġpermita": 7682,
      "ĠEqui": 7683,
      "Ġguer": 7684,
      "Estas": 7685,
      "Ġtalento": 7686,
      "ĠColegio": 7687,
      "VE": 7688,
      "ĠPin": 7689,
      "Estamos": 7690,
      "Ġconceptos": 7691,
      "inales": 7692,
      "Ġactriz": 7693,
      "ajaj": 7694,
      "itat": 7695,
      "ĠLeer": 7696,
      "Ay": 7697,
      "Ġhumor": 7698,
      "Ġequilibrio": 7699,
      "Ġact": 7700,
      "ĠCalifornia": 7701,
      "Ġmirar": 7702,
      "Ġrecomendaciones": 7703,
      "Ġdedicado": 7704,
      "Ã¡ticamente": 7705,
      "ture": 7706,
      "Ġesperando": 7707,
      "Ġretras": 7708,
      "ĠdiseÃ±ado": 7709,
      "ÃŃfic": 7710,
      "ĠestrÃ©s": 7711,
      "ĠconcentraciÃ³n": 7712,
      "Ġsalvo": 7713,
      "Ġfa": 7714,
      "ĠcuÃ¡les": 7715,
      "ĠPR": 7716,
      "Ġetique": 7717,
      "ĠclasificaciÃ³n": 7718,
      "Ġescritor": 7719,
      "Ġafici": 7720,
      "Ha": 7721,
      "Ġlum": 7722,
      "ĠTab": 7723,
      "Ġaspir": 7724,
      "ÃŃnea": 7725,
      "ĠterminÃ³": 7726,
      "Ġaventura": 7727,
      "Ġconductor": 7728,
      "jÃ³": 7729,
      "rilla": 7730,
      "nal": 7731,
      "Ġabund": 7732,
      "Ġdemostrar": 7733,
      "ĠnaciÃ³": 7734,
      "ĠprÃ©stamos": 7735,
      "vez": 7736,
      "ĠCir": 7737,
      "CuÃ¡n": 7738,
      "Ġcriterios": 7739,
      "ĠProtecciÃ³n": 7740,
      "QuiÃ©n": 7741,
      "ĠRosa": 7742,
      "Ġdispuesto": 7743,
      "Ġcapa": 7744,
      "ĠcompaÃ±ero": 7745,
      "Ġjoy": 7746,
      "Ġposteriormente": 7747,
      "esÃŃa": 7748,
      "Ġtest": 7749,
      "ĠelaboraciÃ³n": 7750,
      "Ġdivert": 7751,
      "BRE": 7752,
      "Jos": 7753,
      "lando": 7754,
      "ĠAudi": 7755,
      "Ġeducativo": 7756,
      "rama": 7757,
      "Ġportal": 7758,
      "venciones": 7759,
      "Ġcit": 7760,
      "Ġdescarga": 7761,
      "Ġedificios": 7762,
      "cula": 7763,
      "ĠjamÃ¡s": 7764,
      "ĠPRI": 7765,
      "Ġcontratos": 7766,
      "ARIO": 7767,
      "ĠHumanos": 7768,
      "rimir": 7769,
      "ings": 7770,
      "Ġigualdad": 7771,
      "ĠSER": 7772,
      "ĠPortu": 7773,
      "boles": 7774,
      "Ġcero": 7775,
      "Ġaliment": 7776,
      "ĠcategorÃŃas": 7777,
      "Ġacondi": 7778,
      "Ġdelitos": 7779,
      "ĠJef": 7780,
      "TES": 7781,
      "ĠDu": 7782,
      "ĠEduardo": 7783,
      "Ġpanor": 7784,
      "ĠTorre": 7785,
      "Ġ02": 7786,
      "Ġseguramente": 7787,
      "Ġdu": 7788,
      "Ġespecific": 7789,
      "Ġfinanciero": 7790,
      "Ġfabricante": 7791,
      "ĠIII": 7792,
      "Am": 7793,
      "cidas": 7794,
      "ĠGlo": 7795,
      "ĠControl": 7796,
      "Ġpodremos": 7797,
      "Ġflujo": 7798,
      "Ġmaestro": 7799,
      "Ġmanip": 7800,
      "terra": 7801,
      "ĠmÃ©dica": 7802,
      "Ġdiciendo": 7803,
      "ĠbÃ¡sicos": 7804,
      "Ġpaquete": 7805,
      "Ġtratamientos": 7806,
      "sted": 7807,
      "Ġprivileg": 7808,
      "olÃ¡s": 7809,
      "Ã³nimo": 7810,
      "Ã©ticos": 7811,
      "Ġcuento": 7812,
      "ĠTel": 7813,
      "ĠAgencia": 7814,
      "ĠFal": 7815,
      "Ġespecialistas": 7816,
      "Ġparecen": 7817,
      "paÃ±as": 7818,
      "Ġrein": 7819,
      "Ġgrados": 7820,
      "Ġdeba": 7821,
      "recciÃ³n": 7822,
      "ragÃ³n": 7823,
      "ĠSuperior": 7824,
      "Ġadolescentes": 7825,
      "ĠRespon": 7826,
      "amas": 7827,
      "ĠInte": 7828,
      "Ġcontactos": 7829,
      "mala": 7830,
      "ĠCuer": 7831,
      "Ġahorro": 7832,
      "ĠEEUU": 7833,
      "Ġvicepres": 7834,
      "ume": 7835,
      "PU": 7836,
      "Ġlament": 7837,
      "Ġpropone": 7838,
      "tn": 7839,
      "Ġsuspens": 7840,
      "ĠpasiÃ³n": 7841,
      "Ġ34": 7842,
      "66": 7843,
      "Ġinstrumentos": 7844,
      "esos": 7845,
      "ĠPoder": 7846,
      "enz": 7847,
      "ĠLan": 7848,
      "Ġneu": 7849,
      "Ġrecientes": 7850,
      "TAN": 7851,
      "ficas": 7852,
      "Ġimpar": 7853,
      "Ġcargos": 7854,
      "ĠparecÃŃa": 7855,
      "ĠutilizaciÃ³n": 7856,
      "Ġrelaj": 7857,
      "Ġparcial": 7858,
      "Ġcritic": 7859,
      "Ġguitar": 7860,
      "lle": 7861,
      "arlas": 7862,
      "ĠUruguay": 7863,
      "Ġinformes": 7864,
      "ise": 7865,
      "ĠAca": 7866,
      "Ġausencia": 7867,
      "hÃŃ": 7868,
      "ĠÐ": 7869,
      "Ġmeter": 7870,
      "Ġpremi": 7871,
      "Ã¡ndole": 7872,
      "PER": 7873,
      "Ġatre": 7874,
      "ĠKar": 7875,
      "ĠUNA": 7876,
      "Ġhumanidad": 7877,
      "IX": 7878,
      "Ġcorrectamente": 7879,
      "Ġpudiera": 7880,
      "ĠcrÃŃticas": 7881,
      "âĸ": 7882,
      "ibil": 7883,
      "orro": 7884,
      "utados": 7885,
      "Ġmuerto": 7886,
      "ĠdiagnÃ³stico": 7887,
      "izaciones": 7888,
      "Ġaportar": 7889,
      "ĠaviÃ³n": 7890,
      "ĠprogramaciÃ³n": 7891,
      "Ġquitar": 7892,
      "ĠIngenier": 7893,
      "inando": 7894,
      "Ġdirectora": 7895,
      "Ġahorrar": 7896,
      "Ġconsentimiento": 7897,
      "Ġinaug": 7898,
      "ss": 7899,
      "Ġacuerdos": 7900,
      "Ġinvestigaciones": 7901,
      "Ġamiga": 7902,
      "ĠPÃºblico": 7903,
      "Ġcobertura": 7904,
      "tricidad": 7905,
      "Ġrechaz": 7906,
      "Ġrelacionado": 7907,
      "Sab": 7908,
      "Ġtrato": 7909,
      "Ġplatos": 7910,
      "ĠBolivia": 7911,
      "edades": 7912,
      "Ġmasco": 7913,
      "Ġllamadas": 7914,
      "Ġlisto": 7915,
      "ĠapariciÃ³n": 7916,
      "Ġafectados": 7917,
      "rigo": 7918,
      "dados": 7919,
      "Ġinteresa": 7920,
      "Ġprostitutas": 7921,
      "Bar": 7922,
      "ĠcÃ³modo": 7923,
      "ĠEspaÃ±ola": 7924,
      "Ġrig": 7925,
      "Ġuniverso": 7926,
      "incu": 7927,
      "urado": 7928,
      "ĠCastro": 7929,
      "Ġlong": 7930,
      "inadas": 7931,
      "cÃ³n": 7932,
      "gotÃ¡": 7933,
      "Ġsexuales": 7934,
      "Ġadicionales": 7935,
      "ĠBlanco": 7936,
      "diciÃ³n": 7937,
      "Ġpuls": 7938,
      "BO": 7939,
      "Ġarquitectura": 7940,
      "ĠJe": 7941,
      "Ġimplan": 7942,
      "ĠTan": 7943,
      "uevos": 7944,
      "ĠestÃ¡ndar": 7945,
      "oluciones": 7946,
      "Ġllegue": 7947,
      "Ġrival": 7948,
      "Ġchocolate": 7949,
      "Ġdejan": 7950,
      "amsung": 7951,
      "Ġaumenta": 7952,
      "Ġbols": 7953,
      "Ġexpectativas": 7954,
      "Ġdije": 7955,
      "ĠVan": 7956,
      "ĠAlm": 7957,
      "ĠpublicÃ³": 7958,
      "Ġmovilidad": 7959,
      "97": 7960,
      "unciÃ³n": 7961,
      "ĠIr": 7962,
      "Ġconsist": 7963,
      "ĠVia": 7964,
      "Ġhagan": 7965,
      "Ġdependiendo": 7966,
      "Ġnave": 7967,
      "gando": 7968,
      "Ġsecreto": 7969,
      "98": 7970,
      "Reg": 7971,
      "Ġresuel": 7972,
      "Ġaver": 7973,
      "ĠCe": 7974,
      "Ġincom": 7975,
      "TEN": 7976,
      "trop": 7977,
      "Ġsentimientos": 7978,
      "INA": 7979,
      "Uno": 7980,
      "xx": 7981,
      "ries": 7982,
      "ĠAlgunos": 7983,
      "ĠAnti": 7984,
      "ADOS": 7985,
      "ĠSebasti": 7986,
      "iÃ±": 7987,
      "ĠDefensa": 7988,
      "onados": 7989,
      "Ġtraer": 7990,
      "ĠvÃŃdeos": 7991,
      "Ġsesiones": 7992,
      "Ġcercano": 7993,
      "ĠsÃº": 7994,
      "arle": 7995,
      "rial": 7996,
      "media": 7997,
      "LAN": 7998,
      "lie": 7999,
      "IDA": 8000,
      "Cas": 8001,
      "NE": 8002,
      "resiÃ³n": 8003,
      "QUE": 8004,
      "leta": 8005,
      "Ġurban": 8006,
      "Ġpresidenta": 8007,
      "Ġcomodidad": 8008,
      "Ġunif": 8009,
      "Ġtrayectoria": 8010,
      "Ġtermina": 8011,
      "Ġcabe": 8012,
      "Ġhorizon": 8013,
      "dote": 8014,
      "ĠsueÃ±os": 8015,
      "ĠimpresiÃ³n": 8016,
      "Ġconsejo": 8017,
      "Ġdeportivo": 8018,
      "Ġamenaza": 8019,
      "Ġfamoso": 8020,
      "AquÃŃ": 8021,
      "Ġencontraba": 8022,
      "Ġpac": 8023,
      "Ġsh": 8024,
      "rana": 8025,
      "Ġanaliz": 8026,
      "ĠPodemos": 8027,
      "Ġdormitor": 8028,
      "Ġintercambio": 8029,
      "Ġlatino": 8030,
      "Ġsobreviv": 8031,
      "geno": 8032,
      "ĠGranada": 8033,
      "ĠnavegaciÃ³n": 8034,
      "Ġojo": 8035,
      "Ġcompet": 8036,
      "ĠCarmen": 8037,
      "Ġbotel": 8038,
      "Ġnormativa": 8039,
      "ĠacompaÃ±ado": 8040,
      "IENTO": 8041,
      "Ġagregar": 8042,
      "Ġcapacidades": 8043,
      "ath": 8044,
      "Ġprestamos": 8045,
      "ĠpreocupaciÃ³n": 8046,
      "ĠfenÃ³meno": 8047,
      "rarse": 8048,
      "olut": 8049,
      "Ġplato": 8050,
      "Ġpobreza": 8051,
      "ugÃŃa": 8052,
      "ĠcrÃ©ditos": 8053,
      "Ġtestimon": 8054,
      "Ġprepara": 8055,
      "ments": 8056,
      "rida": 8057,
      "Ġconces": 8058,
      "Ġapartam": 8059,
      "Ġcartas": 8060,
      "Ġna": 8061,
      "Ġvid": 8062,
      "dras": 8063,
      "Ġsostenible": 8064,
      "Lu": 8065,
      "eng": 8066,
      "ĠCreo": 8067,
      "Ġlesiones": 8068,
      "Ġpublici": 8069,
      "Ġemit": 8070,
      "Ġconfi": 8071,
      "trÃ³leo": 8072,
      "posiciones": 8073,
      "Ġvuelto": 8074,
      "Ġestructur": 8075,
      "Ġdiferenci": 8076,
      "Ġarre": 8077,
      "Ġchat": 8078,
      "Ġvenir": 8079,
      "gam": 8080,
      "ĠdiseÃ±os": 8081,
      "Ġcomprobar": 8082,
      "ĠLic": 8083,
      "Ġsujeto": 8084,
      "denas": 8085,
      "Ġestudiante": 8086,
      "ĠencontrarÃ¡s": 8087,
      "Ġcicl": 8088,
      "ĠmanifestÃ³": 8089,
      "Tube": 8090,
      "cop": 8091,
      "Ġreloj": 8092,
      "ĠtensiÃ³n": 8093,
      "Ġmaneras": 8094,
      "ulada": 8095,
      "Ġprevio": 8096,
      "ĠRicardo": 8097,
      "2022": 8098,
      "razgo": 8099,
      "omba": 8100,
      "ĠcÃ¡rcel": 8101,
      "ĠQuer": 8102,
      "ward": 8103,
      "Ġactuaciones": 8104,
      "Ġlluvia": 8105,
      "Ġconocidos": 8106,
      "Ġcuidados": 8107,
      "Ġrato": 8108,
      "ashington": 8109,
      "Ġarras": 8110,
      "Ġfabricantes": 8111,
      "Ġfrases": 8112,
      "Ġcuerpos": 8113,
      "ĠLes": 8114,
      "Ġmedicina": 8115,
      "Del": 8116,
      "ĠPublic": 8117,
      "Ġtejido": 8118,
      "Ġcapit": 8119,
      "Ġfranqu": 8120,
      "ĠPrimera": 8121,
      "ZA": 8122,
      "Ġtierras": 8123,
      "Ġverd": 8124,
      "Ġconvenio": 8125,
      "tidos": 8126,
      "2011": 8127,
      "Ġcuello": 8128,
      "ence": 8129,
      "Ġrique": 8130,
      "Ġpodamos": 8131,
      "ĠIndia": 8132,
      "ĠRio": 8133,
      "Ġmerece": 8134,
      "Ġdocente": 8135,
      "COM": 8136,
      "Ġclaves": 8137,
      "iÃ©": 8138,
      "ĠSep": 8139,
      "olutamente": 8140,
      "NA": 8141,
      "Ġinquie": 8142,
      "Ġplane": 8143,
      "Ġcontempor": 8144,
      "ganos": 8145,
      "Ġmercan": 8146,
      "oras": 8147,
      "Ġtuve": 8148,
      "Ġrealizando": 8149,
      "Ã³rico": 8150,
      "Ġdescuentos": 8151,
      "Val": 8152,
      "Ġpasan": 8153,
      "Ġpreparado": 8154,
      "Ġhig": 8155,
      "Ġsituado": 8156,
      "Ġparecido": 8157,
      "Ġestancia": 8158,
      "ĠEncuent": 8159,
      "ĠquizÃ¡": 8160,
      "ĠcapÃŃtulo": 8161,
      "ĠMexic": 8162,
      "Ġviejo": 8163,
      "cm": 8164,
      "alizaciones": 8165,
      "Ġofrecemos": 8166,
      "uca": 8167,
      "ĠNuestra": 8168,
      "ĠÃºtiles": 8169,
      "Ġinmig": 8170,
      "terapia": 8171,
      "Ġinmediatamente": 8172,
      "Ġhice": 8173,
      "Ġaniversario": 8174,
      "Ġ05": 8175,
      "Ġrequieren": 8176,
      "ĠFelipe": 8177,
      "Ġje": 8178,
      "âĢ¦.": 8179,
      "ĠDomingo": 8180,
      "Ġinmobil": 8181,
      "Ġautos": 8182,
      "67": 8183,
      "Ġpiensa": 8184,
      "AA": 8185,
      "culares": 8186,
      "Ġextrem": 8187,
      "Ġpene": 8188,
      "onald": 8189,
      "oth": 8190,
      "Ġconforme": 8191,
      "Ġdemostrado": 8192,
      "Fue": 8193,
      "colo": 8194,
      "Ġprofundidad": 8195,
      "mica": 8196,
      "CuÃ¡l": 8197,
      "Ġmetod": 8198,
      "Ġtanta": 8199,
      "Ġextremo": 8200,
      "Ġdirigida": 8201,
      "Ġrecomendable": 8202,
      "Ġprotagonistas": 8203,
      "Ġsuav": 8204,
      "Ġvisual": 8205,
      "ĠiniciÃ³": 8206,
      "ĠaprobaciÃ³n": 8207,
      "Ġluces": 8208,
      "ĠlÃ¡": 8209,
      "Ġmando": 8210,
      "Ġbancar": 8211,
      "Ġinmun": 8212,
      "ĠMuy": 8213,
      "Ġfelicidad": 8214,
      "Ġingles": 8215,
      "rita": 8216,
      "Hasta": 8217,
      "Ġulti": 8218,
      "mÃ¡tica": 8219,
      "Ġbras": 8220,
      "ĠSud": 8221,
      "Ġeducativa": 8222,
      "pers": 8223,
      "Ġletras": 8224,
      "ĠvÃŃas": 8225,
      "Ġlider": 8226,
      "iner": 8227,
      "grad": 8228,
      "Ġ2004": 8229,
      "Ġataques": 8230,
      "Ġextranjero": 8231,
      "Ġinterno": 8232,
      "ĠtendrÃŃa": 8233,
      "icha": 8234,
      "Ġdiversidad": 8235,
      "Ġvital": 8236,
      "Ġlegisla": 8237,
      "ĠfinanciaciÃ³n": 8238,
      "Ġrock": 8239,
      "rista": 8240,
      "Ġ39": 8241,
      "Ġdeterminado": 8242,
      "ĠVall": 8243,
      "Ġprestig": 8244,
      "ĠEspecial": 8245,
      "Ġreper": 8246,
      "uyendo": 8247,
      "Ġimpuesto": 8248,
      "avo": 8249,
      "ĠdeclarÃ³": 8250,
      "ĠOp": 8251,
      "Ġcompletar": 8252,
      "Ġpublicada": 8253,
      "ĠMonte": 8254,
      "Ġnormalmente": 8255,
      "Ġhaz": 8256,
      "Ġjub": 8257,
      "Ġayudas": 8258,
      "Ġvuelos": 8259,
      "xi": 8260,
      "Ġnoches": 8261,
      "Ġplazas": 8262,
      "Ġcontigo": 8263,
      "Ġponen": 8264,
      "cua": 8265,
      "Ġdulce": 8266,
      "Ġsp": 8267,
      "Ġdientes": 8268,
      "Ġsindica": 8269,
      "Ġmoral": 8270,
      "Ġtemper": 8271,
      "Ġarma": 8272,
      "Ġrecomendamos": 8273,
      "Ġfij": 8274,
      "ĠobligaciÃ³n": 8275,
      "Ġdele": 8276,
      "ĠdeberÃŃan": 8277,
      "undo": 8278,
      "ĠcampaÃ±as": 8279,
      "ĠocurriÃ³": 8280,
      "Ġplas": 8281,
      "Ġ(@": 8282,
      "Ġfestival": 8283,
      "Ġparal": 8284,
      "Ġposiciones": 8285,
      "ĠllevarÃ¡": 8286,
      "Ġprocedimientos": 8287,
      "ĠextensiÃ³n": 8288,
      "idra": 8289,
      "Ġosc": 8290,
      "ĠencontrÃ³": 8291,
      "ĠSergio": 8292,
      "Ġusan": 8293,
      "Ġadver": 8294,
      "Ġbasada": 8295,
      "ĠfantÃ¡": 8296,
      "Ġlla": 8297,
      "Ġrepos": 8298,
      "Ġtomando": 8299,
      "Ġnovia": 8300,
      "gular": 8301,
      "ĠEra": 8302,
      "ĠCataluÃ±a": 8303,
      "Ġescu": 8304,
      "Ġesenciales": 8305,
      "ĠRoma": 8306,
      "ĠraÃŃz": 8307,
      "Ġcambia": 8308,
      "ĠIncluso": 8309,
      "mx": 8310,
      "ĠLink": 8311,
      "Ġfinancieros": 8312,
      "Ã¡neo": 8313,
      "Ġrespectivamente": 8314,
      "JO": 8315,
      "Ġestadio": 8316,
      "ecciÃ³n": 8317,
      "ĠleÃŃdo": 8318,
      "Ġquerer": 8319,
      "Ġcristal": 8320,
      "Ġexpl": 8321,
      "Ġbrazos": 8322,
      "viar": 8323,
      "Ġemail": 8324,
      "Ġmargen": 8325,
      "ĠDeportes": 8326,
      "Ġconectar": 8327,
      "Ġefectiva": 8328,
      "Ġculpa": 8329,
      "Ġcambiado": 8330,
      "oli": 8331,
      "Ã¡nicos": 8332,
      "Or": 8333,
      "ĠinterpretaciÃ³n": 8334,
      "ĠBon": 8335,
      "Ġagenda": 8336,
      "Ġfelici": 8337,
      "Ġquin": 8338,
      "Ġseguido": 8339,
      "Ġindependencia": 8340,
      "Ġoriginales": 8341,
      "ĠBre": 8342,
      "ĠOrden": 8343,
      "uera": 8344,
      "Ġevidencia": 8345,
      "Ġpreguntar": 8346,
      "Ġinstitucional": 8347,
      "Ġpulgadas": 8348,
      "Ġperiodistas": 8349,
      "Ġserio": 8350,
      "Ġdesarrolla": 8351,
      "Ġbonito": 8352,
      "Ġdipl": 8353,
      "ĠTorres": 8354,
      "Ġcorrespondientes": 8355,
      "Ġhermana": 8356,
      "ĠPriv": 8357,
      "Ġenferm": 8358,
      "ĠEspaÃ±ol": 8359,
      "ĠmenÃº": 8360,
      "ĠmontaÃ±a": 8361,
      "Ġacce": 8362,
      "Ġmatem": 8363,
      "CIAS": 8364,
      "itcoin": 8365,
      "igual": 8366,
      "Ġdecl": 8367,
      "Ġsmart": 8368,
      "uez": 8369,
      "Ġirreg": 8370,
      "Ġparejas": 8371,
      "ĠDen": 8372,
      "ertos": 8373,
      "ĠSam": 8374,
      "ĠSÃ³lo": 8375,
      "Ġencabez": 8376,
      "ĠLibre": 8377,
      "iler": 8378,
      "ĠGro": 8379,
      "ĠCÃ³digo": 8380,
      "atemala": 8381,
      "Ġavances": 8382,
      "Ġquede": 8383,
      "icias": 8384,
      "Ġaplica": 8385,
      "ĠtomÃ³": 8386,
      "ĠNicolÃ¡s": 8387,
      "enden": 8388,
      "Ġapp": 8389,
      "Ġ03": 8390,
      "Ġconsig": 8391,
      "Ġrobo": 8392,
      "Ã³st": 8393,
      "Ġbajas": 8394,
      "ĠMayor": 8395,
      "ĠSemana": 8396,
      "Ġaluminio": 8397,
      "lia": 8398,
      "xy": 8399,
      "Ġllen": 8400,
      "TS": 8401,
      "Ġparo": 8402,
      "ĠWorld": 8403,
      "Ġ600": 8404,
      "Ġadquir": 8405,
      "ĠMoreno": 8406,
      "Ġmuebles": 8407,
      "curo": 8408,
      "ĠalemÃ¡n": 8409,
      "Ġreconocido": 8410,
      "xo": 8411,
      "Ġubicada": 8412,
      "Ġpercib": 8413,
      "Ġfortalecer": 8414,
      "Pr": 8415,
      "ogrÃ¡": 8416,
      "Ġnegra": 8417,
      "Ġpiernas": 8418,
      "Ġ55": 8419,
      "Ġesperan": 8420,
      "Ġdiputado": 8421,
      "DUC": 8422,
      "ĠpolÃ©m": 8423,
      "ANA": 8424,
      "Ġbarra": 8425,
      "bi": 8426,
      "tif": 8427,
      "ĠOri": 8428,
      "Ġmarcar": 8429,
      "Ġcompetencias": 8430,
      "Ġfiguras": 8431,
      "Ġtoca": 8432,
      "Ġquieras": 8433,
      "ueble": 8434,
      "ĠhistÃ³rica": 8435,
      "Ġcerem": 8436,
      "Ġprofundo": 8437,
      "ĠAutÃ³n": 8438,
      "gip": 8439,
      "Ġcontamos": 8440,
      "Compartir": 8441,
      "Ġpus": 8442,
      "Ġjud": 8443,
      "ĠmillÃ³n": 8444,
      "Ġmanifes": 8445,
      "ĠArtes": 8446,
      "JA": 8447,
      "Ġespectacular": 8448,
      "Ġ04": 8449,
      "................": 8450,
      "Ġlimpiar": 8451,
      "sito": 8452,
      "Ġdrogas": 8453,
      "ING": 8454,
      "bes": 8455,
      "icana": 8456,
      "ierten": 8457,
      "Ġare": 8458,
      "Ġinspec": 8459,
      "Ġlector": 8460,
      "Ġhin": 8461,
      "Ġconsigue": 8462,
      "ĠAlim": 8463,
      "Ġtomado": 8464,
      "Ġvigente": 8465,
      "Ġintensidad": 8466,
      "Ġmoderno": 8467,
      "Ġhues": 8468,
      "Ġexceso": 8469,
      "ĠBu": 8470,
      "Ġtiro": 8471,
      "Ġcontinua": 8472,
      "Ġjuega": 8473,
      "Otro": 8474,
      "Ġamp": 8475,
      "Ġalf": 8476,
      "Ã©nez": 8477,
      "Ġempu": 8478,
      "Ġapartado": 8479,
      "Ġreconoce": 8480,
      "curso": 8481,
      "inan": 8482,
      "Ġincu": 8483,
      "Ġresumen": 8484,
      "Ġignor": 8485,
      "ĠMujeres": 8486,
      "torÃŃa": 8487,
      "Ġenvi": 8488,
      "ĠMedia": 8489,
      "Ġgustan": 8490,
      "Ġcau": 8491,
      "Ġajuste": 8492,
      "Ġpuente": 8493,
      "Ġvideoj": 8494,
      "ĠespecÃŃfico": 8495,
      "way": 8496,
      "sto": 8497,
      "ĠvÃŃn": 8498,
      "Ġavanzar": 8499,
      "Ġcobre": 8500,
      "Ġorganismos": 8501,
      "Ġwebs": 8502,
      "hatsApp": 8503,
      "ecas": 8504,
      "ĠIgu": 8505,
      "eme": 8506,
      "Ġencargado": 8507,
      "ĠCristina": 8508,
      "Ġcombate": 8509,
      "Ġnumerosos": 8510,
      "Ġtoneladas": 8511,
      "ĠLea": 8512,
      "Ġdios": 8513,
      "ĠAngel": 8514,
      "Ġbajos": 8515,
      "TV": 8516,
      "fit": 8517,
      "ĠSantos": 8518,
      "ĠminerÃŃa": 8519,
      "Ġinsist": 8520,
      "cinas": 8521,
      "ĠCampe": 8522,
      "Ġproveedor": 8523,
      "FOR": 8524,
      "ĠCarta": 8525,
      "Ġqueso": 8526,
      "ĠdocumentaciÃ³n": 8527,
      "Ġresiduos": 8528,
      "Ġexclusivamente": 8529,
      "rey": 8530,
      "Ġseleccionar": 8531,
      "Ġconmigo": 8532,
      "Ġcombatir": 8533,
      "Ġequival": 8534,
      "Prim": 8535,
      "Ġpolic": 8536,
      "ografÃŃa": 8537,
      "ĠInvestigaciÃ³n": 8538,
      "ĠSar": 8539,
      "bro": 8540,
      "unda": 8541,
      "Ġgustado": 8542,
      "ÃģS": 8543,
      "Ġrecetas": 8544,
      "Ġconta": 8545,
      "ĠPri": 8546,
      "Ġms": 8547,
      "ĠPalacio": 8548,
      "Ġvestido": 8549,
      "Ġreempla": 8550,
      "Ġhidra": 8551,
      "ĠcumpleaÃ±os": 8552,
      "Ġllor": 8553,
      "ĠChar": 8554,
      "ĠÃĵ": 8555,
      "Ġiniciativas": 8556,
      "icaciones": 8557,
      "Ġnomin": 8558,
      "inete": 8559,
      "IOS": 8560,
      "mato": 8561,
      "Ġlook": 8562,
      "Ġasistir": 8563,
      "Ġbalance": 8564,
      "Ġhablamos": 8565,
      "Ġpositiva": 8566,
      "Ġsiguiendo": 8567,
      "Ġrueda": 8568,
      "Ġhecha": 8569,
      "Ġrango": 8570,
      "TIC": 8571,
      "cara": 8572,
      "Ġsober": 8573,
      "PolÃŃtica": 8574,
      "bio": 8575,
      "Ġdiputados": 8576,
      "ĠProvincia": 8577,
      "68": 8578,
      "Ġdelicios": 8579,
      "Ġ65": 8580,
      "Ġguardar": 8581,
      "ĠLED": 8582,
      "Ġampliar": 8583,
      "gano": 8584,
      "âĨ": 8585,
      "ĠMuchas": 8586,
      "Ġbarato": 8587,
      "trans": 8588,
      "ĠmostrÃ³": 8589,
      "cam": 8590,
      "Ġsat": 8591,
      "Ġconstruc": 8592,
      "ĠPeÃ±a": 8593,
      "ĠBogotÃ¡": 8594,
      "ĠcampeÃ³n": 8595,
      "TRO": 8596,
      "ĠHombre": 8597,
      "Ġatribu": 8598,
      "Ġcantidades": 8599,
      "Ġsanitaria": 8600,
      "Ġequivoc": 8601,
      "urÃŃa": 8602,
      "ĠRegional": 8603,
      "Ġexplos": 8604,
      "Ġestat": 8605,
      "laterra": 8606,
      "Ġtop": 8607,
      "Ġsonrisa": 8608,
      "Ġprevent": 8609,
      "Ġuniversidades": 8610,
      "real": 8611,
      "Ġtecho": 8612,
      "Ġrealizadas": 8613,
      "bur": 8614,
      "Ġestabilidad": 8615,
      "ĠContra": 8616,
      "Ġproducen": 8617,
      "\\/": 8618,
      "ĠHaci": 8619,
      "Ġhoja": 8620,
      "ĠCultural": 8621,
      "Ġrico": 8622,
      "ĠReyes": 8623,
      "wood": 8624,
      "izadas": 8625,
      "plan": 8626,
      "Ġcalific": 8627,
      "ĠExper": 8628,
      "Ġninguno": 8629,
      "Ġpermitido": 8630,
      "Ġconstruy": 8631,
      "Ġgay": 8632,
      "pot": 8633,
      "2010": 8634,
      "Ġlectores": 8635,
      "Ġacor": 8636,
      "Ġ120": 8637,
      "Ġdesin": 8638,
      "ĠAmbiente": 8639,
      "flix": 8640,
      "tivar": 8641,
      "ilio": 8642,
      "Ġletra": 8643,
      "parte": 8644,
      "Ġpendiente": 8645,
      "ĠestarÃŃa": 8646,
      "Ġruido": 8647,
      "Ġconsta": 8648,
      "Ġbicicleta": 8649,
      "Ġhorno": 8650,
      "ĠAmeric": 8651,
      "Ġalojamiento": 8652,
      "ĠDiseÃ±o": 8653,
      "ĠiluminaciÃ³n": 8654,
      "Ġabsolutamente": 8655,
      "ĠRica": 8656,
      "Ġturno": 8657,
      "Ġsufrir": 8658,
      "Ġcuarta": 8659,
      "html": 8660,
      "ĠÃ³pti": 8661,
      "Ġolvidar": 8662,
      "tock": 8663,
      "ĠSociales": 8664,
      "ĠÃ¡rboles": 8665,
      "Ġom": 8666,
      "Ġnotas": 8667,
      "aqu": 8668,
      "econ": 8669,
      "Ãºsica": 8670,
      "phone": 8671,
      "ĠQuÃ©": 8672,
      "Ġreferente": 8673,
      "Ġdiscrim": 8674,
      "Categ": 8675,
      "Ġcircuito": 8676,
      "Ġï¿½": 8677,
      "ĠreacciÃ³n": 8678,
      "Ġdiaria": 8679,
      "ĠPanamÃ¡": 8680,
      "ĠZaragoza": 8681,
      "Ġconveniente": 8682,
      "ĠelectrÃ³nica": 8683,
      "âĢ¦âĢ¦âĢ¦âĢ¦": 8684,
      "Ġmam": 8685,
      "medio": 8686,
      "Ġcinta": 8687,
      "fru": 8688,
      "ĠMartin": 8689,
      "Ġganador": 8690,
      "tusias": 8691,
      "Ġvertic": 8692,
      "ĠCL": 8693,
      "ĠNuestro": 8694,
      "ualidad": 8695,
      "Ġelegante": 8696,
      "Ġprovincial": 8697,
      "ĠsatisfacciÃ³n": 8698,
      "ĠElla": 8699,
      "Ġvisu": 8700,
      "Ġmoneda": 8701,
      "Mon": 8702,
      "Ã¡mb": 8703,
      "ĠnaciÃ³n": 8704,
      "polit": 8705,
      "ĠXV": 8706,
      "Ġpaseo": 8707,
      "Respon": 8708,
      "rible": 8709,
      "Finalmente": 8710,
      "rent": 8711,
      "ĠSport": 8712,
      "load": 8713,
      "iosas": 8714,
      "Ġfacilidad": 8715,
      "Ġinn": 8716,
      "Ġturistas": 8717,
      "Ġformulario": 8718,
      "ĠÃŃ": 8719,
      "ĠEse": 8720,
      "Ġelectro": 8721,
      "Ġnoc": 8722,
      "ĠDescu": 8723,
      "Ġveter": 8724,
      "fera": 8725,
      "ĠHan": 8726,
      "izan": 8727,
      "Ġagente": 8728,
      "press": 8729,
      "Ġhaces": 8730,
      "ÃŃci": 8731,
      "ĠTex": 8732,
      "Ġpop": 8733,
      "EE": 8734,
      "lga": 8735,
      "ĠPRE": 8736,
      "Ġargentina": 8737,
      "Ġincluidos": 8738,
      "uran": 8739,
      "Ġtrabajador": 8740,
      "urias": 8741,
      "Ġtrimestre": 8742,
      "Ġrural": 8743,
      "viamente": 8744,
      "ĠFuente": 8745,
      "ĠGobern": 8746,
      "ĠUSB": 8747,
      "Ġindustriales": 8748,
      "Ġinstrucciones": 8749,
      "Ġindividuales": 8750,
      "ĠBlanca": 8751,
      "ĠPie": 8752,
      "Ġnumerosas": 8753,
      "Ġ2003": 8754,
      "Ġespecialista": 8755,
      "ĠdiscusiÃ³n": 8756,
      "tres": 8757,
      "Ġexpon": 8758,
      "ĠNaciones": 8759,
      "tarÃ¡n": 8760,
      "ĠCR": 8761,
      "iempo": 8762,
      "ĠMarcel": 8763,
      "ĠAntes": 8764,
      "Ab": 8765,
      "work": 8766,
      "Ġtasas": 8767,
      "Ġexamen": 8768,
      "ĠVida": 8769,
      "atÃŃa": 8770,
      "ĠUnidas": 8771,
      "ĠpetrÃ³leo": 8772,
      "ĠCOMP": 8773,
      "Ġadmi": 8774,
      "Ġvacuna": 8775,
      "ĠfilosofÃŃa": 8776,
      "camiento": 8777,
      "ĠMej": 8778,
      "ĠimplementaciÃ³n": 8779,
      "tacto": 8780,
      "illermo": 8781,
      "Ġnecesitar": 8782,
      "ĠWashington": 8783,
      "Bueno": 8784,
      "Ġlaboratorio": 8785,
      "ija": 8786,
      "ĠmÃŃnima": 8787,
      "Ġ250": 8788,
      "Ġusado": 8789,
      "Ġexperto": 8790,
      "Ġterap": 8791,
      "itores": 8792,
      "Ġtrae": 8793,
      "Ġaparte": 8794,
      "Ġsacri": 8795,
      "Ġparedes": 8796,
      "Ġeuropeos": 8797,
      "iona": 8798,
      "ENTA": 8799,
      "ĠmÃ¡g": 8800,
      "Ġpeda": 8801,
      "Ġfrontera": 8802,
      "Ġdimensiones": 8803,
      "Ġsumar": 8804,
      "ĠBil": 8805,
      "Ġaporta": 8806,
      "Ġservidor": 8807,
      "ĠportÃ¡til": 8808,
      "iario": 8809,
      "ĠLeon": 8810,
      "IÃĵN": 8811,
      "ĠcirculaciÃ³n": 8812,
      "Red": 8813,
      "2009": 8814,
      "Muchas": 8815,
      "cat": 8816,
      "Ġaliv": 8817,
      "Ġanunciado": 8818,
      "Ġsuministro": 8819,
      "kin": 8820,
      "Ġentusias": 8821,
      "Ġancho": 8822,
      "ĠChrist": 8823,
      "Ġdeportiva": 8824,
      "Ġgris": 8825,
      "Ġcompuesto": 8826,
      "Ġmaestros": 8827,
      "78": 8828,
      "Ġresidencia": 8829,
      "ASA": 8830,
      "Ġpiloto": 8831,
      "mÃ¡s": 8832,
      "stos": 8833,
      "ÃŃg": 8834,
      "Ġocurrido": 8835,
      "ĠFacultad": 8836,
      "Ãºcle": 8837,
      "ĠGust": 8838,
      "ĠIndep": 8839,
      "Ġpreviamente": 8840,
      "Ġinformado": 8841,
      "Antes": 8842,
      "ision": 8843,
      "Ġyour": 8844,
      "Ġretos": 8845,
      "Ġembar": 8846,
      "OC": 8847,
      "Ġreduce": 8848,
      "Ġclasific": 8849,
      "Ġbrillante": 8850,
      "Ġcomentar": 8851,
      "Ġponerse": 8852,
      "partamentos": 8853,
      "tz": 8854,
      "Ġcombustible": 8855,
      "Ġamistad": 8856,
      "75": 8857,
      "Otra": 8858,
      "ped": 8859,
      "cientes": 8860,
      "ĠCA": 8861,
      "END": 8862,
      "Ġgimnas": 8863,
      "ĠhÃ¡bitos": 8864,
      "Fran": 8865,
      "cÃ¡n": 8866,
      "Ġrecep": 8867,
      "Ġbasa": 8868,
      "Ġdestacado": 8869,
      "ness": 8870,
      "fos": 8871,
      "ĠSta": 8872,
      "ĠEsper": 8873,
      "ĠreflexiÃ³n": 8874,
      "ÃŃficamente": 8875,
      "à¸": 8876,
      "undir": 8877,
      "Ġdarse": 8878,
      "Ġintenta": 8879,
      "ĠComentarios": 8880,
      "Ġauxil": 8881,
      "Ġplantilla": 8882,
      "ĠayudarÃ¡": 8883,
      "Ter": 8884,
      "apas": 8885,
      "Ġrestos": 8886,
      "Ġevaluar": 8887,
      "Ġeuropeo": 8888,
      "grÃ¡fica": 8889,
      "ivar": 8890,
      "Ġnecesitamos": 8891,
      "ĠNatural": 8892,
      "Ġhomb": 8893,
      "Ġasistentes": 8894,
      "TAR": 8895,
      "idable": 8896,
      "rias": 8897,
      "istar": 8898,
      "ieta": 8899,
      "ĠPersonal": 8900,
      "Ġapuestas": 8901,
      "Ġrenta": 8902,
      "Ġinteresados": 8903,
      "Ġtranquilidad": 8904,
      "ĠAgua": 8905,
      "Ġdijeron": 8906,
      "uerzo": 8907,
      "Ġdificultad": 8908,
      "Ġnotific": 8909,
      "ĠdesempeÃ±o": 8910,
      "ĠNie": 8911,
      "piniÃ³n": 8912,
      "FA": 8913,
      "Ġaden": 8914,
      "Ã¡ndolo": 8915,
      "GR": 8916,
      "Ġfui": 8917,
      "alizadas": 8918,
      "Ã³logos": 8919,
      "Cer": 8920,
      "Ġtemporal": 8921,
      "Ġdepos": 8922,
      "ĠmÃ³d": 8923,
      "icar": 8924,
      "Ã©cord": 8925,
      "Ġincrement": 8926,
      "ĠcatÃ¡logo": 8927,
      "Ġconsideran": 8928,
      "pr": 8929,
      "ĠBio": 8930,
      "Ġfrutas": 8931,
      "Ġlavado": 8932,
      "Ġcostes": 8933,
      "ĠCanadÃ¡": 8934,
      "Puede": 8935,
      "Ġtendremos": 8936,
      "ĠEstamos": 8937,
      "Ġpasajeros": 8938,
      "CAR": 8939,
      "aming": 8940,
      "Ġcuidar": 8941,
      "ĠRosario": 8942,
      "ayos": 8943,
      "Ġrecomiendo": 8944,
      "Ġhermosa": 8945,
      "Ġinvitados": 8946,
      "enses": 8947,
      "ĠprÃ³ximas": 8948,
      "Ġromper": 8949,
      "ĠÃ¡rbol": 8950,
      "ĠYouTube": 8951,
      "Ġgestionar": 8952,
      "Ġtemperaturas": 8953,
      "Juan": 8954,
      "Ġhogares": 8955,
      "Ġthis": 8956,
      "menta": 8957,
      "raron": 8958,
      "Ġconflictos": 8959,
      "Ġdichos": 8960,
      "trico": 8961,
      "mate": 8962,
      "Ġseria": 8963,
      "Ġabst": 8964,
      "Ġdeportes": 8965,
      "Ġprofunda": 8966,
      "Ġinstrumento": 8967,
      "guna": 8968,
      "Ġadelga": 8969,
      "Ġpublicar": 8970,
      "ĠadquisiciÃ³n": 8971,
      "Ġmecanismos": 8972,
      "ions": 8973,
      "ĠdifÃŃciles": 8974,
      "ĠOscar": 8975,
      "ĠPER": 8976,
      "Ġcortes": 8977,
      "ienta": 8978,
      "ĠSant": 8979,
      "Ġfilm": 8980,
      "Ġmaquinaria": 8981,
      "Ġestup": 8982,
      "Ġextranjeros": 8983,
      "tore": 8984,
      "ĠTodas": 8985,
      "tent": 8986,
      "Ġed": 8987,
      "Ġcongel": 8988,
      "ĠperdiÃ³": 8989,
      "ÃŃcola": 8990,
      "clo": 8991,
      "ÃŃdos": 8992,
      "Ġparlam": 8993,
      "Ġcompens": 8994,
      "ĠpeticiÃ³n": 8995,
      "JE": 8996,
      "Ġmexicana": 8997,
      "Ġbrasile": 8998,
      "ĠComunicaciÃ³n": 8999,
      "ĠAuto": 9000,
      "ĠconversaciÃ³n": 9001,
      "Ġnoctur": 9002,
      "Ġcuch": 9003,
      "ĠRES": 9004,
      "Ġcreen": 9005,
      "Ġexclusiva": 9006,
      "Ġ]": 9007,
      "Ġcomedor": 9008,
      "Ġresponde": 9009,
      "Ġetapas": 9010,
      "ĠtelÃ©fonos": 9011,
      "ĠcientÃŃfico": 9012,
      "Ġabsoluto": 9013,
      "EX": 9014,
      "Ġmejoras": 9015,
      "ĠONU": 9016,
      "Ġtruc": 9017,
      "Ġtotalidad": 9018,
      "Ġmorir": 9019,
      "Ġapreci": 9020,
      "tander": 9021,
      "Ġocupa": 9022,
      "Ġglob": 9023,
      "Ġruedas": 9024,
      "idaridad": 9025,
      "Ġtuy": 9026,
      "ĠÃŃndice": 9027,
      "ĠÃ¡nimo": 9028,
      "antiles": 9029,
      "ĠFrente": 9030,
      "mana": 9031,
      "Ġagar": 9032,
      "Ġcalendario": 9033,
      "Ġproductor": 9034,
      "ĠAustral": 9035,
      "tional": 9036,
      "tipo": 9037,
      "Ġinjust": 9038,
      "americanos": 9039,
      "Ġsinc": 9040,
      "ĠFar": 9041,
      "Ġpierde": 9042,
      "Ġluchar": 9043,
      "PR": 9044,
      "ĠVas": 9045,
      "Ġdocumental": 9046,
      "ĠPrincip": 9047,
      "Serv": 9048,
      "anal": 9049,
      "Ġagrup": 9050,
      "Ġimpulsar": 9051,
      "ĠmamÃ¡": 9052,
      "Ġatractivo": 9053,
      "kers": 9054,
      "ĠOper": 9055,
      "venil": 9056,
      "ĠFlores": 9057,
      "PAR": 9058,
      "ĠRoberto": 9059,
      "Ġfans": 9060,
      "Muy": 9061,
      "Ġfinalizar": 9062,
      "Ġfuncionario": 9063,
      "Ġtercero": 9064,
      "rÃ¡nsito": 9065,
      "Ġterraza": 9066,
      "ĠdebÃŃa": 9067,
      "eth": 9068,
      "Ġformado": 9069,
      "Ġsuperiores": 9070,
      "ĠcapacitaciÃ³n": 9071,
      "Ã³cra": 9072,
      "ÃŃnas": 9073,
      "Ġinal": 9074,
      "Ġmarido": 9075,
      "Ġinstante": 9076,
      "Ġnarra": 9077,
      "taÃ±a": 9078,
      "icidio": 9079,
      "ĠProyecto": 9080,
      "Ã³sitos": 9081,
      "Ġtela": 9082,
      "toÃ±o": 9083,
      "Ġcach": 9084,
      "lav": 9085,
      "ĠinscripciÃ³n": 9086,
      "HO": 9087,
      "ĠfÃ³rmula": 9088,
      "ĠLle": 9089,
      "Ġbebidas": 9090,
      "alla": 9091,
      "Ġdaba": 9092,
      "trÃŃa": 9093,
      "ĠconservaciÃ³n": 9094,
      "ema": 9095,
      "Ġproducido": 9096,
      "Ġdisponibilidad": 9097,
      "ĠbÃ¡sico": 9098,
      "twitter": 9099,
      "ĠMarketing": 9100,
      "Ġeficacia": 9101,
      "ĠNÂº": 9102,
      "ĠConf": 9103,
      "indic": 9104,
      "traciÃ³n": 9105,
      "Ġtradu": 9106,
      "Ġlanzar": 9107,
      "EA": 9108,
      "Ġestructuras": 9109,
      "Ġinmediata": 9110,
      "Ġagro": 9111,
      "Ã³nicas": 9112,
      "Ġdejamos": 9113,
      "ling": 9114,
      "ĠComple": 9115,
      "Ġtransmitir": 9116,
      "ĠreÃºn": 9117,
      "Ġjornadas": 9118,
      "onduras": 9119,
      "Ġvesti": 9120,
      "Ġdiscapacidad": 9121,
      "Ġingresar": 9122,
      "Ġestadounidenses": 9123,
      "atorio": 9124,
      "ĠRol": 9125,
      "Ġantic": 9126,
      "ĠmontÃ³n": 9127,
      "ĠSAN": 9128,
      "Ġcerrado": 9129,
      "ĠfÃ¡brica": 9130,
      "ĠSebastiÃ¡n": 9131,
      "Ġconstantemente": 9132,
      "ĠVel": 9133,
      "Ġmodos": 9134,
      "Ġportavoz": 9135,
      "ĠdomÃ©st": 9136,
      "CL": 9137,
      "Ã±ar": 9138,
      "Ġpobres": 9139,
      "gin": 9140,
      "onado": 9141,
      "Ġnuc": 9142,
      "Imp": 9143,
      "Ġhol": 9144,
      "Ġbille": 9145,
      "uerta": 9146,
      "gulo": 9147,
      "Ġende": 9148,
      "Ġsecu": 9149,
      "ĠBlo": 9150,
      "ĠBat": 9151,
      "Ġ43": 9152,
      "Ġencuentros": 9153,
      "Ġconsumidor": 9154,
      "Ġfibra": 9155,
      "ĠCOR": 9156,
      "Ġ46": 9157,
      "Ġarroz": 9158,
      "Facebook": 9159,
      "Ġmoderna": 9160,
      "ĠAlic": 9161,
      "Ġciudadano": 9162,
      "Ġhambre": 9163,
      "ĠSt": 9164,
      "Ġpermiso": 9165,
      "Ġacudir": 9166,
      "Ġliderazgo": 9167,
      "Ġaust": 9168,
      "idaciÃ³n": 9169,
      "ĠCastillo": 9170,
      "Ġrepetir": 9171,
      "ĠJack": 9172,
      "ĠelectrÃ³nicos": 9173,
      "Ġresistente": 9174,
      "seguridad": 9175,
      "ĠSegunda": 9176,
      "Ġset": 9177,
      "eck": 9178,
      "Ġtratando": 9179,
      "Ġcarro": 9180,
      "Ġprivados": 9181,
      "ĠreparaciÃ³n": 9182,
      "ĠInglaterra": 9183,
      "ĠPadre": 9184,
      "denes": 9185,
      "96": 9186,
      "ĠCN": 9187,
      "ĠexcepciÃ³n": 9188,
      "Ġasal": 9189,
      "Ġsalen": 9190,
      "iremos": 9191,
      "Ġdeseas": 9192,
      "Ġcup": 9193,
      "usto": 9194,
[...]
