{
  "version": "1.0",
  "truncation": null,
  "padding": null,
  "added_tokens": [
    {
      "id": 0,
      "content": "<s>",
      "single_word": false,
      "lstrip": false,
      "rstrip": false,
      "normalized": false,
      "special": true
    },
    {
      "id": 1,
      "content": "<pad>",
      "single_word": false,
      "lstrip": false,
      "rstrip": false,
      "normalized": false,
      "special": true
    },
    {
      "id": 2,
      "content": "</s>",
      "single_word": false,
      "lstrip": false,
      "rstrip": false,
      "normalized": false,
      "special": true
    },
    {
      "id": 3,
      "content": "[UNK]",
      "single_word": false,
      "lstrip": false,
      "rstrip": false,
      "normalized": false,
      "special": true
    },
    {
      "id": 4,
      "content": "<mask>",
      "single_word": false,
      "lstrip": false,
      "rstrip": false,
      "normalized": false,
      "special": true
    }
  ],
  "normalizer": null,
  "pre_tokenizer": {
    "type": "ByteLevel",
    "add_prefix_space": false,
    "trim_offsets": true,
    "use_regex": true
  },
  "post_processor": null,
  "decoder": {
    "type": "ByteLevel",
    "add_prefix_space": true,
    "trim_offsets": true,
    "use_regex": true
  },
  "model": {
    "type": "BPE",
    "dropout": null,
    "unk_token": "[UNK]",
    "continuing_subword_prefix": null,
    "end_of_word_suffix": null,
    "fuse_unk": false,
    "byte_fallback": false,
    "ignore_merges": false,
    "vocab": {
      "<s>": 0,
      "<pad>": 1,
      "</s>": 2,
      "[UNK]": 3,
      "<mask>": 4,
      "!": 5,
      "\"": 6,
      "#": 7,
      "$": 8,
      "%": 9,
      "&": 10,
      "'": 11,
      "(": 12,
      ")": 13,
      "*": 14,
      "+": 15,
      ",": 16,
      "-": 17,
      ".": 18,
      "/": 19,
      "0": 20,
      "1": 21,
      "2": 22,
      "3": 23,
      "4": 24,
      "5": 25,
      "6": 26,
      "7": 27,
      "8": 28,
      "9": 29,
      ":": 30,
      ";": 31,
      "<": 32,
      "=": 33,
      ">": 34,
      "?": 35,
      "@": 36,
      "A": 37,
      "B": 38,
      "C": 39,
      "D": 40,
      "E": 41,
      "F": 42,
      "G": 43,
      "H": 44,
      "I": 45,
      "J": 46,
      "K": 47,
      "L": 48,
      "M": 49,
      "N": 50,
      "O": 51,
      "P": 52,
      "Q": 53,
      "R": 54,
      "S": 55,
      "T": 56,
      "U": 57,
      "V": 58,
      "W": 59,
      "X": 60,
      "Y": 61,
      "Z": 62,
      "[": 63,
      "\\": 64,
      "]": 65,
      "^": 66,
      "_": 67,
      "`": 68,
      "a": 69,
      "b": 70,
      "c": 71,
      "d": 72,
      "e": 73,
      "f": 74,
      "g": 75,
      "h": 76,
      "i": 77,
      "j": 78,
      "k": 79,
      "l": 80,
      "m": 81,
      "n": 82,
      "o": 83,
      "p": 84,
      "q": 85,
      "r": 86,
      "s": 87,
      "t": 88,
      "u": 89,
      "v": 90,
      "w": 91,
      "x": 92,
      "y": 93,
      "z": 94,
      "{": 95,
      "|": 96,
      "}": 97,
      "~": 98,
      "¡": 99,
      "¢": 100,
      "£": 101,
      "¤": 102,
      "¥": 103,
      "¦": 104,
      "§": 105,
      "¨": 106,
      "©": 107,
      "ª": 108,
      "«": 109,
      "¬": 110,
      "®": 111,
      "¯": 112,
      "°": 113,
      "±": 114,
      "²": 115,
      "³": 116,
      "´": 117,
      "µ": 118,
      "¶": 119,
      "·": 120,
      "¸": 121,
      "¹": 122,
      "º": 123,
      "»": 124,
      "¼": 125,
      "½": 126,
      "¾": 127,
      "¿": 128,
      "Â": 129,
      "Ã": 130,
      "Ä": 131,
      "Å": 132,
      "Æ": 133,
      "Ç": 134,
      "È": 135,
      "É": 136,
      "Ê": 137,
      "Ë": 138,
      "Ì": 139,
      "Í": 140,
      "Î": 141,
      "Ï": 142,
      "Ð": 143,
      "Ñ": 144,
      "Ò": 145,
      "Ó": 146,
      "Ô": 147,
      "Õ": 148,
      "Ö": 149,
      "×": 150,
      "Ø": 151,
      "Ù": 152,
      "Ú": 153,
      "Û": 154,
      "Ü": 155,
      "Ý": 156,
      "Þ": 157,
      "à": 158,
      "á": 159,
      "â": 160,
      "ã": 161,
      "ä": 162,
      "å": 163,
      "æ": 164,
      "ç": 165,
      "è": 166,
      "é": 167,
      "ê": 168,
      "ë": 169,
      "ì": 170,
      "í": 171,
      "ï": 172,
      "ð": 173,
      "ô": 174,
      "ĉ": 175,
      "Ċ": 176,
      "Ġ": 177,
      "ġ": 178,
      "Ģ": 179,
      "ģ": 180,
      "Ĥ": 181,
      "ĥ": 182,
      "Ħ": 183,
      "ħ": 184,
      "Ĩ": 185,
      "ĩ": 186,
      "Ī": 187,
      "ī": 188,
      "Ĭ": 189,
      "ĭ": 190,
      "Į": 191,
      "į": 192,
      "İ": 193,
      "ı": 194,
      "Ĳ": 195,
      "ĳ": 196,
      "Ĵ": 197,
      "ĵ": 198,
      "Ķ": 199,
      "ķ": 200,
      "ĸ": 201,
      "Ĺ": 202,
      "ĺ": 203,
      "Ļ": 204,
      "ļ": 205,
      "Ľ": 206,
      "ľ": 207,
      "Ŀ": 208,
      "ŀ": 209,
      "Ł": 210,
      "ł": 211,
      "Ń": 212,
      "de": 213,
      "Ġde": 214,
      "Ġe": 215,
      "Ġl": 216,
      "os": 217,
      "Ġc": 218,
      "er": 219,
      "Ġp": 220,
      "en": 221,
      "on": 222,
      "Ġa": 223,
      "ar": 224,
      "es": 225,
      "as": 226,
      "ci": 227,
      "an": 228,
      "Ġs": 229,
      "or": 230,
      "Ã³": 231,
      "ad": 232,
      "al": 233,
      "Ġla": 234,
      "in": 235,
      "Ġen": 236,
      "ue": 237,
      "un": 238,
      "re": 239,
      "st": 240,
      "Ġm": 241,
      "Ġel": 242,
      "Ġy": 243,
      "ic": 244,
      "te": 245,
      "ÃŃ": 246,
      "Ã³n": 247,
      "Ġt": 248,
      "que": 249,
      "om": 250,
      "ra": 251,
      "Ġcon": 252,
      "ro": 253,
      "Ġun": 254,
      "Ġf": 255,
      "di": 256,
      "Ġque": 257,
      "Ã¡": 258,
      "ti": 259,
      "do": 260,
      "ri": 261,
      "ent": 262,
      "Ġse": 263,
      "Ã©": 264,
      "ĠC": 265,
      "Ġdel": 266,
      "ciÃ³n": 267,
      "am": 268,
      "ĠE": 269,
      "ol": 270,
      "Ġh": 271,
      "Ġlos": 272,
      "Ġn": 273,
      "Ġsu": 274,
      "Ġ1": 275,
      "ĠA": 276,
      "ĠS": 277,
      "ta": 278,
      "to": 279,
      "Ġre": 280,
      "le": 281,
      "Ġo": 282,
      "Ġ(": 283,
      "vi": 284,
      "Ġes": 285,
      "ĠM": 286,
      "Ġin": 287,
      "ado": 288,
      "Ġcom": 289,
      "la": 290,
      "ĠP": 291,
      "ĠL": 292,
      "Ġest": 293,
      "Ġpor": 294,
      "ÃŃa": 295,
      "Ġpar": 296,
      "Ġal": 297,
      "bi": 298,
      "Ġg": 299,
      "da": 300,
      "res": 301,
      "tu": 302,
      "ente": 303,
      "Ã±": 304,
      "Ġlas": 305,
      "li": 306,
      "ab": 307,
      "Ġv": 308,
      "si": 309,
      "ran": 310,
      "ter": 311,
      "ica": 312,
      "Ġuna": 313,
      "ec": 314,
      "Ġd": 315,
      "cion": 316,
      "ui": 317,
      "Ġdi": 318,
      "dad": 319,
      "lo": 320,
      "ĠB": 321,
      "mp": 322,
      "Ġb": 323,
      "ĠT": 324,
      "cu": 325,
      "ĠR": 326,
      "Ġpro": 327,
      "io": 328,
      "Ġ2": 329,
      "ada": 330,
      "ist": 331,
      "Ġ19": 332,
      "Ãº": 333,
      "cia": 334,
      "ĠD": 335,
      "el": 336,
      "ma": 337,
      "is": 338,
      "ĠG": 339,
      "Ġcomo": 340,
      "Ġcu": 341,
      "ĠF": 342,
      "ig": 343,
      "Ġpara": 344,
      "ia": 345,
      "ch": 346,
      "ales": 347,
      "ĠI": 348,
      "Ã¡s": 349,
      "tr": 350,
      "tor": 351,
      "00": 352,
      "us": 353,
      "pa": 354,
      "Ġdes": 355,
      "ico": 356,
      "il": 357,
      "Ġper": 358,
      "ĠĊ": 359,
      "ac": 360,
      "bre": 361,
      "Ġex": 362,
      "den": 363,
      "go": 364,
      "ul": 365,
      "mi": 366,
      "uer": 367,
      "ĠN": 368,
      "Ġno": 369,
      "ĠJ": 370,
      "ados": 371,
      "aciÃ³n": 372,
      "ĠH": 373,
      "mo": 374,
      "tos": 375,
      "ciones": 376,
      "Ã¡n": 377,
      "ali": 378,
      "ru": 379,
      "at": 380,
      "ento": 381,
      "ras": 382,
      "Ġi": 383,
      "oc": 384,
      "Ġan": 385,
      "se": 386,
      "ando": 387,
      "mer": 388,
      "ie": 389,
      "tes": 390,
      "dos": 391,
      "ĠV": 392,
      "Ġac": 393,
      "qui": 394,
      "ĠmÃ¡s": 395,
      "Ġj": 396,
      "aj": 397,
      "tiv": 398,
      "ay": 399,
      "Ã©n": 400,
      "ur": 401,
      "du": 402,
      "mente": 403,
      "ĠEl": 404,
      "ici": 405,
      "Ġme": 406,
      "pe": 407,
      "Ġfue": 408,
      "ĠEn": 409,
      "ĠU": 410,
      "gu": 411,
      "Ġvi": 412,
      "ĠLa": 413,
      "tar": 414,
      "Ġsi": 415,
      "tre": 416,
      "Ġlo": 417,
      "em": 418,
      "gi": 419,
      "ĠO": 420,
      "ador": 421,
      "za": 422,
      "Ã©s": 423,
      "ambi": 424,
      "des": 425,
      "co": 426,
      "ce": 427,
      ").": 428,
      "po": 429,
      "Ġci": 430,
      "ano": 431,
      "ca": 432,
      "ver": 433,
      "um": 434,
      "ari": 435,
      "tra": 436,
      "ĠaÃ±": 437,
      "ten": 438,
      "Ġpri": 439,
      "per": 440,
      "ni": 441,
      "Ġso": 442,
      "),": 443,
      "Ġpo": 444,
      "Ġser": 445,
      "ces": 446,
      "Ġar": 447,
      "pi": 448,
      "ĠEst": 449,
      "Ġsus": 450,
      "ina": 451,
      "der": 452,
      "En": 453,
      "pu": 454,
      "Ġte": 455,
      "Ġr": 456,
      "amente": 457,
      "tan": 458,
      "Ġpr": 459,
      "fer": 460,
      "lan": 461,
      "Ġha": 462,
      "Ġto": 463,
      "par": 464,
      "Ġmu": 465,
      "las": 466,
      "Ġor": 467,
      "encia": 468,
      "Ġca": 469,
      "paÃ±": 470,
      "Ġres": 471,
      "ones": 472,
      "les": 473,
      "los": 474,
      "ero": 475,
      "ino": 476,
      "tro": 477,
      "Ġ\"": 478,
      "Ġle": 479,
      "ambiÃ©n": 480,
      "adas": 481,
      "mb": 482,
      "Ġti": 483,
      "icos": 484,
      "Ġentre": 485,
      "tas": 486,
      "gun": 487,
      "Ġob": 488,
      "na": 489,
      "Ġfor": 490,
      "ib": 491,
      "ub": 492,
      "era": 493,
      "con": 494,
      "Ġprimer": 495,
      "Ġ20": 496,
      "Ġ200": 497,
      "almente": 498,
      "âĢ": 499,
      "ana": 500,
      "El": 501,
      "Ġcar": 502,
      "Ġtra": 503,
      "siÃ³n": 504,
      "im": 505,
      "vo": 506,
      "aron": 507,
      "ĠRe": 508,
      "19": 509,
      "icas": 510,
      "endo": 511,
      "ÃŃn": 512,
      "cl": 513,
      "ir": 514,
      "ez": 515,
      "va": 516,
      "ĠIn": 517,
      "ga": 518,
      "entes": 519,
      "ĠEs": 520,
      "tal": 521,
      "ami": 522,
      "Ġpa": 523,
      "ĠSan": 524,
      "og": 525,
      "Ġpres": 526,
      "Ġas": 527,
      "ĠAl": 528,
      "Ãºn": 529,
      "Ġson": 530,
      "ern": 531,
      "Ġimp": 532,
      "ĠW": 533,
      "Ġpue": 534,
      "ĠtambiÃ©n": 535,
      "ĠÂ": 536,
      "das": 537,
      "tura": 538,
      "ug": 539,
      "Ġ18": 540,
      "por": 541,
      "pos": 542,
      "ve": 543,
      "teri": 544,
      "Ġhab": 545,
      "ĠSe": 546,
      "man": 547,
      "ba": 548,
      "enci": 549,
      "ĠK": 550,
      "Â»": 551,
      "son": 552,
      "qu": 553,
      "La": 554,
      "Ġsig": 555,
      "ĠUni": 556,
      "Ġmo": 557,
      "cional": 558,
      "Ã©r": 559,
      "he": 560,
      "ĠÂ«": 561,
      "Ġesc": 562,
      "Ġna": 563,
      "ĠĠ": 564,
      "sti": 565,
      "ara": 566,
      "ĠCon": 567,
      "ĠCh": 568,
      "Ġpre": 569,
      "ores": 570,
      "oci": 571,
      "Ġmay": 572,
      "Ġfuer": 573,
      "entos": 574,
      "inci": 575,
      "Ġcas": 576,
      "jo": 577,
      "dades": 578,
      "ene": 579,
      "aba": 580,
      "cciÃ³n": 581,
      "ÃŃs": 582,
      "Ġsobre": 583,
      "ĠMar": 584,
      "Ġman": 585,
      "eron": 586,
      "je": 587,
      "ener": 588,
      "Ġpos": 589,
      "Ġmi": 590,
      "ismo": 591,
      "Ġinter": 592,
      "Ġ3": 593,
      "Ġmedi": 594,
      "ing": 595,
      "ĠaÃ±os": 596,
      "Ġdis": 597,
      "uran": 598,
      "fici": 599,
      "tros": 600,
      "ĠAn": 601,
      "asta": 602,
      "Ġfin": 603,
      "for": 604,
      "Ġcor": 605,
      "Ġeste": 606,
      "Âł": 607,
      "Ġter": 608,
      "iz": 609,
      "Ġlle": 610,
      "Ġgran": 611,
      "tica": 612,
      "sta": 613,
      "Ġmar": 614,
      "aliz": 615,
      "Ġparti": 616,
      "Ġab": 617,
      "Ġcan": 618,
      "Ġdos": 619,
      "min": 620,
      "ante": 621,
      "udad": 622,
      "ona": 623,
      "Ġcol": 624,
      "urante": 625,
      "me": 626,
      "ton": 627,
      "enta": 628,
      "ÃŃan": 629,
      "Ġsol": 630,
      "Ġesta": 631,
      "ista": 632,
      "Ġ199": 633,
      "iden": 634,
      "Ġ201": 635,
      "ario": 636,
      "ĠAr": 637,
      "Ġparte": 638,
      "ut": 639,
      "Ġpero": 640,
      "mas": 641,
      "ros": 642,
      "udi": 643,
      "lam": 644,
      "Ġap": 645,
      "onde": 646,
      "cio": 647,
      "Ġhasta": 648,
      "ĠÃ©": 649,
      "so": 650,
      "gra": 651,
      "miento": 652,
      "Ġmun": 653,
      "Ġma": 654,
      "Ġcre": 655,
      "Ġpol": 656,
      "ral": 657,
      "gos": 658,
      "gen": 659,
      "Ġprinci": 660,
      "Ġciudad": 661,
      "Ġnue": 662,
      "bl": 663,
      "Ġprodu": 664,
      "laciÃ³n": 665,
      "Ġ-": 666,
      "ĠLos": 667,
      "Ġnom": 668,
      "Ġcomp": 669,
      "Ġdesde": 670,
      "Ġemp": 671,
      "Ġfun": 672,
      "tivo": 673,
      "ĠaÃ±o": 674,
      "ĠDe": 675,
      "gr": 676,
      "ble": 677,
      "ĠÃ¡": 678,
      "ven": 679,
      "ech": 680,
      "Ġver": 681,
      "pres": 682,
      "Ġdonde": 683,
      "istor": 684,
      "br": 685,
      "ich": 686,
      "ÃŃo": 687,
      "unto": 688,
      "tico": 689,
      "Ġmayor": 690,
      "uel": 691,
      "tado": 692,
      "Ġera": 693,
      "encias": 694,
      "Ġsin": 695,
      "embre": 696,
      "ÃŃas": 697,
      "ajo": 698,
      "Ġpas": 699,
      "Ġperson": 700,
      "eo": 701,
      "ĠNa": 702,
      "gan": 703,
      "ber": 704,
      "stitu": 705,
      "able": 706,
      "Ġmen": 707,
      "iÃ³n": 708,
      "fica": 709,
      "ares": 710,
      "Ġ4": 711,
      "Ġconsi": 712,
      "ĠCar": 713,
      "Ġforma": 714,
      "dem": 715,
      "puÃ©s": 716,
      "Ġdurante": 717,
      "adores": 718,
      "ctor": 719,
      "et": 720,
      "zo": 721,
      "amiento": 722,
      "ed": 723,
      "ĊĊ": 724,
      "Ġus": 725,
      "Ġprincip": 726,
      "alidad": 727,
      "Ã±o": 728,
      "arios": 729,
      "Ġcam": 730,
      "fic": 731,
      "ora": 732,
      "Ġ198": 733,
      "sa": 734,
      "ues": 735,
      "no": 736,
      "Ġu": 737,
      "ÃŃcu": 738,
      "paÃ±ol": 739,
      "eg": 740,
      "pon": 741,
      "Ġbi": 742,
      "ĠâĢ": 743,
      "peci": 744,
      "ena": 745,
      "Ġhi": 746,
      "ll": 747,
      "ĠSu": 748,
      "argo": 749,
      "iemp": 750,
      "terior": 751,
      "ĠCom": 752,
      "lic": 753,
      "Ġten": 754,
      "ĠJu": 755,
      "Ġgener": 756,
      "paÃ±a": 757,
      "Ġincl": 758,
      "tin": 759,
      "Ġya": 760,
      "car": 761,
      "Ġ5": 762,
      "tÃ³": 763,
      "uy": 764,
      "ea": 765,
      "ĠY": 766,
      "ren": 767,
      "arro": 768,
      "rib": 769,
      "it": 770,
      "anos": 771,
      "Ġcual": 772,
      "Ġau": 773,
      "lio": 774,
      "nos": 775,
      "ala": 776,
      "Ġpe": 777,
      "Ġdist": 778,
      "arse": 779,
      "ĠPar": 780,
      "pec": 781,
      "ĠÃ": 782,
      "cho": 783,
      "ĠFran": 784,
      "ge": 785,
      "Ã³r": 786,
      "Ġcontra": 787,
      "Ġllam": 788,
      "xi": 789,
      "Ġden": 790,
      "ĠestÃ¡": 791,
      "Ãºl": 792,
      "uro": 793,
      "Ġalgun": 794,
      "Ġcer": 795,
      "anz": 796,
      "tras": 797,
      "Ã©c": 798,
      "ura": 799,
      "Ġcons": 800,
      "mos": 801,
      "gua": 802,
      "versi": 803,
      "Ġespeci": 804,
      "20": 805,
      "ine": 806,
      "ase": 807,
      "Ġoc": 808,
      "Ġqui": 809,
      "Ġad": 810,
      "Ġemb": 811,
      "Ġestado": 812,
      "Ġgo": 813,
      "Ġmon": 814,
      "ĠLe": 815,
      "lla": 816,
      "stru": 817,
      "bol": 818,
      "Ġni": 819,
      "Ġpuede": 820,
      "Ãºbl": 821,
      "Ġotros": 822,
      "ĠespaÃ±ol": 823,
      "tiva": 824,
      "Ġhac": 825,
      "Ġju": 826,
      "ja": 827,
      "Ġco": 828,
      "Ġli": 829,
      "Ġtan": 830,
      "all": 831,
      "esti": 832,
      "Ġro": 833,
      "omin": 834,
      "pen": 835,
      "Ġ197": 836,
      "Ġof": 837,
      "idad": 838,
      "tili": 839,
      "ĠpolÃŃ": 840,
      "rans": 841,
      "llo": 842,
      "ĠMa": 843,
      "ĠpaÃŃs": 844,
      "ill": 845,
      "istoria": 846,
      "and": 847,
      "ĠhabÃŃa": 848,
      "Ġcuando": 849,
      "Ġam": 850,
      "erno": 851,
      "cha": 852,
      "Ã±a": 853,
      "Ġprimera": 854,
      "Ġtr": 855,
      "Ãºlti": 856,
      "Ġimpor": 857,
      "Ġcent": 858,
      "eci": 859,
      "ard": 860,
      "ĠdespuÃ©s": 861,
      "Ġ6": 862,
      "ÃŃst": 863,
      "fÃŃa": 864,
      "Ġencu": 865,
      "Ãºs": 866,
      "dr": 867,
      "tic": 868,
      "unque": 869,
      "ĠRo": 870,
      "fi": 871,
      "Ġtras": 872,
      "be": 873,
      "Ġfueron": 874,
      "Ġactu": 875,
      "Ġprov": 876,
      "Ġlug": 877,
      "ritor": 878,
      "ular": 879,
      "Ġmismo": 880,
      "uc": 881,
      "uerra": 882,
      "Re": 883,
      "Ġmuy": 884,
      "Ġnor": 885,
      "fec": 886,
      "Ġtemp": 887,
      "Ġgru": 888,
      "dera": 889,
      "ĠX": 890,
      "ĠZ": 891,
      "Ġdo": 892,
      "Ġnombre": 893,
      "olog": 894,
      "Ġimportan": 895,
      "cen": 896,
      "iste": 897,
      "Ġlib": 898,
      "Ġconoci": 899,
      "gui": 900,
      "Ġutili": 901,
      "Ġencuent": 902,
      "Ġuno": 903,
      "alle": 904,
      "aban": 905,
      "cial": 906,
      "ĠLas": 907,
      "hi": 908,
      "Ġtrab": 909,
      "Ġprop": 910,
      "ios": 911,
      "ĠEspaÃ±a": 912,
      "Ġsuper": 913,
      "Ġreg": 914,
      "demÃ¡s": 915,
      "Ġz": 916,
      "iciÃ³n": 917,
      "Ġlleg": 918,
      "Ġvez": 919,
      "Ġtiene": 920,
      "ĠMe": 921,
      "eces": 922,
      "eros": 923,
      "antes": 924,
      "Ã³m": 925,
      "Ġequi": 926,
      "Ġreci": 927,
      "Ġra": 928,
      "ud": 929,
      "Ġdest": 930,
      "th": 931,
      "Ġcl": 932,
      "ĠÃºlti": 933,
      "ĠPor": 934,
      "taciÃ³n": 935,
      "Ġtiemp": 936,
      "bierno": 937,
      "lica": 938,
      "uego": 939,
      "pues": 940,
      "Ġ15": 941,
      "Ġanti": 942,
      "ĠasÃŃ": 943,
      "aje": 944,
      "dia": 945,
      "Ġtres": 946,
      "lu": 947,
      "Ġplan": 948,
      "Ġcul": 949,
      "oma": 950,
      "Ġher": 951,
      "Ġinf": 952,
      "Ġ196": 953,
      "ido": 954,
      "Ġtrans": 955,
      "ĠPa": 956,
      "Ġorig": 957,
      "Ġdeci": 958,
      "cur": 959,
      "vel": 960,
      "Ġ7": 961,
      "Ġdifer": 962,
      "Ġrealiz": 963,
      "oca": 964,
      "Ġ8": 965,
      "Ġsegun": 966,
      "ĠCo": 967,
      "ĠnÃº": 968,
      "Ġ17": 969,
      "Ġcomun": 970,
      "dic": 971,
      "cos": 972,
      "Ġda": 973,
      "Ġdesarro": 974,
      "Ġestudi": 975,
      "bili": 976,
      "Ġdire": 977,
      "Ġlugar": 978,
      "Ġloc": 979,
      "lia": 980,
      "Ġedi": 981,
      "atro": 982,
      "icip": 983,
      "Ġban": 984,
      "000": 985,
      "uso": 986,
      "ust": 987,
      "Ġgra": 988,
      "Ġsigui": 989,
      "ĠThe": 990,
      "Ġtu": 991,
      "Ġtodo": 992,
      "Ġpob": 993,
      "ron": 994,
      "ne": 995,
      "diÃ³": 996,
      "ap": 997,
      "Ġ9": 998,
      "istas": 999,
      "cul": 1000,
      "II": 1001,
      "Ġfran": 1002,
      "cer": 1003,
      "tÃ¡n": 1004,
      "omo": 1005,
      "atal": 1006,
      "tivos": 1007,
      "ĠCas": 1008,
      "Ġhan": 1009,
      "bido": 1010,
      "Ġcab": 1011,
      "Ġcos": 1012,
      "olu": 1013,
      "Ġelec": 1014,
      "Ġdef": 1015,
      "chos": 1016,
      "aria": 1017,
      "Ġembargo": 1018,
      "Ġvol": 1019,
      "ĠCol": 1020,
      "Ġrepres": 1021,
      "ĠCor": 1022,
      "Ġsolo": 1023,
      "Ġquien": 1024,
      "ferencias": 1025,
      "ologÃŃa": 1026,
      "Ġej": 1027,
      "gÃºn": 1028,
      "ele": 1029,
      "Ġuni": 1030,
      "mon": 1031,
      "Ġform": 1032,
      "Ġtiempo": 1033,
      "ĠBar": 1034,
      "ĠĊĊ": 1035,
      "Ã³g": 1036,
      "Ġexp": 1037,
      "tido": 1038,
      "Ġch": 1039,
      "cri": 1040,
      "Ġutiliz": 1041,
      "Ġk": 1042,
      "Ġing": 1043,
      "Ġpi": 1044,
      "inas": 1045,
      "cre": 1046,
      "Ġexter": 1047,
      "Ġcri": 1048,
      "ĠMon": 1049,
      "ĠEstados": 1050,
      "enz": 1051,
      "Ġpub": 1052,
      "men": 1053,
      "Ġsal": 1054,
      "Ġne": 1055,
      "Ġsido": 1056,
      "Ġapar": 1057,
      "Ġpes": 1058,
      "elÃŃcu": 1059,
      "erv": 1060,
      "18": 1061,
      "osa": 1062,
      "stas": 1063,
      "Ġpla": 1064,
      "Ġmej": 1065,
      "ĠPer": 1066,
      "ĠĠĠĠ": 1067,
      "entras": 1068,
      "Los": 1069,
      "cor": 1070,
      "ment": 1071,
      "tir": 1072,
      "Ġsur": 1073,
      "arias": 1074,
      "ĠUnidos": 1075,
      "Ġrela": 1076,
      "visiÃ³n": 1077,
      "Ġregi": 1078,
      "oso": 1079,
      "Ġcada": 1080,
      "dor": 1081,
      "tur": 1082,
      "oy": 1083,
      "ban": 1084,
      "istema": 1085,
      "gent": 1086,
      "adi": 1087,
      "Ġhom": 1088,
      "Ġaunque": 1089,
      "Ġ16": 1090,
      "ril": 1091,
      "ens": 1092,
      "cias": 1093,
      "ual": 1094,
      "ĠJos": 1095,
      "Ġis": 1096,
      "Ġinv": 1097,
      "200": 1098,
      "ĠNo": 1099,
      "cep": 1100,
      "tural": 1101,
      "Ã±os": 1102,
      "ĠUniversi": 1103,
      "erra": 1104,
      "tores": 1105,
      "Ġofici": 1106,
      "Ġpresiden": 1107,
      "Ġcambi": 1108,
      "fes": 1109,
      "Ġtanto": 1110,
      "Ġ194": 1111,
      "Ġacu": 1112,
      "ĠDes": 1113,
      "tion": 1114,
      "Ġ195": 1115,
      "\",": 1116,
      "vers": 1117,
      "Ġeje": 1118,
      "ticos": 1119,
      "ĠnÃºmer": 1120,
      "ĠDi": 1121,
      "tados": 1122,
      "ĠGu": 1123,
      "Ġhabi": 1124,
      "eno": 1125,
      "ĠpoblaciÃ³n": 1126,
      "Ġotras": 1127,
      "Ġmunicip": 1128,
      "ĠPro": 1129,
      "Ġmin": 1130,
      "\".": 1131,
      "laces": 1132,
      "Ġtodos": 1133,
      "cios": 1134,
      "Ġbas": 1135,
      "ĠMan": 1136,
      "val": 1137,
      "Ġmuer": 1138,
      "smo": 1139,
      "Ġ10": 1140,
      "Ġig": 1141,
      "Ġfe": 1142,
      "ama": 1143,
      "ĠQ": 1144,
      "Ġbajo": 1145,
      "Ġcomple": 1146,
      "Ġale": 1147,
      "tad": 1148,
      "bo": 1149,
      "ciÃ³": 1150,
      "Ġexternos": 1151,
      "ĠJuan": 1152,
      "cas": 1153,
      "Ġcontin": 1154,
      "ĠSi": 1155,
      "Â».": 1156,
      "ĠCi": 1157,
      "incia": 1158,
      "Ġhacia": 1159,
      "Ġllev": 1160,
      "fr": 1161,
      "ĠSin": 1162,
      "Referencias": 1163,
      "mÃ¡": 1164,
      "ticas": 1165,
      "Ġgobierno": 1166,
      "ĠJo": 1167,
      "Ġgeneral": 1168,
      "Ġ193": 1169,
      "Ġinici": 1170,
      "ques": 1171,
      "rÃ¡": 1172,
      "Enlaces": 1173,
      "Ġtor": 1174,
      "Ġvida": 1175,
      "oli": 1176,
      "Ġgrupo": 1177,
      "yo": 1178,
      "tivi": 1179,
      "Ġmis": 1180,
      "Ġencon": 1181,
      "yec": 1182,
      "pti": 1183,
      "forma": 1184,
      "pre": 1185,
      "Ġejemp": 1186,
      "Ġpueden": 1187,
      "rid": 1188,
      "litar": 1189,
      "Ġve": 1190,
      "Ġfu": 1191,
      "tera": 1192,
      "ĠNacional": 1193,
      "Ġorgan": 1194,
      "ile": 1195,
      "vir": 1196,
      "Ġescri": 1197,
      "ini": 1198,
      "ĠOr": 1199,
      "ria": 1200,
      "tantes": 1201,
      "ĠCan": 1202,
      "Ġsub": 1203,
      "Ġsistema": 1204,
      "tam": 1205,
      "Ġpues": 1206,
      "cel": 1207,
      "Ġ,": 1208,
      "oco": 1209,
      "ecu": 1210,
      "Ġese": 1211,
      "ĠMun": 1212,
      "uela": 1213,
      "ĠAle": 1214,
      "ĠMi": 1215,
      "dose": 1216,
      "ord": 1217,
      "ĠpelÃŃcu": 1218,
      "ĠÃģ": 1219,
      "Ġhum": 1220,
      "ya": 1221,
      "jos": 1222,
      "enen": 1223,
      "Ġecon": 1224,
      "Ãºblica": 1225,
      "uniden": 1226,
      "Ġgan": 1227,
      "ĠMÃ©": 1228,
      "Ġsiendo": 1229,
      "olÃ³g": 1230,
      "ĠLi": 1231,
      "Ġmundo": 1232,
      "quier": 1233,
      "..": 1234,
      "arÃŃa": 1235,
      "Ġnuevo": 1236,
      "raciÃ³n": 1237,
      "inos": 1238,
      "ĠGran": 1239,
      "Ġsitu": 1240,
      "Ġexist": 1241,
      "Ġfa": 1242,
      "eta": 1243,
      "Ġresul": 1244,
      "Ġpermi": 1245,
      "Ġestable": 1246,
      "Ġmientras": 1247,
      "Ġfami": 1248,
      "can": 1249,
      "Ġalgunos": 1250,
      "ĠMad": 1251,
      "Ġjunto": 1252,
      "ep": 1253,
      "ome": 1254,
      "tiÃ³": 1255,
      "siones": 1256,
      "Ġhistoria": 1257,
      "ĠestÃ¡n": 1258,
      "ĠCa": 1259,
      "ĠmÃºs": 1260,
      "Ġapro": 1261,
      "Ġcr": 1262,
      "ves": 1263,
      "Ġlu": 1264,
      "pital": 1265,
      "pas": 1266,
      "erio": 1267,
      "ĠnÃºmero": 1268,
      "van": 1269,
      "Ġri": 1270,
      "lor": 1271,
      "cionales": 1272,
      "ial": 1273,
      "zas": 1274,
      "tonces": 1275,
      "tud": 1276,
      "Ġhech": 1277,
      "Ġven": 1278,
      "dio": 1279,
      "Ġhay": 1280,
      "gn": 1281,
      "ĠCu": 1282,
      "iemb": 1283,
      "ĠGo": 1284,
      "Ġestadouniden": 1285,
      "Ġjun": 1286,
      "ĠAs": 1287,
      "ĠEuro": 1288,
      "vos": 1289,
      "Ġrey": 1290,
      "biÃ³": 1291,
      "Ã¡c": 1292,
      "mar": 1293,
      "ĠJosÃ©": 1294,
      "und": 1295,
      "Ġproces": 1296,
      "ĠCam": 1297,
      "Ġcal": 1298,
      "adre": 1299,
      "fe": 1300,
      "Ġfi": 1301,
      "Ġbien": 1302,
      "Ġrom": 1303,
      "Ġantes": 1304,
      "illa": 1305,
      "ĠPo": 1306,
      "ĠTo": 1307,
      "Ġestos": 1308,
      "Ġpoder": 1309,
      "ex": 1310,
      "ĠdÃŃa": 1311,
      "cidad": 1312,
      "Ġprovincia": 1313,
      "ha": 1314,
      "xico": 1315,
      "Ġtrabaj": 1316,
      "Ġbar": 1317,
      "Ġmus": 1318,
      "Ġdestac": 1319,
      "lb": 1320,
      "gar": 1321,
      "Ġconstru": 1322,
      "ĠtÃŃ": 1323,
      "ias": 1324,
      "str": 1325,
      "Ã©rica": 1326,
      "pios": 1327,
      "dencia": 1328,
      "Ġpeque": 1329,
      "volu": 1330,
      "ĠFe": 1331,
      "Ġencuentra": 1332,
      "ĠEste": 1333,
      "che": 1334,
      "cto": 1335,
      "ĠUniversidad": 1336,
      "jer": 1337,
      "Ġrecon": 1338,
      "ĠBo": 1339,
      "Ġclas": 1340,
      "Ġmejor": 1341,
      "Ġ12": 1342,
      "ĠMo": 1343,
      "Ġfinal": 1344,
      "Ġ|": 1345,
      "onal": 1346,
      "Ġpartici": 1347,
      "Ġguerra": 1348,
      "vas": 1349,
      "Ġentonces": 1350,
      "Ġtar": 1351,
      "Ġjug": 1352,
      "dial": 1353,
      "Ġterritor": 1354,
      "ĠSa": 1355,
      "Ġdebido": 1356,
      "riÃ³": 1357,
      "cimiento": 1358,
      "com": 1359,
      "ĠSal": 1360,
      "ĠInter": 1361,
      "fa": 1362,
      "199": 1363,
      "Es": 1364,
      "Ġotro": 1365,
      "Ġ14": 1366,
      "ts": 1367,
      "ece": 1368,
      "Ġnorte": 1369,
      "Ġentr": 1370,
      "Ġvarios": 1371,
      "eb": 1372,
      "uen": 1373,
      "Ġserie": 1374,
      "lbum": 1375,
      "ancia": 1376,
      "Ġincluy": 1377,
      "ental": 1378,
      "ste": 1379,
      "ĠÃ©p": 1380,
      "Ġcomenz": 1381,
      "col": 1382,
      "ida": 1383,
      "ĠTi": 1384,
      "ĠÃºn": 1385,
      "Ġobje": 1386,
      "ell": 1387,
      "bilidad": 1388,
      "ĠademÃ¡s": 1389,
      "ĠÃ©l": 1390,
      "turas": 1391,
      "Ġestaba": 1392,
      "tada": 1393,
      "Ã¼": 1394,
      "rea": 1395,
      "Ġpueb": 1396,
      "Ġpresent": 1397,
      "ĠAm": 1398,
      "atri": 1399,
      "ible": 1400,
      "Ġdiri": 1401,
      "Ġzona": 1402,
      "Ġthe": 1403,
      "dida": 1404,
      "Ġconf": 1405,
      "Ġval": 1406,
      "Ġmes": 1407,
      "Ġobra": 1408,
      "Ġservi": 1409,
      "Â»,": 1410,
      "Ġpublic": 1411,
      "minist": 1412,
      "adio": 1413,
      "Ġrepresent": 1414,
      "ĠrÃŃo": 1415,
      "este": 1416,
      "Ġinte": 1417,
      "uri": 1418,
      "Ġdere": 1419,
      "Ġcomer": 1420,
      "Ġru": 1421,
      "Ġsiglo": 1422,
      "vÃ©s": 1423,
      "Ġcarac": 1424,
      "Ġequipo": 1425,
      "cido": 1426,
      "Ġpal": 1427,
      "Ġtempor": 1428,
      "bres": 1429,
      "ogra": 1430,
      "ĠMÃ©xico": 1431,
      "Ġneces": 1432,
      "Ġejemplo": 1433,
      "cis": 1434,
      "ula": 1435,
      "10": 1436,
      "fo": 1437,
      "Ġdici": 1438,
      "tamente": 1439,
      "Ġfr": 1440,
      "Ġcin": 1441,
      "cent": 1442,
      "Ġtoda": 1443,
      "cal": 1444,
      "Ġante": 1445,
      "mientos": 1446,
      "gres": 1447,
      "anza": 1448,
      "Ġpersonas": 1449,
      "ĠLo": 1450,
      "ĠTambiÃ©n": 1451,
      "Ġnivel": 1452,
      "Ġorigin": 1453,
      "Ġ13": 1454,
      "ck": 1455,
      "bra": 1456,
      "Ġmilitar": 1457,
      "ĠIs": 1458,
      "Ġgrandes": 1459,
      "ĠtÃ©r": 1460,
      "Ġcuatro": 1461,
      "Ġqu": 1462,
      "Ġapo": 1463,
      "dido": 1464,
      "var": 1465,
      "ĠSo": 1466,
      "lar": 1467,
      "depen": 1468,
      "Ġcuenta": 1469,
      "fico": 1470,
      "tante": 1471,
      "Ġmom": 1472,
      "Ġestadounidense": 1473,
      "ĠVal": 1474,
      "tubre": 1475,
      "Ġpop": 1476,
      "ptiembre": 1477,
      "Ġder": 1478,
      "ciden": 1479,
      "Ġpresidente": 1480,
      "ĠtravÃ©s": 1481,
      "Ġdeb": 1482,
      "ang": 1483,
      "Ġtuvo": 1484,
      "Ġ.": 1485,
      "vil": 1486,
      "Ġmayo": 1487,
      "Ġorden": 1488,
      "sto": 1489,
      "Las": 1490,
      "duc": 1491,
      "Ġtipo": 1492,
      "Ġmiemb": 1493,
      "Ġand": 1494,
      "ĠPe": 1495,
      "Ġaf": 1496,
      "izo": 1497,
      "Ġprincipal": 1498,
      "mio": 1499,
      "ĠMadrid": 1500,
      "chas": 1501,
      "ĠNor": 1502,
      "Ġlen": 1503,
      "Ġtom": 1504,
      "Ġpartir": 1505,
      "ĠlÃŃ": 1506,
      "nacional": 1507,
      "Ġcontro": 1508,
      "rado": 1509,
      "ior": 1510,
      "gor": 1511,
      "zar": 1512,
      "erÃŃa": 1513,
      "Ġ192": 1514,
      "Ã©rci": 1515,
      "uis": 1516,
      "Ġautor": 1517,
      "ĠÃ©poca": 1518,
      "toria": 1519,
      "ki": 1520,
      "dÃŃa": 1521,
      "ĠNe": 1522,
      "tivas": 1523,
      "ĠNue": 1524,
      "posi": 1525,
      "omÃŃa": 1526,
      "Ġele": 1527,
      "Ġsen": 1528,
      "Ġprogra": 1529,
      "Ġseptiembre": 1530,
      "ĠpelÃŃcula": 1531,
      "Ġnovi": 1532,
      "sis": 1533,
      "Ġmill": 1534,
      "Ġba": 1535,
      "ice": 1536,
      "bier": 1537,
      "Ġimportante": 1538,
      "lÃ©s": 1539,
      "Ġoctubre": 1540,
      "ĠFrancia": 1541,
      "Ġeran": 1542,
      "ĠCent": 1543,
      "lesia": 1544,
      "Ġjulio": 1545,
      "Ġmenos": 1546,
      "ĠPre": 1547,
      "gosto": 1548,
      "ĠSanta": 1549,
      "mÃ¡n": 1550,
      "Ġasi": 1551,
      "Ġins": 1552,
      "ho": 1553,
      "Ġgol": 1554,
      "tri": 1555,
      "Ġconsider": 1556,
      "ĠÃ¡lbum": 1557,
      "gentina": 1558,
      "udo": 1559,
      "Ġdiciembre": 1560,
      "Ã¡r": 1561,
      "emp": 1562,
      "Ġenero": 1563,
      "Ã©ase": 1564,
      "Ã³lo": 1565,
      "ĠmayorÃŃa": 1566,
      "Ġnacional": 1567,
      "istÃ³r": 1568,
      "ficaciÃ³n": 1569,
      "Ġjunio": 1570,
      "Al": 1571,
      "Ġpartido": 1572,
      "Ġellos": 1573,
      "âĢĿ": 1574,
      "rag": 1575,
      "Ġmuerte": 1576,
      "Ġmer": 1577,
      "izaciÃ³n": 1578,
      "ĠseÃ±": 1579,
      "uerto": 1580,
      "ĠsegÃºn": 1581,
      "ajes": 1582,
      "Ġmarzo": 1583,
      "ĠVi": 1584,
      "ke": 1585,
      "dust": 1586,
      "Ġantigu": 1587,
      "ĠEstado": 1588,
      "Ġcaus": 1589,
      "erdo": 1590,
      "ografÃŃa": 1591,
      "Ġ11": 1592,
      "chi": 1593,
      "ĠlÃŃn": 1594,
      "Ġmuchos": 1595,
      "edad": 1596,
      "ĠBa": 1597,
      "teriormente": 1598,
      "Ġagosto": 1599,
      "Ġet": 1600,
      "brero": 1601,
      "ĠâĢĶ": 1602,
      "Ġefec": 1603,
      "pera": 1604,
      "Ġcentro": 1605,
      "ĠEsta": 1606,
      "Con": 1607,
      "pÃºblica": 1608,
      "Ġcele": 1609,
      "Ġproyec": 1610,
      "asi": 1611,
      "erg": 1612,
      "pol": 1613,
      "lÃŃ": 1614,
      "Ġmunicipio": 1615,
      "Ġcaso": 1616,
      "rera": 1617,
      "Ġreli": 1618,
      "Ġdentro": 1619,
      "ĠpÃºbl": 1620,
      "Ġunos": 1621,
      "uda": 1622,
      "Ġfil": 1623,
      "Ġencontr": 1624,
      "Ġdej": 1625,
      "lig": 1626,
      "Ġcapa": 1627,
      "Ġay": 1628,
      "Ġactivi": 1629,
      "Ġmovi": 1630,
      "una": 1631,
      "Ġempres": 1632,
      "Ġmedio": 1633,
      "Ġabril": 1634,
      "Ġide": 1635,
      "Ġcontinu": 1636,
      "ĠinglÃ©s": 1637,
      "Ġhace": 1638,
      "ĠUn": 1639,
      "Ġhacer": 1640,
      "ĠII": 1641,
      "grafÃŃa": 1642,
      "Ġotra": 1643,
      "dÃ³": 1644,
      "Ġocu": 1645,
      "ĠpolÃŃtica": 1646,
      "De": 1647,
      "Ġnoviembre": 1648,
      "Ġlanz": 1649,
      "ĠâĢľ": 1650,
      "Ġbanda": 1651,
      "ĠregiÃ³n": 1652,
      "mpli": 1653,
      "ical": 1654,
      "Ġtri": 1655,
      "ĠEx": 1656,
      "ka": 1657,
      "Ã©rcito": 1658,
      "Ġuso": 1659,
      "Ġub": 1660,
      "til": 1661,
      "Ġsigni": 1662,
      "17": 1663,
      "tio": 1664,
      "15": 1665,
      "ĠsÃŃ": 1666,
      "Ġbri": 1667,
      "Ġluego": 1668,
      "Ġint": 1669,
      "Ġley": 1670,
      "ĠmÃºsica": 1671,
      "jas": 1672,
      "Ġconstitu": 1673,
      "Ġsegundo": 1674,
      "Ġmanera": 1675,
      "Ġdistin": 1676,
      "gas": 1677,
      "ciales": 1678,
      "pÃ³": 1679,
      "Ġsue": 1680,
      "Ġtienen": 1681,
      "ĠPri": 1682,
      "Ġpun": 1683,
      "Ġconvir": 1684,
      "Ġvo": 1685,
      "Ġmomento": 1686,
      "Ġestas": 1687,
      "Se": 1688,
      "Ġcapital": 1689,
      "Ġw": 1690,
      "ĠeconÃ³m": 1691,
      "tario": 1692,
      "Ġagua": 1693,
      "ĠMarÃŃa": 1694,
      "Ġliber": 1695,
      "via": 1696,
      "Ġat": 1697,
      "Ġlargo": 1698,
      "ĠRa": 1699,
      "ĠdÃ©c": 1700,
      "Ġtele": 1701,
      "tÃŃn": 1702,
      "Ġdiferentes": 1703,
      "posiciÃ³n": 1704,
      "viÃ³": 1705,
      "Ġhecho": 1706,
      "ĠDa": 1707,
      "ruc": 1708,
      "Ġ0": 1709,
      "Ġmillones": 1710,
      "ty": 1711,
      "eza": 1712,
      "ĠGuerra": 1713,
      "osos": 1714,
      "bar": 1715,
      "VÃ©ase": 1716,
      "ĠmÃ©": 1717,
      "Ġcomi": 1718,
      "tÃ¡": 1719,
      "Ġamb": 1720,
      "Ġdich": 1721,
      "tbol": 1722,
      "Ġsegunda": 1723,
      "ĠCl": 1724,
      "uir": 1725,
      "Ġvarias": 1726,
      "Ġmujer": 1727,
      "tec": 1728,
      "ĠCarlos": 1729,
      "ĠPara": 1730,
      "tidad": 1731,
      "Ġindi": 1732,
      "Des": 1733,
      "onia": 1734,
      "usi": 1735,
      "ĠTor": 1736,
      "tulo": 1737,
      "In": 1738,
      "abor": 1739,
      "cidos": 1740,
      "Ġespec": 1741,
      "pro": 1742,
      "Ġata": 1743,
      "erro": 1744,
      "Ġhizo": 1745,
      "adu": 1746,
      "ĠChile": 1747,
      "Ġpie": 1748,
      "ilo": 1749,
      "Ġag": 1750,
      "ry": 1751,
      "pel": 1752,
      "Âº": 1753,
      "Ġsiguiente": 1754,
      "dal": 1755,
      "anas": 1756,
      "rio": 1757,
      "Ġfebrero": 1758,
      "Ãºtbol": 1759,
      "Ġfamilia": 1760,
      "bern": 1761,
      "vor": 1762,
      "ĠtenÃŃa": 1763,
      "Ġmisma": 1764,
      "Ã¡m": 1765,
      "Ġtrabajo": 1766,
      "ĠPla": 1767,
      "bia": 1768,
      "ruz": 1769,
      "Ġdenomin": 1770,
      "Ġprote": 1771,
      "12": 1772,
      "tran": 1773,
      "ĠÃºltimo": 1774,
      "ĠmÃ¡": 1775,
      "Ġalgunas": 1776,
      "Ġdirigi": 1777,
      "Ġnueva": 1778,
      "Ġpunto": 1779,
      "16": 1780,
      "hn": 1781,
      "Ã©cn": 1782,
      "Ġtermin": 1783,
      "ger": 1784,
      "Ġconj": 1785,
      "Ġpoco": 1786,
      "Ġtal": 1787,
      "ola": 1788,
      "Ġnatural": 1789,
      "Ġespa": 1790,
      "Ġcuer": 1791,
      "Ġexten": 1792,
      "Ġles": 1793,
      "utbol": 1794,
      "198": 1795,
      "icamente": 1796,
      "Ġsa": 1797,
      "Ġaque": 1798,
      "tamiento": 1799,
      "ĠMor": 1800,
      "tel": 1801,
      "Ġobras": 1802,
      "Ġdesarrollo": 1803,
      "Ġperio": 1804,
      "aja": 1805,
      "Ġtodas": 1806,
      "Ġhaber": 1807,
      "Ġcier": 1808,
      "Ġdesarroll": 1809,
      "Ġdecl": 1810,
      "ono": 1811,
      "Ġvisi": 1812,
      "Ã±as": 1813,
      "tÃŃcu": 1814,
      "Ġrefer": 1815,
      "pan": 1816,
      "Ġhor": 1817,
      "Ġref": 1818,
      "tener": 1819,
      "ĠRepÃºblica": 1820,
      "tia": 1821,
      "Ġorigen": 1822,
      "dam": 1823,
      "deo": 1824,
      "form": 1825,
      "mil": 1826,
      "Ġoficial": 1827,
      "Ġdivers": 1828,
      "ĠGar": 1829,
      "Ġtarde": 1830,
      "uido": 1831,
      "cÃ©s": 1832,
      "ĠpaÃŃses": 1833,
      "mento": 1834,
      "quer": 1835,
      "ph": 1836,
      "pl": 1837,
      "Ġsocial": 1838,
      "Ġgri": 1839,
      "ĠtÃ©rm": 1840,
      "Ġreligi": 1841,
      "Ġ25": 1842,
      "Ġ||": 1843,
      "Ġhabitantes": 1844,
      "umer": 1845,
      "Ġprofes": 1846,
      "bles": 1847,
      "Ġprimeros": 1848,
      "Ġveces": 1849,
      "Ġprincipales": 1850,
      "Ġindust": 1851,
      "ĠEuropa": 1852,
      "14": 1853,
      "Ġinst": 1854,
      "ĠbritÃ¡n": 1855,
      "ire": 1856,
      "uegos": 1857,
      "âĢĶ": 1858,
      "Ġmediante": 1859,
      "ĠhistÃ³r": 1860,
      "dado": 1861,
      "Ġdise": 1862,
      "porte": 1863,
      "dica": 1864,
      "ĠdÃŃas": 1865,
      "bas": 1866,
      "Ġmor": 1867,
      "Ġtro": 1868,
      "ĠImp": 1869,
      "Ġella": 1870,
      "Ġesto": 1871,
      "ĠHer": 1872,
      "ĠHa": 1873,
      "guas": 1874,
      "Ġlogr": 1875,
      "Ġindepen": 1876,
      "Ġproble": 1877,
      "gue": 1878,
      "ĠFrancis": 1879,
      "Ġtemporada": 1880,
      "Ġexper": 1881,
      "Ġpueblo": 1882,
      "Ġdomin": 1883,
      "Ġmoder": 1884,
      "icano": 1885,
      "Ġconocido": 1886,
      "Ã¡ndose": 1887,
      "ĠLuis": 1888,
      "ĠMus": 1889,
      "Ġllamado": 1890,
      "Ġcir": 1891,
      "tivamente": 1892,
      "ĠFue": 1893,
      "Ġfal": 1894,
      "Ġpin": 1895,
      "Ã³l": 1896,
      "irm": 1897,
      "Ġelem": 1898,
      "Ġposi": 1899,
      "tando": 1900,
      "edro": 1901,
      "Ġcuales": 1902,
      "Ġcasi": 1903,
      "partam": 1904,
      "):": 1905,
      "ĠAnton": 1906,
      "icana": 1907,
      "terÃŃst": 1908,
      "tali": 1909,
      "ĠArgentina": 1910,
      "Ġderro": 1911,
      "osas": 1912,
      "mana": 1913,
      "ÃŃos": 1914,
      "Ġestre": 1915,
      "formaciÃ³n": 1916,
      "ko": 1917,
      "Ġconoc": 1918,
      "emas": 1919,
      "gel": 1920,
      "Ġtotal": 1921,
      "Ġanim": 1922,
      "ĠÃ©xi": 1923,
      "ĠpolÃŃtico": 1924,
      "cado": 1925,
      "ĊĠ": 1926,
      "ĠFern": 1927,
      "Ġpl": 1928,
      "sos": 1929,
      "ff": 1930,
      "xim": 1931,
      "taba": 1932,
      "13": 1933,
      "ĠIg": 1934,
      "ĠproducciÃ³n": 1935,
      "ĠMundial": 1936,
      "lec": 1937,
      "ribu": 1938,
      "ĠfrancÃ©s": 1939,
      "ĠcrÃŃ": 1940,
      "Ã©tica": 1941,
      "asa": 1942,
      "ĠTh": 1943,
      "ĠNueva": 1944,
      "Ġdescu": 1945,
      "tÃ³n": 1946,
      "arca": 1947,
      "mor": 1948,
      "ardo": 1949,
      "Ġur": 1950,
      "tales": 1951,
      "one": 1952,
      "diente": 1953,
      "Ġinterpre": 1954,
      "Ġsino": 1955,
      "Ġdivi": 1956,
      "Ġtener": 1957,
      "Ġ30": 1958,
      "Ġadminist": 1959,
      "dar": 1960,
      "Ġconsidera": 1961,
      "Ġ2000": 1962,
      "ĠPol": 1963,
      "mania": 1964,
      "gaciÃ³n": 1965,
      "Ġcap": 1966,
      "rez": 1967,
      "canz": 1968,
      "iga": 1969,
      "Ġinvesti": 1970,
      "Ġrespec": 1971,
      "Ġhijo": 1972,
      "Ġevi": 1973,
      "ĠHo": 1974,
      "Ġmode": 1975,
      "teriores": 1976,
      "ere": 1977,
      "Ġfre": 1978,
      "rede": 1979,
      "idades": 1980,
      "Ġaum": 1981,
      "Ġfrente": 1982,
      "sion": 1983,
      "puesta": 1984,
      "gal": 1985,
      "Ġestruc": 1986,
      "Ġarti": 1987,
      "Ġperten": 1988,
      "ĠcompaÃ±": 1989,
      "ĠhabÃŃan": 1990,
      ".,": 1991,
      "eras": 1992,
      "onas": 1993,
      "ĠAdemÃ¡s": 1994,
      "Ġproceso": 1995,
      "Ġconver": 1996,
      "monio": 1997,
      "tis": 1998,
      "ĠJa": 1999,
      "Ġcuar": 2000,
      "Ġexpres": 2001,
      "Ġpesar": 2002,
      "ĠCri": 2003,
      "Ġsan": 2004,
      "Ġ190": 2005,
      "Ġterritorio": 2006,
      "mentos": 2007,
      "esta": 2008,
      "Ġsali": 2009,
      "tiene": 2010,
      "are": 2011,
      "Ġ=": 2012,
      "enda": 2013,
      "iso": 2014,
      "Ġalcanz": 2015,
      "ĠtÃ©rmino": 2016,
      "ork": 2017,
      "ĠTe": 2018,
      "Ġdisco": 2019,
      "Ġtradi": 2020,
      "Ġmateri": 2021,
      "tag": 2022,
      "ond": 2023,
      "Ġimportantes": 2024,
      "Ġaut": 2025,
      "inado": 2026,
      "taciones": 2027,
      "Ġclub": 2028,
      "Ġbase": 2029,
      "Ġpalab": 2030,
      "Ġobs": 2031,
      "icaciÃ³n": 2032,
      "ĠReal": 2033,
      "ĠTer": 2034,
      "Ġ202": 2035,
      "teni": 2036,
      "ĠconstrucciÃ³n": 2037,
      "ĠdÃ©cada": 2038,
      "ĠPedro": 2039,
      "Ġcine": 2040,
      "Ġren": 2041,
      "ĠFrancisco": 2042,
      "ĠSh": 2043,
      "voluciÃ³n": 2044,
      "ft": 2045,
      "adamente": 2046,
      "Ġcompar": 2047,
      "nas": 2048,
      "tuvo": 2049,
      "fon": 2050,
      "Ġcontrol": 2051,
      "Ġgen": 2052,
      "=\"": 2053,
      "ira": 2054,
      "cÃŃa": 2055,
      "ĠtÃ©cn": 2056,
      "Ġactual": 2057,
      "ĠlÃŃnea": 2058,
      "Ġisla": 2059,
      "vent": 2060,
      "Ġfinales": 2061,
      "Ġnumer": 2062,
      "Ġreal": 2063,
      "Ġubic": 2064,
      "atalla": 2065,
      "aran": 2066,
      "gado": 2067,
      "Ġprograma": 2068,
      "ric": 2069,
      "Ġincluso": 2070,
      "leo": 2071,
      "bur": 2072,
      "Ġcinco": 2073,
      "Ġmil": 2074,
      "Ġpadre": 2075,
      "Ġdebe": 2076,
      "Ġfrecu": 2077,
      "termin": 2078,
      "pciÃ³n": 2079,
      "ĠSoci": 2080,
      "Ġpen": 2081,
      "ĠSer": 2082,
      "od": 2083,
      "omas": 2084,
      "Ġgu": 2085,
      "Ġconstr": 2086,
      "cir": 2087,
      "ĠBer": 2088,
      "ÃŃgen": 2089,
      "Ġescritor": 2090,
      "ĠCal": 2091,
      "Ġreconoci": 2092,
      "vieron": 2093,
      "ĠPres": 2094,
      "onor": 2095,
      "iempre": 2096,
      "Ġigual": 2097,
      "Ġpapel": 2098,
      "ctores": 2099,
      "Ġgobern": 2100,
      "udades": 2101,
      "paciÃ³n": 2102,
      "Ġmiembros": 2103,
      "xto": 2104,
      "Ġporque": 2105,
      "Ġatra": 2106,
      "Ġbo": 2107,
      "Ġdecir": 2108,
      "Ġesa": 2109,
      "Ġrecu": 2110,
      "bir": 2111,
      "Ġ2005": 2112,
      "vista": 2113,
      "Ġgui": 2114,
      "ale": 2115,
      "ĠTra": 2116,
      "ĠversiÃ³n": 2117,
      "dez": 2118,
      "id": 2119,
      "ĠJohn": 2120,
      "puesto": 2121,
      "Ġestu": 2122,
      "Ġacuerdo": 2123,
      "diciÃ³n": 2124,
      "rito": 2125,
      "ensa": 2126,
      "ĠtÃŃtulo": 2127,
      "Ġ2006": 2128,
      "laz": 2129,
      "land": 2130,
      "ĠcomenzÃ³": 2131,
      "adora": 2132,
      "eas": 2133,
      "ple": 2134,
      "Ġir": 2135,
      "torio": 2136,
      "11": 2137,
      "ĠAntonio": 2138,
      "Ġlado": 2139,
      "Ġcasa": 2140,
      "ĠSol": 2141,
      "Ġdeclar": 2142,
      "ĠWil": 2143,
      "ables": 2144,
      "Historia": 2145,
      "ĠUna": 2146,
      "ĠcaracterÃŃst": 2147,
      "ĠrelaciÃ³n": 2148,
      "ĠcomÃºn": 2149,
      "Ġcate": 2150,
      "tt": 2151,
      "No": 2152,
      "ĠGener": 2153,
      "Ġpose": 2154,
      "Ġblan": 2155,
      "Â°": 2156,
      "Ġitali": 2157,
      "Ġfuera": 2158,
      "Ġmucho": 2159,
      "Ġposible": 2160,
      "50": 2161,
      "Ġalrede": 2162,
      "bri": 2163,
      "Ġah": 2164,
      "Ġpropie": 2165,
      "Ar": 2166,
      "ĠAmÃ©rica": 2167,
      "ĠÃ©xito": 2168,
      "Ġsuperfici": 2169,
      "Ġcerca": 2170,
      "bor": 2171,
      "Ġedifici": 2172,
      "Ġgrupos": 2173,
      "ĠGre": 2174,
      "ers": 2175,
      "Ġinflu": 2176,
      "fun": 2177,
      "vier": 2178,
      "197": 2179,
      "vÃŃa": 2180,
      "ĠGe": 2181,
      "Ġdirec": 2182,
      "Ġpan": 2183,
      "Ġneg": 2184,
      "Ġperman": 2185,
      "erva": 2186,
      "Ġbus": 2187,
      "Ġcambio": 2188,
      "tual": 2189,
      "Ġ2010": 2190,
      "Ġcat": 2191,
      "Ġge": 2192,
      "ĠLib": 2193,
      "Ġdu": 2194,
      "ĠIS": 2195,
      "tiz": 2196,
      "ĠllegÃ³": 2197,
      "Ġ2007": 2198,
      "tino": 2199,
      "ĠespaÃ±ola": 2200,
      "Ġsiempre": 2201,
      "ĠPerÃº": 2202,
      "celona": 2203,
      "Ġkm": 2204,
      "atrimonio": 2205,
      "Ġases": 2206,
      "zÃ³n": 2207,
      "Ġsegui": 2208,
      "ĠBe": 2209,
      "ĠcÃ³": 2210,
      "aco": 2211,
      "Ġcolor": 2212,
      "Ġcorres": 2213,
      "ĠconvirtiÃ³": 2214,
      "ulares": 2215,
      "ĠAlemania": 2216,
      "Ġsepar": 2217,
      "ĠCopa": 2218,
      "Ġ24": 2219,
      "Ġpropio": 2220,
      "Ġpodr": 2221,
      "ĠClub": 2222,
      "ĠReino": 2223,
      "echa": 2224,
      "Ã¡g": 2225,
      "dra": 2226,
      "Ġnombr": 2227,
      "bu": 2228,
      "ris": 2229,
      "Ġ189": 2230,
      "Ġencuentran": 2231,
      "Ġmuchas": 2232,
      "Ġredu": 2233,
      "urope": 2234,
      "Ġteor": 2235,
      "istro": 2236,
      "Ġdescri": 2237,
      "esa": 2238,
      "Ã¡pi": 2239,
      "Ġestudio": 2240,
      "uenos": 2241,
      "ĠĊĠĊ": 2242,
      "ĠLu": 2243,
      "Ġ2004": 2244,
      "ĠPartido": 2245,
      "Ġregres": 2246,
      "Ġcualquier": 2247,
      "rÃ³": 2248,
      "ign": 2249,
      "Ġva": 2250,
      "daciÃ³n": 2251,
      "Ġdetermin": 2252,
      "Ġcli": 2253,
      "ong": 2254,
      "An": 2255,
      "Ġdio": 2256,
      "Ġfavor": 2257,
      "Ġfig": 2258,
      "cin": 2259,
      "Ġconserv": 2260,
      "ack": 2261,
      "talia": 2262,
      "Ġmues": 2263,
      "Ġmal": 2264,
      "Ġestilo": 2265,
      "taron": 2266,
      "iÃ³": 2267,
      "alidades": 2268,
      "partamento": 2269,
      "ĠprÃ¡c": 2270,
      "Ġdedic": 2271,
      "Ġello": 2272,
      "tiago": 2273,
      "Ġconjunto": 2274,
      "âĢĵ": 2275,
      "Ġori": 2276,
      "Ã©l": 2277,
      "Ġpuesto": 2278,
      "Ġaquel": 2279,
      "ĠDurante": 2280,
      "ĠserÃŃa": 2281,
      "aca": 2282,
      "ĠMin": 2283,
      "gido": 2284,
      "Ġhistor": 2285,
      "ĠSur": 2286,
      "stituciÃ³n": 2287,
      "ires": 2288,
      "ĠVen": 2289,
      "Ġ2008": 2290,
      "Ġfrances": 2291,
      "ĠTa": 2292,
      "Ġlibro": 2293,
      "Ġgrie": 2294,
      "ĠejÃ©rcito": 2295,
      "Ġcargo": 2296,
      "ducaciÃ³n": 2297,
      "ĠBarcelona": 2298,
      "Ġextra": 2299,
      "Ġmovimiento": 2300,
      "Ġsuf": 2301,
      "Ġfutbol": 2302,
      "vela": 2303,
      "Ġclasi": 2304,
      "ĠUniÃ³n": 2305,
      "Ġprincipalmente": 2306,
      "Ġbu": 2307,
      "Ġllamada": 2308,
      "ĠMu": 2309,
      "inaciÃ³n": 2310,
      "Ġciudades": 2311,
      "ĠgÃ©n": 2312,
      "Ġinten": 2313,
      "ultura": 2314,
      "Ġprincipios": 2315,
      "Ġofre": 2316,
      "Ġetc": 2317,
      "Ġdirector": 2318,
      "diciones": 2319,
      "orge": 2320,
      "Ġvic": 2321,
      "ĠCasti": 2322,
      "Ġiden": 2323,
      "Ġdocu": 2324,
      "ĠpÃºblico": 2325,
      "stante": 2326,
      "Ġesp": 2327,
      "su": 2328,
      "Ġambos": 2329,
      "Ġsoci": 2330,
      "bis": 2331,
      "Ġenerg": 2332,
      "peona": 2333,
      "Ġambi": 2334,
      "Ġsiguientes": 2335,
      "Ġcarrera": 2336,
      "ĠPrimer": 2337,
      "BN": 2338,
      "Ġenfr": 2339,
      "Ġsignifica": 2340,
      "ĠÃºltima": 2341,
      "ĠHar": 2342,
      "Ġsimil": 2343,
      "Ġvari": 2344,
      "Ġvuel": 2345,
      "bal": 2346,
      "turales": 2347,
      "alizaciÃ³n": 2348,
      "Ġcompe": 2349,
      "ĠAc": 2350,
      "aliza": 2351,
      "grÃ¡": 2352,
      "Ġaband": 2353,
      "Ġespecies": 2354,
      "tific": 2355,
      "Ġcampo": 2356,
      "dico": 2357,
      "greso": 2358,
      "Ġfuncion": 2359,
      "Ã¡li": 2360,
      "Ġ'": 2361,
      "Ġescu": 2362,
      "ĠAt": 2363,
      "Ġencar": 2364,
      "olÃŃ": 2365,
      "igo": 2366,
      "trodu": 2367,
      "ÃŃm": 2368,
      "Na": 2369,
      "ion": 2370,
      "Ġagr": 2371,
      "ĠÃ¡rea": 2372,
      "ĠFin": 2373,
      "Ġemple": 2374,
      "Ġarqui": 2375,
      "|-": 2376,
      "Ġconsecu": 2377,
      "ĠaÃºn": 2378,
      "entemente": 2379,
      "rÃŃa": 2380,
      "del": 2381,
      "Ġcomb": 2382,
      "Ġcuerpo": 2383,
      "ĠSantiago": 2384,
      "ht": 2385,
      "Ġjuego": 2386,
      "ĠfÃŃs": 2387,
      "Ġanterior": 2388,
      "ĠAu": 2389,
      "Ġ188": 2390,
      "Ġacep": 2391,
      "iones": 2392,
      "Ġsegu": 2393,
      "Ġvar": 2394,
      "ĠtelevisiÃ³n": 2395,
      "ĠEsto": 2396,
      "Su": 2397,
      "ĠEntre": 2398,
      "Ġrelacion": 2399,
      "ĠâĢĵ": 2400,
      "ĠperÃŃo": 2401,
      "30": 2402,
      "Ġ2009": 2403,
      "ĠFor": 2404,
      "cil": 2405,
      "illo": 2406,
      "ĠYork": 2407,
      "tero": 2408,
      "Ġenfer": 2409,
      "Ã©tico": 2410,
      "Ġproduc": 2411,
      "Ġado": 2412,
      "ĠPremio": 2413,
      "ick": 2414,
      "ĠImperio": 2415,
      "entÃŃ": 2416,
      "Ġalrededor": 2417,
      "bert": 2418,
      "Ġproyecto": 2419,
      "Ġpartic": 2420,
      "est": 2421,
      "ĠAust": 2422,
      "Ġmodo": 2423,
      "Ġresto": 2424,
      "Ġ2003": 2425,
      "reas": 2426,
      "ĠfÃºtbol": 2427,
      "Ġdesa": 2428,
      "Ġ2011": 2429,
      "Ġeurope": 2430,
      "Ġelecciones": 2431,
      "diendo": 2432,
      "Ġ22": 2433,
      "...": 2434,
      "ĠMig": 2435,
      "Ġpopular": 2436,
      "Ġdepen": 2437,
      "Ġhombres": 2438,
      "ĠItalia": 2439,
      "Est": 2440,
      "Ġcur": 2441,
      "Ġmeses": 2442,
      "Ġgas": 2443,
      "ĠCiudad": 2444,
      "guay": 2445,
      "Ġvalor": 2446,
      "ima": 2447,
      "hu": 2448,
      "Ġsea": 2449,
      "Ġbatalla": 2450,
      "Ã³nica": 2451,
      "dero": 2452,
      "Ġon": 2453,
      "licaciÃ³n": 2454,
      "anto": 2455,
      "ler": 2456,
      "Ġespecialmente": 2457,
      "ĠAires": 2458,
      "Ġtur": 2459,
      "ĠVir": 2460,
      "Ġos": 2461,
      "Ġpuntos": 2462,
      "Ġreun": 2463,
      "Ġauto": 2464,
      "trÃ³": 2465,
      "ines": 2466,
      "Ġmetros": 2467,
      "Ġima": 2468,
      "Ġproce": 2469,
      "ĠISBN": 2470,
      "ĠMartÃŃn": 2471,
      "Ġemi": 2472,
      "ciendo": 2473,
      "stan": 2474,
      "ĠIglesia": 2475,
      "ĠĠĠĠĠĠĠĠ": 2476,
      "Ġdatos": 2477,
      "entÃ³": 2478,
      ");": 2479,
      "ĠManuel": 2480,
      "bel": 2481,
      "zos": 2482,
      "Ġhoy": 2483,
      "Ġsimp": 2484,
      "Ġsac": 2485,
      "Ġlocalidad": 2486,
      "Ġconse": 2487,
      "ĠGra": 2488,
      "dir": 2489,
      "Ġconci": 2490,
      "Ġpartidos": 2491,
      "ĠJe": 2492,
      "ĠIng": 2493,
      "Ġfac": 2494,
      "Ġcristi": 2495,
      "eciÃ³": 2496,
      "ĠFi": 2497,
      "Ġ&": 2498,
      "Ġanun": 2499,
      "Ġfutbolista": 2500,
      "Ġdesi": 2501,
      "Ġ%": 2502,
      "ĠRos": 2503,
      "ĠrÃ¡pi": 2504,
      "Ġop": 2505,
      "ĠInternacional": 2506,
      "later": 2507,
      "ĠAd": 2508,
      "alla": 2509,
      "Ġestar": 2510,
      "au": 2511,
      "Ġcentral": 2512,
      "ĠRi": 2513,
      "Ġoriginal": 2514,
      "ĠNorte": 2515,
      "ly": 2516,
      "olo": 2517,
      "dados": 2518,
      "ĠCab": 2519,
      "Ġestudios": 2520,
      "ĠPr": 2521,
      "rÃ¡n": 2522,
      "ÃŃstica": 2523,
      "Ġalta": 2524,
      "mano": 2525,
      "'s": 2526,
      "Ġcantidad": 2527,
      "ĠInstitu": 2528,
      "Ġocasi": 2529,
      "ĠÃ³r": 2530,
      "ĠRam": 2531,
      "Ġprimero": 2532,
      "Ġ23": 2533,
      "Ġdem": 2534,
      "ĠVic": 2535,
      "vamente": 2536,
      "amientos": 2537,
      "Ġ/": 2538,
      "ĠHe": 2539,
      "Ġ187": 2540,
      "Ġmenor": 2541,
      "ĠalemÃ¡n": 2542,
      "ĠVer": 2543,
      "Ġampli": 2544,
      "istemas": 2545,
      "Ġcabo": 2546,
      "Ġsuperficie": 2547,
      "Ġade": 2548,
      "Ġvir": 2549,
      "ĠPi": 2550,
      "Ġfra": 2551,
      "ridad": 2552,
      "Ġconocida": 2553,
      "ĠGobierno": 2554,
      "ĠSegun": 2555,
      "Ġfo": 2556,
      "ĠOri": 2557,
      "Ġconte": 2558,
      "gÃ³": 2559,
      "Ġinvi": 2560,
      "Ġdepor": 2561,
      "ĠPal": 2562,
      "Ġinstru": 2563,
      "Ġalim": 2564,
      "Ġrespon": 2565,
      "ĠBuenos": 2566,
      "Ġantiguo": 2567,
      "Ã©ndose": 2568,
      "tadas": 2569,
      "sor": 2570,
      "ĠcanciÃ³n": 2571,
      "Ġrecor": 2572,
      "Ġmos": 2573,
      "Ġep": 2574,
      "ĠMiguel": 2575,
      "Ġ2002": 2576,
      "Ġconcep": 2577,
      "Ġconce": 2578,
      "Ġinternacional": 2579,
      "Ġfinalmente": 2580,
      "vidu": 2581,
      "ĠTras": 2582,
      "aro": 2583,
      "Ġzonas": 2584,
      "Ġarte": 2585,
      "Ġaproxim": 2586,
      "Ġservicio": 2587,
      "lado": 2588,
      "Ġmas": 2589,
      "ani": 2590,
      "ecen": 2591,
      "ĠposiciÃ³n": 2592,
      "Ġsec": 2593,
      "tagon": 2594,
      "ficos": 2595,
      "Ġ100": 2596,
      "cra": 2597,
      "Ġespecial": 2598,
      "Ġresultado": 2599,
      "triz": 2600,
      "Ġespacio": 2601,
      "Ġmul": 2602,
      "ĠDo": 2603,
      "ĠÃ³": 2604,
      "Ġmonta": 2605,
      "ceso": 2606,
      "Ġavi": 2607,
      "culo": 2608,
      "ins": 2609,
      "Ġfuerzas": 2610,
      "Ġlar": 2611,
      "Ġactor": 2612,
      "Ġ[": 2613,
      "ciaciÃ³n": 2614,
      "cida": 2615,
      "Ġaz": 2616,
      "ĠÃºnico": 2617,
      "titud": 2618,
      "tÃŃa": 2619,
      "Ġ2001": 2620,
      "ĠRec": 2621,
      "Ġbal": 2622,
      "Ġelementos": 2623,
      "Ġ186": 2624,
      "Ġcorre": 2625,
      "Ġ1990": 2626,
      "ĠIII": 2627,
      "196": 2628,
      "entar": 2629,
      "berto": 2630,
      "Ġdefini": 2631,
      "Ġintrodu": 2632,
      "rique": 2633,
      "Ã©m": 2634,
      "Ġsuperior": 2635,
      "umi": 2636,
      "Ġextre": 2637,
      "ecer": 2638,
      "ĠPas": 2639,
      "table": 2640,
      "ps": 2641,
      "Ġfron": 2642,
      "Ġsab": 2643,
      "ĠParÃŃs": 2644,
      "cÃ³": 2645,
      "Ġtempera": 2646,
      "sia": 2647,
      "Ġmani": 2648,
      "Ġedad": 2649,
      "Ġfuerte": 2650,
      "Ġali": 2651,
      "Ġelectr": 2652,
      "Por": 2653,
      "Ġgrab": 2654,
      "Ġcuad": 2655,
      "ulas": 2656,
      "ĠinformaciÃ³n": 2657,
      "ĠperÃŃodo": 2658,
      "Ġseis": 2659,
      "ĠediciÃ³n": 2660,
      "Ġpropor": 2661,
      "ĠBel": 2662,
      "Ġlocal": 2663,
      "Ġorganiz": 2664,
      "ese": 2665,
      "Ġtierra": 2666,
      "uida": 2667,
      "Ġmex": 2668,
      "Ġhonor": 2669,
      "Ġestaban": 2670,
      "ĠGeneral": 2671,
      "ĠBan": 2672,
      "ate": 2673,
      "ĠPos": 2674,
      "Durante": 2675,
      "Ġ28": 2676,
      "amer": 2677,
      "Ġmujeres": 2678,
      "ole": 2679,
      "Ġ26": 2680,
      "Ġleg": 2681,
      "Ġcultura": 2682,
      "Ġindividu": 2683,
      "ĠenergÃŃa": 2684,
      "Ġdispu": 2685,
      "cera": 2686,
      "Ġ2012": 2687,
      "ĠartÃŃcu": 2688,
      "Ġocur": 2689,
      "Ġdar": 2690,
      "gran": 2691,
      "unca": 2692,
      "liografÃŃa": 2693,
      "Ġalto": 2694,
      "Ġ27": 2695,
      "Ġinterna": 2696,
      "Ġrepresenta": 2697,
      "ĠMay": 2698,
      "Ġeta": 2699,
      "Ġrecur": 2700,
      "Ġdispon": 2701,
      "Ġinterior": 2702,
      "ĠComo": 2703,
      "ĠsituaciÃ³n": 2704,
      "Ġlibre": 2705,
      "Ġmencion": 2706,
      "ĠcientÃŃ": 2707,
      "Ġconqui": 2708,
      "ide": 2709,
      "enas": 2710,
      "Ġsecre": 2711,
      "Ġactividad": 2712,
      "Ġ21": 2713,
      "Ġcolon": 2714,
      "Ġconv": 2715,
      "entales": 2716,
      "Ġellas": 2717,
      "ĠMer": 2718,
      "ĠNew": 2719,
      "lad": 2720,
      "iza": 2721,
      "tenido": 2722,
      "Ġsex": 2723,
      "ĠfunciÃ³n": 2724,
      "ĠLeÃ³n": 2725,
      "Ġoper": 2726,
      "Ġsenci": 2727,
      "Ġproblemas": 2728,
      "ense": 2729,
      "Ġtec": 2730,
      "ĠComun": 2731,
      "Ġempez": 2732,
      "ĠCentro": 2733,
      "Ġrad": 2734,
      "ner": 2735,
      "quÃŃ": 2736,
      "Ġpens": 2737,
      "Ġcolec": 2738,
      "Ġdin": 2739,
      "her": 2740,
      "Ġabandon": 2741,
      "Ġalter": 2742,
      "laterra": 2743,
      "Ġred": 2744,
      "Ġ1999": 2745,
      "ĠGui": 2746,
      "Ġunas": 2747,
      "erras": 2748,
      "pes": 2749,
      "Ġhombre": 2750,
      "Ġindustri": 2751,
      "Ġmol": 2752,
      "Ġlimi": 2753,
      "Ġoeste": 2754,
      "mios": 2755,
      "Ġfamili": 2756,
      "ĠColom": 2757,
      "Ġderecho": 2758,
      "yÃ³": 2759,
      "Ġdif": 2760,
      "ĠXX": 2761,
      "metros": 2762,
      "ĠFernando": 2763,
      "ibliografÃŃa": 2764,
      "rar": 2765,
      "Ġcontr": 2766,
      "dores": 2767,
      "Ġviol": 2768,
      "ĠUnido": 2769,
      "Ġelim": 2770,
      "ĠsÃ³lo": 2771,
      "Ġcomien": 2772,
      "Ġposteriormente": 2773,
      "Ã¶": 2774,
      "Ġservicios": 2775,
      "han": 2776,
      "Ġdic": 2777,
      "erador": 2778,
      "ĠFa": 2779,
      "Ġpoten": 2780,
      "40": 2781,
      "Ġsede": 2782,
      "km": 2783,
      "ĠEj": 2784,
      "taria": 2785,
      "laciones": 2786,
      "Ġobserv": 2787,
      "Car": 2788,
      "dieron": 2789,
      "ĠclÃ¡s": 2790,
      "ĠDesde": 2791,
      "Ġpaso": 2792,
      "Ġderi": 2793,
      "Ġsuces": 2794,
      "ham": 2795,
      "mig": 2796,
      "Ġapoyo": 2797,
      "ace": 2798,
      "aciones": 2799,
      "ĠSuper": 2800,
      "Ġafec": 2801,
      "Ġcasos": 2802,
      "Ġuniversi": 2803,
      "rada": 2804,
      "uente": 2805,
      "Ġprovinci": 2806,
      "Ġcorrespon": 2807,
      "Ġcausa": 2808,
      "Ġempresa": 2809,
      "Ġpresencia": 2810,
      "ito": 2811,
      "demia": 2812,
      "ĠInglaterra": 2813,
      "ĠSte": 2814,
      "Ġje": 2815,
      "Ġfundad": 2816,
      "ĠcreaciÃ³n": 2817,
      "Ġho": 2818,
      "ley": 2819,
      "ĠrecibiÃ³": 2820,
      "Ġtitu": 2821,
      "Ġ50": 2822,
      "usiÃ³n": 2823,
      "Ġargent": 2824,
      "Ġer": 2825,
      "Ġpon": 2826,
      "Ġfecha": 2827,
      "Ġvent": 2828,
      "ĠEd": 2829,
      "dios": 2830,
      "Ã¡l": 2831,
      "Ġta": 2832,
      "ĠmÃ¡xi": 2833,
      "geni": 2834,
      "Ġllegar": 2835,
      "ĠdirecciÃ³n": 2836,
      "ĠBen": 2837,
      "ĠSch": 2838,
      "cidental": 2839,
      "estiv": 2840,
      "ĠHu": 2841,
      "neo": 2842,
      "Ġluz": 2843,
      "Ġaparece": 2844,
      "Ġpropia": 2845,
      "ĠCos": 2846,
      "Ġfuerza": 2847,
      "ĠEsc": 2848,
      "tualmente": 2849,
      "Ġprimeras": 2850,
      "Ġtropas": 2851,
      "Ġmodelo": 2852,
      "ĠPan": 2853,
      "Ġcantante": 2854,
      "Ġprue": 2855,
      "ĠQu": 2856,
      "rados": 2857,
      "teca": 2858,
      "Ġcapacidad": 2859,
      "ĠCuando": 2860,
      "Com": 2861,
      "ĠSus": 2862,
      "nes": 2863,
      "Ġlig": 2864,
      "ĠRom": 2865,
      "Ġdiferencia": 2866,
      "ĠSegunda": 2867,
      "Ġlengua": 2868,
      "Ġactriz": 2869,
      "Ġejecu": 2870,
      "dientes": 2871,
      "Ãºa": 2872,
      "Ġcont": 2873,
      "Ġperiodo": 2874,
      "port": 2875,
      "Ġcirc": 2876,
      "Ġprincipio": 2877,
      "ÃŃstico": 2878,
      "Ã©ctr": 2879,
      "Ġcategor": 2880,
      "Ġparticular": 2881,
      "Ġpersona": 2882,
      "Ġantigua": 2883,
      "Ġestuvo": 2884,
      "Ġvelo": 2885,
      "Ġcanciones": 2886,
      "todo": 2887,
      "ĠCruz": 2888,
      "Ġincor": 2889,
      "Ġbaj": 2890,
      "ĠRoma": 2891,
      "olÃ³gico": 2892,
      "ye": 2893,
      "idos": 2894,
      "Ġprotagon": 2895,
      "Ġalgo": 2896,
      "Ġprovoc": 2897,
      "ĠBri": 2898,
      "Ġesper": 2899,
      "ĠseÃ±al": 2900,
      "Ġmadre": 2901,
      "Ġestructura": 2902,
      "ĠChina": 2903,
      "ĠRey": 2904,
      "Ġase": 2905,
      "Ġencontra": 2906,
      "Ġsos": 2907,
      "ĠJun": 2908,
      "ĠBor": 2909,
      "ĠÃºltimos": 2910,
      "uelo": 2911,
      "ok": 2912,
      "nia": 2913,
      "ĠDavi": 2914,
      "Ġbor": 2915,
      "rom": 2916,
      "uras": 2917,
      "Ġfon": 2918,
      "Ġespos": 2919,
      "ita": 2920,
      "arÃ¡": 2921,
      "llas": 2922,
      "ĠgÃ©nero": 2923,
      "Ġascen": 2924,
      "ĠpasÃ³": 2925,
      "cimientos": 2926,
      "Ġ1998": 2927,
      "Ġiglesia": 2928,
      "ĠfÃ¡": 2929,
      "tom": 2930,
      "Ġdiversos": 2931,
      "Ġmedia": 2932,
      "Ġpersonaje": 2933,
      "tista": 2934,
      "mÃ¡tica": 2935,
      "ende": 2936,
      "ogrÃ¡": 2937,
      "dap": 2938,
      "Ġopera": 2939,
      "Ġpron": 2940,
      "ĠLond": 2941,
      "Ġmedida": 2942,
      "ies": 2943,
      "ror": 2944,
      "Ġnuevos": 2945,
      "BibliografÃŃa": 2946,
      "peonato": 2947,
      "ĠMal": 2948,
      "Ġpartes": 2949,
      "ĠPrimera": 2950,
      "ĠJap": 2951,
      "center": 2952,
      "teratura": 2953,
      "ĠteorÃŃa": 2954,
      "zquier": 2955,
      "Ġexperim": 2956,
      "rido": 2957,
      "Ġnunca": 2958,
      "Ġ2013": 2959,
      "guna": 2960,
      "Ġinfluencia": 2961,
      "Ġretir": 2962,
      "Ġtrata": 2963,
      "Ġpuer": 2964,
      "dan": 2965,
      "ĠBal": 2966,
      "Ġarm": 2967,
      "zado": 2968,
      "III": 2969,
      "irma": 2970,
      "Ġfam": 2971,
      "mal": 2972,
      "Ġ1980": 2973,
      "imo": 2974,
      "Ġsistemas": 2975,
      "ĠEdi": 2976,
      "lis": 2977,
      "Ġacom": 2978,
      "ĠFo": 2979,
      "Ã¡ndo": 2980,
      "dente": 2981,
      "alacio": 2982,
      "ĠDespuÃ©s": 2983,
      "gin": 2984,
      "Pro": 2985,
      "vada": 2986,
      "Ġgrande": 2987,
      "âĢĻ": 2988,
      "Ġmusical": 2989,
      "ĠAb": 2990,
      "Ġhijos": 2991,
      "ĠJes": 2992,
      "Â²": 2993,
      "Ġregist": 2994,
      "ĠOrden": 2995,
      "Ġnuevas": 2996,
      "Ġconsigui": 2997,
      "Ġpromo": 2998,
      "Ġ2014": 2999,
      "Ġ29": 3000,
      "ĠĠĠ": 3001,
      "Ġev": 3002,
      "ĠSon": 3003,
      "Ġpoc": 3004,
      "Ġil": 3005,
      "ĠConse": 3006,
      "cepciÃ³n": 3007,
      "Ġacer": 3008,
      "Ġfundam": 3009,
      "25": 3010,
      "Ġtama": 3011,
      "ficado": 3012,
      "icha": 3013,
      "Ġjo": 3014,
      "ĠOc": 3015,
      "Ġenferme": 3016,
      "wa": 3017,
      "ĠBras": 3018,
      "idente": 3019,
      "Ġcomposi": 3020,
      "ĠInstituto": 3021,
      "tz": 3022,
      "Ġnovela": 3023,
      "Ġcelebr": 3024,
      "Ġimportancia": 3025,
      "Ġpermite": 3026,
      "ĠformaciÃ³n": 3027,
      "Ġprepar": 3028,
      "Ġvoc": 3029,
      "Ġejer": 3030,
      "Ġprob": 3031,
      "torial": 3032,
      "Ġcondu": 3033,
      "rac": 3034,
      "vado": 3035,
      "ĠHi": 3036,
      "Ġast": 3037,
      "Ġsir": 3038,
      "Ġcandida": 3039,
      "Ġcic": 3040,
      "ĠTierra": 3041,
      "tina": 3042,
      "Ġgracias": 3043,
      "Ġreco": 3044,
      "Ġcuyo": 3045,
      "lecciÃ³n": 3046,
      "22": 3047,
      "lante": 3048,
      "Ġfab": 3049,
      "uraciÃ³n": 3050,
      "Para": 3051,
      "Ġexiste": 3052,
      "uls": 3053,
      "ĠAca": 3054,
      "ezuela": 3055,
      "Ġsociedad": 3056,
      "ĠAsÃŃ": 3057,
      "Ġdescen": 3058,
      "Ġ2015": 3059,
      "trop": 3060,
      "Ġactividades": 3061,
      "ĠRÃŃo": 3062,
      "Ġinstitu": 3063,
      "Ġtema": 3064,
      "Ġimagen": 3065,
      "Ġpresenta": 3066,
      "ĠinterÃ©s": 3067,
      "terÃŃa": 3068,
      "ĠGon": 3069,
      "ĠVilla": 3070,
      "Ġlon": 3071,
      "Ġamp": 3072,
      "Ġmec": 3073,
      "aya": 3074,
      "Ġoro": 3075,
      "ĠMuseo": 3076,
      "ĠCastilla": 3077,
      "Ġcorri": 3078,
      "Ġtrad": 3079,
      "Ġincorpor": 3080,
      "Ġreac": 3081,
      "ĠorganizaciÃ³n": 3082,
      "Ġexisten": 3083,
      "Ġ1996": 3084,
      "ĠCatal": 3085,
      "ĠColombia": 3086,
      "Ġtecn": 3087,
      "ĠCat": 3088,
      "ans": 3089,
      "23": 3090,
      "ĠCongreso": 3091,
      "Ã¡cter": 3092,
      "estiÃ³n": 3093,
      "78": 3094,
      "Ġurb": 3095,
      "ches": 3096,
      "ker": 3097,
      "Ġsector": 3098,
      "Ġobjetivo": 3099,
      "Ġfl": 3100,
      "Ġarquitec": 3101,
      "Ġactualidad": 3102,
      "ubo": 3103,
      "tÃŃ": 3104,
      "Ġ1997": 3105,
      "Ġcel": 3106,
      "Ġaproximadamente": 3107,
      "Ġdepartamento": 3108,
      "Ġadap": 3109,
      "iete": 3110,
      "ame": 3111,
      "Ġingres": 3112,
      "ĠEr": 3113,
      "ĠAy": 3114,
      "ĠPero": 3115,
      "Ġrecuper": 3116,
      "Ġderechos": 3117,
      "ĠllevÃ³": 3118,
      "Ġenc": 3119,
      "Ġnego": 3120,
      "ĠXV": 3121,
      "Ġdiversas": 3122,
      "Ġmundial": 3123,
      "Ġdicho": 3124,
      "Ã¡st": 3125,
      "dro": 3126,
      "Ġconta": 3127,
      "Ġcolabor": 3128,
      "ablo": 3129,
      "Un": 3130,
      "Ġcali": 3131,
      "ĠcarÃ¡cter": 3132,
      "arra": 3133,
      "Ġrealizar": 3134,
      "ĠbritÃ¡nico": 3135,
      "lin": 3136,
      "ĠMas": 3137,
      "Ġmiembro": 3138,
      "frica": 3139,
      "Ġmitad": 3140,
      "Ġedificio": 3141,
      "Ġayud": 3142,
      "ĠBur": 3143,
      "Ġdice": 3144,
      "Ġcuya": 3145,
      "ĠÃģn": 3146,
      "ses": 3147,
      "Ã³lica": 3148,
      "ĠYo": 3149,
      "ĠTur": 3150,
      "Ġdefin": 3151,
      "zaciÃ³n": 3152,
      "Ġpobl": 3153,
      "estival": 3154,
      "ĠGa": 3155,
      "Per": 3156,
      "reg": 3157,
      "Ġidi": 3158,
      "Ġtradu": 3159,
      "ĠGarcÃŃa": 3160,
      "amos": 3161,
      "Ġcapi": 3162,
      "ei": 3163,
      "gia": 3164,
      "tida": 3165,
      "Cu": 3166,
      "aridad": 3167,
      "ĠcaracterÃŃsticas": 3168,
      "Ġtransmi": 3169,
      "net": 3170,
      "Ġmaterial": 3171,
      "ĠacompaÃ±": 3172,
      "ĠSegÃºn": 3173,
      "Ġ185": 3174,
      "Ġadqui": 3175,
      "ĠChar": 3176,
      "ĠAunque": 3177,
      "ĠHistoria": 3178,
      "quÃŃa": 3179,
      "volucion": 3180,
      "Ġrespecto": 3181,
      "icanos": 3182,
      "Ġreferencia": 3183,
      "Ġ40": 3184,
      "Ġsitio": 3185,
      "ĠDie": 3186,
      "ĠNic": 3187,
      "ws": 3188,
      "Ġdemo": 3189,
      "len": 3190,
      "ĠJapÃ³n": 3191,
      "Ġprofun": 3192,
      "ĠDios": 3193,
      "21": 3194,
      "ĠtamaÃ±o": 3195,
      "Ġradio": 3196,
      "bierto": 3197,
      "ĠrealizÃ³": 3198,
      "Ġinstal": 3199,
      "ĠÃºnica": 3200,
      "Âª": 3201,
      "Ġentren": 3202,
      "ĠFeder": 3203,
      "turo": 3204,
      "Ġsentido": 3205,
      "quia": 3206,
      "alo": 3207,
      "zÃ¡": 3208,
      "rist": 3209,
      "Ġtierras": 3210,
      "emos": 3211,
      "ld": 3212,
      "Ġformas": 3213,
      "anci": 3214,
      "Ġcomunidad": 3215,
      "yos": 3216,
      "Ġproductos": 3217,
      "lip": 3218,
      "Ġenvi": 3219,
      "Ġcomba": 3220,
      "ĠAlgun": 3221,
      "Ġ1994": 3222,
      "Ġpalabra": 3223,
      "iendo": 3224,
      "Ġpersonajes": 3225,
      "Ġactualmente": 3226,
      "Ġmunicipal": 3227,
      "ock": 3228,
      "Ġhermano": 3229,
      "Ġnave": 3230,
      "gip": 3231,
      "ĠlogrÃ³": 3232,
      ".)": 3233,
      "ilÃ³": 3234,
      "tidos": 3235,
      "Ġquin": 3236,
      "tarios": 3237,
      "Ġcosta": 3238,
      "ĠLiber": 3239,
      "ĠRes": 3240,
      "end": 3241,
      "licaciones": 3242,
      "Ġweb": 3243,
      "Ġherman": 3244,
      "ribuy": 3245,
      "Ġemperador": 3246,
      "ficas": 3247,
      "Ġveci": 3248,
      "Ġsimilar": 3249,
      "ĠpodrÃŃa": 3250,
      "Ġconflic": 3251,
      "Ġitaliano": 3252,
      "ĠDis": 3253,
      "ĠFeli": 3254,
      "Ġresist": 3255,
      "Ġcondiciones": 3256,
      "ĠacciÃ³n": 3257,
      "Ġcompon": 3258,
      "ĠganÃ³": 3259,
      "tana": 3260,
      "Ġmercado": 3261,
      "Ġacab": 3262,
      "Ġ1995": 3263,
      "Ġapari": 3264,
      "ĠVenezuela": 3265,
      "ĠlÃŃmi": 3266,
      "tus": 3267,
      "Ġpudi": 3268,
      "Ġ1992": 3269,
      "ĠConsejo": 3270,
      "tenciÃ³n": 3271,
      "entado": 3272,
      "onte": 3273,
      "Ġocasiones": 3274,
      "ĠRegi": 3275,
      "ĠEstos": 3276,
      "Ġcru": 3277,
      "Ġtraslad": 3278,
      "bras": 3279,
      "onel": 3280,
      "Ġnin": 3281,
      "Ġhe": 3282,
      "Ġjoven": 3283,
      "Ġaltura": 3284,
      "pado": 3285,
      "ĠeconomÃŃa": 3286,
      "ĠLey": 3287,
      "forme": 3288,
      "Ġsimple": 3289,
      "ĠallÃŃ": 3290,
      "Ġhija": 3291,
      "Ġcalle": 3292,
      "ecre": 3293,
      "uestra": 3294,
      "Ġayuda": 3295,
      "ĠAst": 3296,
      "liam": 3297,
      "igos": 3298,
      "Ġaspec": 3299,
      "ĠFer": 3300,
      "wn": 3301,
      "Ġahora": 3302,
      "Ġja": 3303,
      "Ġmez": 3304,
      "Ġargentino": 3305,
      "Ġlongi": 3306,
      "Ġ1970": 3307,
      "Ġizquier": 3308,
      "Ġcla": 3309,
      "Ġ184": 3310,
      "int": 3311,
      "ĠTom": 3312,
      "Ã¨": 3313,
      "Ġadop": 3314,
      "ĠcompaÃ±ÃŃa": 3315,
      "seÃ±": 3316,
      "Ġ183": 3317,
      "Par": 3318,
      "ĠnÃºc": 3319,
      "Ġextran": 3320,
      "icales": 3321,
      "zan": 3322,
      "Ġoblig": 3323,
      "jar": 3324,
      "Ġaprob": 3325,
      "Ġconcent": 3326,
      "Ġdescon": 3327,
      "Ġcaracteri": 3328,
      "Ġbom": 3329,
      "ĠDomin": 3330,
      "Ġsuce": 3331,
      "Ġministro": 3332,
      "dena": 3333,
      "Ġdemos": 3334,
      "Ġpueblos": 3335,
      "ĠdecidiÃ³": 3336,
      "ĠBrasil": 3337,
      "icipios": 3338,
      "Ġmuestra": 3339,
      "ticamente": 3340,
      "uros": 3341,
      "Ġislas": 3342,
      "Tras": 3343,
      "Ġmenudo": 3344,
      "ĠespecÃŃ": 3345,
      "ĠestaciÃ³n": 3346,
      "Ġotor": 3347,
      "Ġincluyendo": 3348,
      "genes": 3349,
      "ames": 3350,
      "Ġcompren": 3351,
      "tador": 3352,
      "ĠTr": 3353,
      "195": 3354,
      "Ġquienes": 3355,
      "ĠpublicÃ³": 3356,
      "ĠpequeÃ±o": 3357,
      "Ġetapa": 3358,
      "ĠFuer": 3359,
      "Ġinteres": 3360,
      "Ġpersonal": 3361,
      "ĠespaÃ±oles": 3362,
      "Ġtales": 3363,
      "gada": 3364,
      "Ġcrecimiento": 3365,
      "Ġtran": 3366,
      "ĠÃģngel": 3367,
      "fonso": 3368,
      "ĠcampaÃ±a": 3369,
      "tulos": 3370,
      "80": 3371,
      "Ġrecha": 3372,
      "Ġutiliza": 3373,
      "Ġtipos": 3374,
      "venciÃ³n": 3375,
      "ĠdiseÃ±": 3376,
      "Ġ2016": 3377,
      "Ã¡ndez": 3378,
      "Ġmodi": 3379,
      "ĠÃī": 3380,
      "Ġtemas": 3381,
      "ĠEspaÃ±ol": 3382,
      "Ġpreci": 3383,
      "Ġvictoria": 3384,
      "Ġminu": 3385,
      "fos": 3386,
      "ĠLiga": 3387,
      "ribuciÃ³n": 3388,
      "Ġrealidad": 3389,
      "ime": 3390,
      "Ġamor": 3391,
      "ĠvÃŃ": 3392,
      "ĠNi": 3393,
      "Ġind": 3394,
      "24": 3395,
      "olÃ³gica": 3396,
      "Ġinfer": 3397,
      "ÃŃnci": 3398,
      "isla": 3399,
      "Ġincluye": 3400,
      "Ġlugares": 3401,
      "Ġpat": 3402,
      "Ġequipos": 3403,
      "clam": 3404,
      "irse": 3405,
      "The": 3406,
      "peÃ³n": 3407,
      "Ġfalle": 3408,
      "Ã¡nica": 3409,
      "Ġexi": 3410,
      "Ġrelaciones": 3411,
      "eos": 3412,
      "cidente": 3413,
      "alista": 3414,
      "ĠquÃŃm": 3415,
      "ĠJer": 3416,
      "uales": 3417,
      "ĠLondres": 3418,
      "Ġpudo": 3419,
      "inar": 3420,
      "Ġespecie": 3421,
      "ĠescribiÃ³": 3422,
      "Ġvelocidad": 3423,
      "erto": 3424,
      "Ġ1991": 3425,
      "ĠdiseÃ±o": 3426,
      "lez": 3427,
      "omÃ¡": 3428,
      "ĠDel": 3429,
      "Ġintegr": 3430,
      "Ġidea": 3431,
      "Ġmilitares": 3432,
      "Ġliter": 3433,
      "torno": 3434,
      "Ġestra": 3435,
      "Ġhu": 3436,
      "ragÃ³n": 3437,
      "bio": 3438,
      "60": 3439,
      "Una": 3440,
      "ĠelÃ©ctr": 3441,
      "amp": 3442,
      "Ex": 3443,
      "Ġtab": 3444,
      "Desde": 3445,
      "ller": 3446,
      "endas": 3447,
      "ional": 3448,
      "Ġplata": 3449,
      "Ġlec": 3450,
      "ind": 3451,
      "Ġaire": 3452,
      "Ġpatr": 3453,
      "ure": 3454,
      "pias": 3455,
      "ĠDon": 3456,
      "Ġcivil": 3457,
      "urÃ³": 3458,
      "Ġclase": 3459,
      "Ġdado": 3460,
      "ĠDivisiÃ³n": 3461,
      "Ġrock": 3462,
      "Ġenfrent": 3463,
      "manes": 3464,
      "Ġrefle": 3465,
      "ĠHum": 3466,
      "Ġsiete": 3467,
      "Ġmedios": 3468,
      "ĠquedÃ³": 3469,
      "Ġmayores": 3470,
      "ĠAli": 3471,
      "Ġtercer": 3472,
      "ĠEnrique": 3473,
      "Ġ1993": 3474,
      "Ġindustria": 3475,
      "ĠUr": 3476,
      "Ġrevista": 3477,
      "ĠGal": 3478,
      "asiÃ³n": 3479,
      "Ã³nimo": 3480,
      "Åį": 3481,
      "Ġguer": 3482,
      "ĠpelÃŃculas": 3483,
      "||": 3484,
      "Ac": 3485,
      "Ġ2019": 3486,
      "culos": 3487,
      "ĠinvestigaciÃ³n": 3488,
      "berg": 3489,
      "estr": 3490,
      "erop": 3491,
      "cina": 3492,
      "vera": 3493,
      "ĠeducaciÃ³n": 3494,
      "Ġarchi": 3495,
      "ĠFre": 3496,
      "iografÃŃa": 3497,
      "emen": 3498,
      "Ġchil": 3499,
      "Ġcuanto": 3500,
      "Ġguitar": 3501,
      "Ġmic": 3502,
      "Ġusu": 3503,
      "ĠDavid": 3504,
      "reno": 3505,
      "Ġexcl": 3506,
      "deraciÃ³n": 3507,
      "damente": 3508,
      "Ġcomercial": 3509,
      "Ġcome": 3510,
      "ĠeconÃ³mica": 3511,
      "Ġ2018": 3512,
      "ĠBro": 3513,
      "ruguay": 3514,
      "illas": 3515,
      "Ġobtuvo": 3516,
      "ĠAnti": 3517,
      "Ġanimales": 3518,
      "Ġvan": 3519,
      "Ġarmas": 3520,
      "pal": 3521,
      "Ġvarie": 3522,
      "Ġmemor": 3523,
      "ĠAcademia": 3524,
      "ky": 3525,
      "ĠPlan": 3526,
      "Ġefecto": 3527,
      "ribe": 3528,
      "Ġasoci": 3529,
      "ibles": 3530,
      "pez": 3531,
      "usia": 3532,
      "Ġcalidad": 3533,
      "Ġcerc": 3534,
      "Ġcultural": 3535,
      "teras": 3536,
      "don": 3537,
      "uidos": 3538,
      "San": 3539,
      "Ġpremio": 3540,
      "ÃŃr": 3541,
      "tismo": 3542,
      "Ġmando": 3543,
      "Ġesposa": 3544,
      "ĠMc": 3545,
      "ted": 3546,
      "ĠKa": 3547,
      "Ġtercera": 3548,
      "ĠHol": 3549,
      "Ġfigura": 3550,
      "ĠWilliam": 3551,
      "Ġnoche": 3552,
      "Ã³nico": 3553,
      "ĠQui": 3554,
      "Ġtradicional": 3555,
      "ware": 3556,
      "Ġnombrado": 3557,
      "ĠmÃŃ": 3558,
      "Ġmejores": 3559,
      "Ġmate": 3560,
      "Ġproporcion": 3561,
      "ĠMat": 3562,
      "Ġprobable": 3563,
      "ĠEjÃ©rcito": 3564,
      "lÃ¡n": 3565,
      "Ã¡lisis": 3566,
      "Ġlongitud": 3567,
      "dÃŃan": 3568,
      "Ġ2017": 3569,
      "Pre": 3570,
      "Ġgeneralmente": 3571,
      "ĠCali": 3572,
      "ferencia": 3573,
      "ciente": 3574,
      "Ġhoras": 3575,
      "ĠpequeÃ±a": 3576,
      "ĠpolÃŃticos": 3577,
      "deres": 3578,
      "sen": 3579,
      "ĠvolviÃ³": 3580,
      "Ġevitar": 3581,
      "Ġdicha": 3582,
      "Ġdiez": 3583,
      "irmÃ³": 3584,
      "cla": 3585,
      "Ġdistrito": 3586,
      "Ġdesapar": 3587,
      "Ġbaja": 3588,
      "orn": 3589,
      "Ġdesp": 3590,
      "ĠRu": 3591,
      "Ġmat": 3592,
      "Ã¡mara": 3593,
      "Ġlista": 3594,
      "Ġtemperatura": 3595,
      "Ġpalabras": 3596,
      "ĠbÃ¡s": 3597,
      "Ġjugador": 3598,
      "ĠIV": 3599,
      "Ġexistencia": 3600,
      "usa": 3601,
      "ĠCentral": 3602,
      "ĠtenÃŃan": 3603,
      "Ġmediados": 3604,
      "ĠTu": 3605,
      "ĠCasa": 3606,
      "Ġhos": 3607,
      "Ġconsiderado": 3608,
      "Ġconvertir": 3609,
      "ĠBib": 3610,
      "Ġproduce": 3611,
      "Ġposee": 3612,
      "umen": 3613,
      "Ġfru": 3614,
      "Ġalma": 3615,
      "isp": 3616,
      "pul": 3617,
      "Ġmatrimonio": 3618,
      "Ġsociales": 3619,
      "ĠSeÃ±": 3620,
      "Ġlleva": 3621,
      "tillo": 3622,
      "Ġescuela": 3623,
      "zÃ³": 3624,
      "Ġresta": 3625,
      "Ġtoc": 3626,
      "Ġcarre": 3627,
      "Ġina": 3628,
      "omÃ©": 3629,
      "Ġplantas": 3630,
      "arlo": 3631,
      "Ġrepar": 3632,
      "ĠMil": 3633,
      "curso": 3634,
      "Ġgira": 3635,
      "ĠGer": 3636,
      "Ġmanos": 3637,
      "ĠDer": 3638,
      "terrÃ¡n": 3639,
      "ĠPue": 3640,
      "gre": 3641,
      "Ġvista": 3642,
      "alizado": 3643,
      "ĠVol": 3644,
      "Si": 3645,
      "ĠEurope": 3646,
      "ĠFelipe": 3647,
      "acto": 3648,
      "Ġbos": 3649,
      "mes": 3650,
      "asco": 3651,
      "isterio": 3652,
      "ĠAlfonso": 3653,
      "Ġhumanos": 3654,
      "ĠniÃ±os": 3655,
      "Ġdefen": 3656,
      "Ġgal": 3657,
      "vis": 3658,
      "ĠselecciÃ³n": 3659,
      "Ġjefe": 3660,
      "echo": 3661,
      "ĠPaÃŃs": 3662,
      "Ġtex": 3663,
      "ĠtradiciÃ³n": 3664,
      "Ġrestos": 3665,
      "Ġexpan": 3666,
      "Ġmantener": 3667,
      "Ġtiempos": 3668,
      "dentes": 3669,
      "ĠdivisiÃ³n": 3670,
      "vador": 3671,
      "ĠXI": 3672,
      "Ġdon": 3673,
      "Ġencontrar": 3674,
      "Ġparque": 3675,
      "cular": 3676,
      "ismos": 3677,
      "villa": 3678,
      "vin": 3679,
      "ĠCla": 3680,
      "mpor": 3681,
      "Ġelegido": 3682,
      "ĠBas": 3683,
      "Ġtot": 3684,
      "ĠJesÃºs": 3685,
      "Ã¡gina": 3686,
      "Ġempresas": 3687,
      "digo": 3688,
      "ĠMonte": 3689,
      "Ġprevi": 3690,
      "Ġcamino": 3691,
      "ucle": 3692,
      "ĠPuerto": 3693,
      "Ġlocales": 3694,
      "anismo": 3695,
      "ĠMac": 3696,
      "Ġreemp": 3697,
      "ks": 3698,
      "Ġsustitu": 3699,
      "Ġhici": 3700,
      "ĠOs": 3701,
      "Ġqued": 3702,
      "ingÃºn": 3703,
      "viles": 3704,
      "lioteca": 3705,
      "Ġconoce": 3706,
      "Ġtexto": 3707,
      "Ġaudi": 3708,
      "Ġindic": 3709,
      "ĠÃ¡r": 3710,
      "Ġcabeza": 3711,
      "Ġconcl": 3712,
      "jand": 3713,
      "Ġverano": 3714,
      "Ġmano": 3715,
      "Ġelabor": 3716,
      "Ġart": 3717,
      "ĠDÃŃa": 3718,
      "Ġ1989": 3719,
      "ĠcategorÃŃa": 3720,
      "Ġpuerto": 3721,
      "anÃŃa": 3722,
      "uÃ±a": 3723,
      "yn": 3724,
      "Ġ1960": 3725,
      "Ġobjeto": 3726,
      "untamiento": 3727,
      "Ã³pez": 3728,
      "Ġreino": 3729,
      "Ġvoz": 3730,
      "Falle": 3731,
      "Ġclima": 3732,
      "Ġfrancesa": 3733,
      "Ġobstante": 3734,
      "ĠJorge": 3735,
      "Ġmaes": 3736,
      "Ġ2020": 3737,
      "ĠRusia": 3738,
      "ĠcomunicaciÃ³n": 3739,
      "gÃ¼": 3740,
      "gro": 3741,
      "Ġ31": 3742,
      "Ġsiglos": 3743,
      "enca": 3744,
      "Ġfunciones": 3745,
      "Ġsigue": 3746,
      "Ġlibros": 3747,
      "trÃ¡s": 3748,
      "ey": 3749,
      "Ġindependencia": 3750,
      "bispo": 3751,
      "tividad": 3752,
      "ĠLat": 3753,
      "Ġaplic": 3754,
      "Ġconsegui": 3755,
      "ĠBu": 3756,
      "ori": 3757,
      "Ġdesign": 3758,
      "Ġalcal": 3759,
      "Ġav": 3760,
      "ĠrÃ©": 3761,
      "Entre": 3762,
      "Ġobtener": 3763,
      "fre": 3764,
      "Ġposterior": 3765,
      "ward": 3766,
      "Ġinme": 3767,
      "Ġmag": 3768,
      "rios": 3769,
      "ĠhistÃ³rico": 3770,
      "Ġprome": 3771,
      "Ġsuel": 3772,
      "ĠLin": 3773,
      "Ġextranj": 3774,
      "ĠPop": 3775,
      "Ġenem": 3776,
      "SA": 3777,
      "Ġcruz": 3778,
      "194": 3779,
      "Ġabs": 3780,
      "Ġesca": 3781,
      "ĠBre": 3782,
      "Ġnumerosos": 3783,
      "Ġentrada": 3784,
      "Ġapoy": 3785,
      "26": 3786,
      "Ġfen": 3787,
      "Ġinspi": 3788,
      "Ġcambios": 3789,
      "ĠProv": 3790,
      "27": 3791,
      "Ġdijo": 3792,
      "Ġvideo": 3793,
      "guez": 3794,
      "ĠÃ¡ra": 3795,
      "Ġlucha": 3796,
      "Ġacceso": 3797,
      "Ġadministra": 3798,
      "ĠEscuela": 3799,
      "Ġconec": 3800,
      "ĠBr": 3801,
      "untos": 3802,
      "zi": 3803,
      "Ġteatro": 3804,
      "ĠMen": 3805,
      "ficar": 3806,
      "etas": 3807,
      "Ġprovi": 3808,
      "Ġprodujo": 3809,
      "uelas": 3810,
      "Ġnacionales": 3811,
      "ĠSil": 3812,
      "ĠkilÃ³": 3813,
      "pri": 3814,
      "Ġdescubri": 3815,
      "ÃŃncipe": 3816,
      "use": 3817,
      "Ġanteriores": 3818,
      "veni": 3819,
      "29": 3820,
      "ĠQue": 3821,
      "Ġcoloc": 3822,
      "ĠMedi": 3823,
      "ĠpÃºblica": 3824,
      "ĠLÃ³pez": 3825,
      "ĠindÃŃgen": 3826,
      "fil": 3827,
      "Ġhistori": 3828,
      "Ġataque": 3829,
      "fera": 3830,
      "Ġcrear": 3831,
      "Ġgriego": 3832,
      "Ãģ": 3833,
      "publ": 3834,
      "ĠMunicip": 3835,
      "ĠtÃŃp": 3836,
      "burgo": 3837,
      "abel": 3838,
      "Ġregiones": 3839,
      "Ġpropiedad": 3840,
      "ney": 3841,
      "193": 3842,
      "Ġseguridad": 3843,
      "ĠdemÃ¡s": 3844,
      "Ġgobernador": 3845,
      "ĠAndr": 3846,
      "egio": 3847,
      "Ġbel": 3848,
      "rir": 3849,
      "Ġdistintos": 3850,
      "unci": 3851,
      "Ġlenguas": 3852,
      "ĠpodÃŃa": 3853,
      "Ġens": 3854,
      "Ġps": 3855,
      "Ġaguas": 3856,
      "ĠprÃ³": 3857,
      "rael": 3858,
      "oro": 3859,
      "Ġplanta": 3860,
      "ĠningÃºn": 3861,
      "ĠDepor": 3862,
      "Ġsuele": 3863,
      "Esc": 3864,
      "sito": 3865,
      "ĠFun": 3866,
      "estas": 3867,
      "alizar": 3868,
      "tugu": 3869,
      "Ġ60": 3870,
      "Ġepiso": 3871,
      "ĠHen": 3872,
      "Ġcorte": 3873,
      "ĠValle": 3874,
      "tesis": 3875,
      "ĠparticipaciÃ³n": 3876,
      "Ġgolpe": 3877,
      "zada": 3878,
      "Ġconvirti": 3879,
      "Ġnaturaleza": 3880,
      "Ġsonido": 3881,
      "Ġimpres": 3882,
      "ĠÃ¡reas": 3883,
      "manas": 3884,
      "Ġfuente": 3885,
      "Ġquer": 3886,
      "ĠAz": 3887,
      "minos": 3888,
      "ĠBern": 3889,
      "Ġarro": 3890,
      "ĠSanto": 3891,
      "gimen": 3892,
      "Ġfoto": 3893,
      "ĠFÃºtbol": 3894,
      "ulo": 3895,
      "Ġpare": 3896,
      "fra": 3897,
      "Ġtransporte": 3898,
      "ĠMag": 3899,
      "ÃŃns": 3900,
      "ĠprÃ¡ctica": 3901,
      "Ġcelebra": 3902,
      "ood": 3903,
      "Ġran": 3904,
      "bierta": 3905,
      "torias": 3906,
      "Ġbene": 3907,
      "mÃ³": 3908,
      "ĠMÃ¡s": 3909,
      "Ġformar": 3910,
      "Ã³logo": 3911,
      "Ġ80": 3912,
      "Ġunidad": 3913,
      "Ġsencillo": 3914,
      "Ġperiodi": 3915,
      "84": 3916,
      "Ġocho": 3917,
      "ĠlÃŃneas": 3918,
      "adÃ¡": 3919,
      "como": 3920,
      "tell": 3921,
      "Ġpublicado": 3922,
      "Ġfalta": 3923,
      "icia": 3924,
      "Ġdan": 3925,
      "ĠArm": 3926,
      "ĠBlan": 3927,
      "Ġcumpli": 3928,
      "produ": 3929,
      "Ġfinanci": 3930,
      "Ġrealiza": 3931,
      "entaciÃ³n": 3932,
      "mismo": 3933,
      "ag": 3934,
      "ĠBi": 3935,
      "ĠValencia": 3936,
      "Ġmater": 3937,
      "Ġliteratura": 3938,
      "ĠOro": 3939,
      "bil": 3940,
      "Ġsecund": 3941,
      "puestos": 3942,
      "Ġtre": 3943,
      "Ġinaug": 3944,
      "ĠGi": 3945,
      "omina": 3946,
      "ĠBra": 3947,
      "ĠPablo": 3948,
      "Ġjud": 3949,
      "To": 3950,
      "inte": 3951,
      "aman": 3952,
      "Ġblanco": 3953,
      "tistas": 3954,
      "Ġcompeti": 3955,
      "eropuerto": 3956,
      "eran": 3957,
      "mis": 3958,
      "ĠtodavÃŃa": 3959,
      "ĠWar": 3960,
      "Ġinternacionales": 3961,
      "Ġescul": 3962,
      "ĠLor": 3963,
      "lista": 3964,
      "Ġresiden": 3965,
      "Ġdra": 3966,
      "olÃ³gicos": 3967,
      "Ġfic": 3968,
      "ĠConstituciÃ³n": 3969,
      "Ġtoma": 3970,
      "Ġresultados": 3971,
      "ĠRich": 3972,
      "Ġincluyen": 3973,
      "Ġarque": 3974,
      "ĠAlejand": 3975,
      "Ġ:": 3976,
      "mita": 3977,
      "ash": 3978,
      "Ġefectos": 3979,
      "Ġdestru": 3980,
      "ÃŃz": 3981,
      "Ġinver": 3982,
      "fuer": 3983,
      "Ġdesemp": 3984,
      "Ġbarrio": 3985,
      "Ġviaj": 3986,
      "Ġecu": 3987,
      "Ġllegada": 3988,
      "Ġdistancia": 3989,
      "amble": 3990,
      "Ġjugadores": 3991,
      "ĠperiÃ³": 3992,
      "Ġlevan": 3993,
      "adal": 3994,
      "Ġmetal": 3995,
      "Ġperteneci": 3996,
      "entas": 3997,
      "ĠEdu": 3998,
      "vaciÃ³n": 3999,
      "gida": 4000,
      "Ġplaza": 4001,
      "Seg": 4002,
      "Ġfase": 4003,
      "ielo": 4004,
      "Ġargu": 4005,
      "tÃ©": 4006,
      "eri": 4007,
      "ribun": 4008,
      "ĠMur": 4009,
      "Ġce": 4010,
      "Nacidos": 4011,
      "Ġsecu": 4012,
      "28": 4013,
      "Ġproducto": 4014,
      "giÃ³": 4015,
      "lota": 4016,
      "ĠVirgen": 4017,
      "Ġ1988": 4018,
      "Ġindependiente": 4019,
      "ĠlÃŃder": 4020,
      "onda": 4021,
      "ĠTele": 4022,
      "Ġconsecuencia": 4023,
      "teros": 4024,
      "ĠCer": 4025,
      "Ġconcepto": 4026,
      "Ġ1986": 4027,
      "Ġvivi": 4028,
      "fac": 4029,
      "ĠAp": 4030,
      "mul": 4031,
      "ĠdÃ³l": 4032,
      "ĠdejÃ³": 4033,
      "Como": 4034,
      "ĠartÃŃculo": 4035,
      "ĠAnd": 4036,
      "icultura": 4037,
      "eda": 4038,
      "Ġtrabajos": 4039,
      "sticia": 4040,
      "ĠCosta": 4041,
      "Ġunidades": 4042,
      "ĠcreÃ³": 4043,
      "Ġoficiales": 4044,
      "ĠcÃ³mo": 4045,
      "70": 4046,
      "esiÃ³n": 4047,
      "ingÃ¼": 4048,
      "Ġdistintas": 4049,
      "Ġincre": 4050,
      "Ġjue": 4051,
      "ĠOn": 4052,
      "ĠAragÃ³n": 4053,
      "ĠpolÃŃticas": 4054,
      "Ġutilizado": 4055,
      "Ġalguna": 4056,
      "Ġagu": 4057,
      "anda": 4058,
      "Ġferro": 4059,
      "Ġcompositor": 4060,
      "Ġrefi": 4061,
      "Ġol": 4062,
      "tric": 4063,
      "ĠadministraciÃ³n": 4064,
      "terio": 4065,
      "Ġdocument": 4066,
      "enario": 4067,
      "ux": 4068,
      "sas": 4069,
      "viÃ©tica": 4070,
      "mÃ¡genes": 4071,
      "Ġsoldados": 4072,
      "mun": 4073,
      "rey": 4074,
      "jes": 4075,
      "dimiento": 4076,
      "ot": 4077,
      "Ġsituado": 4078,
      "Ġviaje": 4079,
      "mina": 4080,
      "mula": 4081,
      "ĠAmer": 4082,
      "Ġfuentes": 4083,
      "rando": 4084,
      "Ġdesc": 4085,
      "ides": 4086,
      "lamento": 4087,
      "ĠalgÃºn": 4088,
      "tugal": 4089,
      "Ġexpe": 4090,
      "entan": 4091,
      "Ġqueda": 4092,
      "ĠdÃ³lares": 4093,
      "Ġcrisis": 4094,
      "ĠIr": 4095,
      "ĠLima": 4096,
      "onales": 4097,
      "Ã©li": 4098,
      "Ġidentific": 4099,
      "Ġautores": 4100,
      "Ġ180": 4101,
      "ight": 4102,
      "Ã³st": 4103,
      "Ġlengu": 4104,
      "ung": 4105,
      "Ġromano": 4106,
      "yas": 4107,
      "ĠVe": 4108,
      "sidad": 4109,
      "venes": 4110,
      "ĠÃģfrica": 4111,
      "Ġproblema": 4112,
      "ĠEstas": 4113,
      "para": 4114,
      "Ġcatal": 4115,
      "SegÃºn": 4116,
      "Ge": 4117,
      "ges": 4118,
      "Ġcontiene": 4119,
      "ÃŃda": 4120,
      "Ġblo": 4121,
      "crÃ¡": 4122,
      "Ġllama": 4123,
      "Ġbuen": 4124,
      "pone": 4125,
      "Ġcomercio": 4126,
      "ĠFlor": 4127,
      "Ġconvier": 4128,
      "venida": 4129,
      "ĠWal": 4130,
      "Ġ1985": 4131,
      "Ġambas": 4132,
      "Ġec": 4133,
      "din": 4134,
      "Ġsemi": 4135,
      "Ã©lulas": 4136,
      "ĠBat": 4137,
      "Ġsolu": 4138,
      "dicos": 4139,
      "cÃ¡n": 4140,
      "ĠpequeÃ±os": 4141,
      "Ġinicio": 4142,
      "adura": 4143,
      "rupo": 4144,
      "ayo": 4145,
      "Ġnos": 4146,
      "Ã³venes": 4147,
      "ĠenseÃ±": 4148,
      "ilar": 4149,
      "Ġsor": 4150,
      "Ġnorm": 4151,
      "orld": 4152,
      "Ġhumano": 4153,
      "mÃ¡tico": 4154,
      "Ġbre": 4155,
      "Ġdirigida": 4156,
      "Ġ1987": 4157,
      "ĠsÃŃmb": 4158,
      "Ġinfl": 4159,
      "Ġdios": 4160,
      "art": 4161,
      "ĠJuegos": 4162,
      "gÃŃa": 4163,
      "tab": 4164,
      "Ġverda": 4165,
      "Ġpocos": 4166,
      "Ã³rdo": 4167,
      "Ġterritorios": 4168,
      "tiles": 4169,
      "diz": 4170,
      "tarse": 4171,
      "ance": 4172,
      "ĠEstudi": 4173,
      "TA": 4174,
      "ÃŃcol": 4175,
      "ĠTri": 4176,
      "ĠkilÃ³metros": 4177,
      "Ġasist": 4178,
      "Ġartistas": 4179,
      "ford": 4180,
      "Ġjuegos": 4181,
      "rÃ³n": 4182,
      "ĠtÃ©rminos": 4183,
      "ua": 4184,
      "mbi": 4185,
      "Ġhabla": 4186,
      "hibi": 4187,
      "Ġnumerosas": 4188,
      "ĠRobert": 4189,
      "Ġfan": 4190,
      "Ġprotes": 4191,
      "Ġ1982": 4192,
      "Ġdeber": 4193,
      "oni": 4194,
      "ĠCÃ¡": 4195,
      "Ġlibertad": 4196,
      "Ġprovincias": 4197,
      "icÃŃa": 4198,
      "Ġrecursos": 4199,
      "tienen": 4200,
      "90": 4201,
      "drÃŃ": 4202,
      "Ġbuena": 4203,
      "metro": 4204,
      "ĠpÃ©r": 4205,
      "ĠpresiÃ³n": 4206,
      "ĠdifÃŃ": 4207,
      "ĠserÃ¡": 4208,
      "ĠDu": 4209,
      "ĠsÃŃn": 4210,
      "Ġmanifes": 4211,
      "Ġsufici": 4212,
      "bes": 4213,
      "ĠÃĵ": 4214,
      "enn": 4215,
      "Ã¡mica": 4216,
      "FA": 4217,
      "Ã¤": 4218,
      "Ġguar": 4219,
      "Ġvio": 4220,
      "Ġpoeta": 4221,
      "ĠÎ": 4222,
      "fin": 4223,
      "gio": 4224,
      "Ġdismin": 4225,
      "Ġestados": 4226,
      "gica": 4227,
      "Ġnaturales": 4228,
      "ĠeconÃ³mico": 4229,
      "ĠmuriÃ³": 4230,
      "Ġproductor": 4231,
      "Ġexperi": 4232,
      "ĠVie": 4233,
      "Ġoccidental": 4234,
      "Ġantiguos": 4235,
      "ĠBos": 4236,
      "Ġdeben": 4237,
      "Ġbe": 4238,
      "cciones": 4239,
      "cripciÃ³n": 4240,
      "Ġvalle": 4241,
      "Ġprofesional": 4242,
      "Ġingeni": 4243,
      "Ġmulti": 4244,
      "ĠÃŃn": 4245,
      "Ġinicia": 4246,
      "Ġfer": 4247,
      "Ġartes": 4248,
      "Ġadi": 4249,
      "ĠEmp": 4250,
      "Ġpasado": 4251,
      "Ġalterna": 4252,
      "ĠJames": 4253,
      "amÃ©rica": 4254,
      "ĠHay": 4255,
      "Ġ1984": 4256,
      "Ġrode": 4257,
      "ĠEdad": 4258,
      "ĠChi": 4259,
      "Ġpilo": 4260,
      "Ġcanal": 4261,
      "ĠPaul": 4262,
      "Ġfrecuencia": 4263,
      "Ġdecre": 4264,
      "Ġenfermedad": 4265,
      "ĠrazÃ³n": 4266,
      "Ġobjetos": 4267,
      "Ġizquierda": 4268,
      "Ġdefensa": 4269,
      "osofÃŃa": 4270,
      "eld": 4271,
      "zÃ¡lez": 4272,
      "llos": 4273,
      "ĠterminÃ³": 4274,
      "Can": 4275,
      "ĠcÃ©lulas": 4276,
      "Ġfemen": 4277,
      "bos": 4278,
      "ĠÃ¡rbol": 4279,
      "Ġsalud": 4280,
      "TambiÃ©n": 4281,
      "ÃŃnsula": 4282,
      "Ġafi": 4283,
      "Ġreina": 4284,
      "Ġnombres": 4285,
      "pla": 4286,
      "didos": 4287,
      "Ġconde": 4288,
      "ĠPortugal": 4289,
      "Ġx": 4290,
      "Ġ1983": 4291,
      "Ġcomienza": 4292,
      "urado": 4293,
      "Ġsituada": 4294,
      "Ġavanz": 4295,
      "Ġras": 4296,
      "ĠvÃŃa": 4297,
      "ĠGol": 4298,
      "ze": 4299,
      "ĠcrÃŃtica": 4300,
      "Ġflu": 4301,
      "uba": 4302,
      "Ġpad": 4303,
      "Po": 4304,
      "Ġtorneo": 4305,
      "Ġvilla": 4306,
      "ĠanunciÃ³": 4307,
      "Ã³rdoba": 4308,
      "Ġalign": 4309,
      "Ġubicado": 4310,
      "ku": 4311,
      "ĠGonzÃ¡lez": 4312,
      "menes": 4313,
      "cionalmente": 4314,
      "Ġfines": 4315,
      "ington": 4316,
      "gaciones": 4317,
      "Ġvas": 4318,
      "Ġcarb": 4319,
      "Ġrec": 4320,
      "jor": 4321,
      "tici": 4322,
      "ĠYa": 4323,
      "Ġportugu": 4324,
      "Mar": 4325,
      "Ġdesem": 4326,
      "Ġamena": 4327,
      "ĠAsi": 4328,
      "esÃŃa": 4329,
      "Ġciencia": 4330,
      "Ġhacen": 4331,
      "Ġinfan": 4332,
      "ĠdÃ©": 4333,
      "Ġdoble": 4334,
      "Ġenci": 4335,
      "Ġidioma": 4336,
      "Ġluch": 4337,
      "tuales": 4338,
      "ĠMari": 4339,
      "tadores": 4340,
      "enso": 4341,
      "Mi": 4342,
      "ĠpequeÃ±as": 4343,
      "alizada": 4344,
      "didas": 4345,
      "ster": 4346,
      "Ã§": 4347,
      "Ġingles": 4348,
      "Ġforman": 4349,
      "lÃŃmp": 4350,
      "Ġadmi": 4351,
      "Ġgente": 4352,
      "tional": 4353,
      "Ġexterior": 4354,
      "ĠOli": 4355,
      "Ġpaz": 4356,
      "Ġ1979": 4357,
      "--": 4358,
      "Ġparticipar": 4359,
      "drÃŃguez": 4360,
      "Ġconstante": 4361,
      "ĠOlÃŃmp": 4362,
      "Ġninguna": 4363,
      "mu": 4364,
      "eca": 4365,
      "ĠjÃ³venes": 4366,
      "Ġhubo": 4367,
      "ĠSevilla": 4368,
      "ĠÃ¡n": 4369,
      "Ġpresente": 4370,
      "toral": 4371,
      "Ġmunicipios": 4372,
      "ĠMedia": 4373,
      "ĠconsiguiÃ³": 4374,
      "Me": 4375,
      "Ġderecha": 4376,
      "Ġamer": 4377,
      "gust": 4378,
      "fornia": 4379,
      "Ġgrado": 4380,
      "Ġlabor": 4381,
      "lÃŃn": 4382,
      "ĠiniciÃ³": 4383,
      "Ġfabric": 4384,
      "ĠnÃºcleo": 4385,
      "Ġminutos": 4386,
      "Ch": 4387,
      "ĠrÃ©gimen": 4388,
      "inta": 4389,
      "Ġvuelta": 4390,
      "ĠSue": 4391,
      "Ġtes": 4392,
      "abe": 4393,
      "Ġ2021": 4394,
      "Ġdirectamente": 4395,
      "Ġnuevamente": 4396,
      "Ġveg": 4397,
      "ĠextensiÃ³n": 4398,
      "tn": 4399,
      "Ġbastante": 4400,
      "ĠIndia": 4401,
      "Ġmadera": 4402,
      "puestas": 4403,
      "amblea": 4404,
      "ĠRodrÃŃguez": 4405,
      "Ġvolver": 4406,
      "emor": 4407,
      "Ġparro": 4408,
      "ww": 4409,
      "Fue": 4410,
      "Ġedificios": 4411,
      "Ġfuturo": 4412,
      "ĠĠĊ": 4413,
      "putados": 4414,
      "acÃŃ": 4415,
      "NE": 4416,
      "Ġazul": 4417,
      "ĠJean": 4418,
      "BiografÃŃa": 4419,
      "Ci": 4420,
      "rales": 4421,
      "Ġformado": 4422,
      "amo": 4423,
      "ecido": 4424,
      "ĠDire": 4425,
      "Ġsemana": 4426,
      "Ġllevar": 4427,
      "ĠSim": 4428,
      "Ġ90": 4429,
      "Ġpapa": 4430,
      "ficaciones": 4431,
      "ĠMed": 4432,
      "anzas": 4433,
      "Ġdibu": 4434,
      "ĠMos": 4435,
      "rano": 4436,
      "Ġconquist": 4437,
      "lada": 4438,
      "tle": 4439,
      "Ġsolici": 4440,
      "Ġgr": 4441,
      "ĠtÃ©cnica": 4442,
      "gencia": 4443,
      "Ġgoles": 4444,
      "ĠnaciÃ³": 4445,
      "ĠStar": 4446,
      "ritores": 4447,
      "ĠnÃºmeros": 4448,
      "bla": 4449,
      "ĠLuc": 4450,
      "Ġpelig": 4451,
      "Ġ70": 4452,
      "ith": 4453,
      "Ġtuvieron": 4454,
      "ĠTex": 4455,
      "ĠPÃ©": 4456,
      "cidas": 4457,
      "ponde": 4458,
      "Ġpul": 4459,
      "ĠAlgunos": 4460,
      "Ġhicieron": 4461,
      "gios": 4462,
      "Ġtomar": 4463,
      "entro": 4464,
      "DespuÃ©s": 4465,
      "ĠFernÃ¡ndez": 4466,
      "Ġinform": 4467,
      "Ġ1981": 4468,
      "Ġnucle": 4469,
      "Ġprogramas": 4470,
      "Ġutilizar": 4471,
      "vili": 4472,
      "Ġapren": 4473,
      "ĠMol": 4474,
      "Ġtriun": 4475,
      "ema": 4476,
      "ĠSen": 4477,
      "ĠFestival": 4478,
      "Ġ2022": 4479,
      "Ġmexicano": 4480,
      "Ġbandera": 4481,
      "Ġmarc": 4482,
      "ĠempezÃ³": 4483,
      "ane": 4484,
      "ombre": 4485,
      "Ġglo": 4486,
      "ĠAustral": 4487,
      "Ġcompu": 4488,
      "ĠimÃ¡genes": 4489,
      "Ġpiedra": 4490,
      "ĠmÃ¡ximo": 4491,
      "onces": 4492,
      "Ġasent": 4493,
      "ĠrÃŃos": 4494,
      "Di": 4495,
      "by": 4496,
      "siciÃ³n": 4497,
      "Ġpasar": 4498,
      "Ġ+": 4499,
      "Ġmateriales": 4500,
      "Esta": 4501,
      "ueva": 4502,
      "ĠIndepen": 4503,
      "Ġaquellos": 4504,
      "Ġconcre": 4505,
      "Ġsuelo": 4506,
      "Ġ1978": 4507,
      "Ġescudo": 4508,
      "vados": 4509,
      "ĠCÃ³rdoba": 4510,
      "ĠpresentÃ³": 4511,
      "bita": 4512,
      "Ġusa": 4513,
      "erial": 4514,
      "Sin": 4515,
      "Ġencontraba": 4516,
      "Ġeso": 4517,
      "ĠParque": 4518,
      "Ġsalida": 4519,
      "Ġnegro": 4520,
      "Ġbenefici": 4521,
      "35": 4522,
      "mporÃ¡n": 4523,
      "siva": 4524,
      "bilidades": 4525,
      "Ġestim": 4526,
      "Ġparece": 4527,
      "eles": 4528,
      "Ġceleb": 4529,
      "inato": 4530,
      "rista": 4531,
      "cula": 4532,
      "Ġocup": 4533,
      "pin": 4534,
      "Ġcompleto": 4535,
      "Ġ1976": 4536,
      "Ġinferior": 4537,
      "mÃ¡ticas": 4538,
      "vol": 4539,
      "tima": 4540,
      "Ġ1950": 4541,
      "ĠFu": 4542,
      "ĠTrans": 4543,
      "ĠCap": 4544,
      "ics": 4545,
      "Ġnie": 4546,
      "Ġsang": 4547,
      "Ġmonum": 4548,
      "Ġrele": 4549,
      "Ġmarca": 4550,
      "ĠDar": 4551,
      "tori": 4552,
      "Ġperu": 4553,
      "grÃ¡fica": 4554,
      "mm": 4555,
      "Ġproducir": 4556,
      "Ġ1973": 4557,
      "ejo": 4558,
      "Ġsuelen": 4559,
      "Ġaumento": 4560,
      "tidades": 4561,
      "Ġrefor": 4562,
      "ÃŃsticas": 4563,
      "Ġpreten": 4564,
      "umo": 4565,
      "uno": 4566,
      "elÃŃculas": 4567,
      "Ġmantuvo": 4568,
      "verso": 4569,
      "versal": 4570,
      "vech": 4571,
      "Ġmemoria": 4572,
      "ĠCre": 4573,
      "Ġorganiza": 4574,
      "Ġcuarto": 4575,
      "Ġlic": 4576,
      "cili": 4577,
      "ĠAra": 4578,
      "Ġpasa": 4579,
      "tones": 4580,
      "Ġdigi": 4581,
      "ĠCiencias": 4582,
      "Ġconflicto": 4583,
      "ualmente": 4584,
      "zz": 4585,
      "itÃ©": 4586,
      "oluciÃ³n": 4587,
      "Ġacus": 4588,
      "ĠPlaza": 4589,
      "Ġnecesario": 4590,
      "sh": 4591,
      "Ġvariedad": 4592,
      "Ġselec": 4593,
      "Ġconocimiento": 4594,
      "Ġconven": 4595,
      "ath": 4596,
      "adÃ©m": 4597,
      "Ġ(\"": 4598,
      "ĠBla": 4599,
      "inastÃŃa": 4600,
      "tologÃŃa": 4601,
      "Ġmens": 4602,
      "Ġrealizado": 4603,
      "ecÃŃa": 4604,
      "ĠDiego": 4605,
      "pia": 4606,
      "rieron": 4607,
      "ĠPopular": 4608,
      "ĠWa": 4609,
      "Ġprim": 4610,
      "Ġescrito": 4611,
      "âĢĿ.": 4612,
      "ĠmÃ©todo": 4613,
      "Ġcomienz": 4614,
      "mann": 4615,
      "Ġllega": 4616,
      "Ġaso": 4617,
      "vidad": 4618,
      "Ġenter": 4619,
      "dri": 4620,
      "Ġdetal": 4621,
      "apones": 4622,
      "ervi": 4623,
      "isten": 4624,
      "ocu": 4625,
      "deros": 4626,
      "ĠPeter": 4627,
      "ĠRafa": 4628,
      "Ġversiones": 4629,
      "tol": 4630,
      "Ġcombate": 4631,
      "Â«": 4632,
      "Or": 4633,
      "ĠseÃ±or": 4634,
      "Ġcreado": 4635,
      "tyle": 4636,
      "ĠfÃŃsica": 4637,
      "ĠEspaÃ±ola": 4638,
      "Este": 4639,
      "Ġconstruir": 4640,
      "Ġvac": 4641,
      "Ġestren": 4642,
      "hÃŃcu": 4643,
      "Ġvalores": 4644,
      "ĠcampeÃ³n": 4645,
      "Ġacciones": 4646,
      "ĠPlata": 4647,
      "Ġoscu": 4648,
      "ĠanÃ¡lisis": 4649,
      "âĢĿ,": 4650,
      "lÃ¡": 4651,
      "Ġrecom": 4652,
      "ĠmÃŃni": 4653,
      "99": 4654,
      "ĠCul": 4655,
      "ĠMes": 4656,
      "ican": 4657,
      "elli": 4658,
      "Ġnega": 4659,
      "Ġlenguaje": 4660,
      "Ġrespuesta": 4661,
      "Ġ<": 4662,
      "ĠSalvador": 4663,
      "Ġmusul": 4664,
      "Ġarquitectura": 4665,
      "ĠDist": 4666,
      "ĠWorld": 4667,
      "Ġposibilidad": 4668,
      "ĠdistribuciÃ³n": 4669,
      "inados": 4670,
      "Ġdisposi": 4671,
      "ĠapariciÃ³n": 4672,
      "Ġusar": 4673,
      "ĠparticipÃ³": 4674,
      "Ġexcep": 4675,
      "Ġmismos": 4676,
      "isco": 4677,
      "ĠquÃ©": 4678,
      "Ġtorno": 4679,
      "ftware": 4680,
      "Ġniveles": 4681,
      "Ġexplo": 4682,
      "Ġmasa": 4683,
      "ĠCalifornia": 4684,
      "tron": 4685,
      "ĠSierra": 4686,
      "mato": 4687,
      "Ġdor": 4688,
      "bida": 4689,
      "Ġfrontera": 4690,
      "we": 4691,
      "ĠRadio": 4692,
      "Ã©ndo": 4693,
      "quina": 4694,
      "dias": 4695,
      "Ġprofesor": 4696,
      "Ġestrella": 4697,
      "Ġexclusi": 4698,
      "Ġequival": 4699,
      "Ġcentros": 4700,
      "Ġcircun": 4701,
      "ĠpermitiÃ³": 4702,
      "ĠfÃ¡cil": 4703,
      "Person": 4704,
      "Ġcalles": 4705,
      "ĠSam": 4706,
      "Ġalcan": 4707,
      "dy": 4708,
      "ĠMayor": 4709,
      "ÃŃdo": 4710,
      "Ġmotor": 4711,
      "tarÃŃa": 4712,
      "ello": 4713,
      "PelÃŃculas": 4714,
      "Ġvotos": 4715,
      "Ġasumi": 4716,
      "ĠtomÃ³": 4717,
      "ons": 4718,
      "ĠLuego": 4719,
      "ĠmÃºlti": 4720,
      "Ġconocer": 4721,
      "tudes": 4722,
      "CA": 4723,
      "trar": 4724,
      "Ã¡tico": 4725,
      "lie": 4726,
      "Ġhumana": 4727,
      "color": 4728,
      "Ã©ro": 4729,
      "Ġalum": 4730,
      "ĠGeorge": 4731,
      "ords": 4732,
      "Ġcaball": 4733,
      "iores": 4734,
      "ĠCons": 4735,
      "75": 4736,
      "ĠgeogrÃ¡": 4737,
      "ĠComi": 4738,
      "Ġllegaron": 4739,
      "Ġresistencia": 4740,
      "ombi": 4741,
      "Ġpruebas": 4742,
      "Ġelemento": 4743,
      "Ġhaciendo": 4744,
      "ichael": 4745,
      "ĠWin": 4746,
      "ficÃ³": 4747,
      "Ġprobablemente": 4748,
      "Ġdinero": 4749,
      "ĠclasificaciÃ³n": 4750,
      "Ġ1974": 4751,
      "ĠatenciÃ³n": 4752,
      "Ġdesempe": 4753,
      "Ġlarga": 4754,
      "ĠrepresentaciÃ³n": 4755,
      "sociaciÃ³n": 4756,
      "Ġcomerci": 4757,
      "Ġ1975": 4758,
      "Ġturi": 4759,
      "Escritores": 4760,
      "Ġ1977": 4761,
      "ĠrÃ¡pidamente": 4762,
      "Ġescla": 4763,
      "Ġfeder": 4764,
      "ĠNuevo": 4765,
      "urÃŃ": 4766,
      "Ġcarga": 4767,
      "Ġabsolu": 4768,
      "deras": 4769,
      "Ġdominio": 4770,
      "Ġindustrial": 4771,
      "ganizaciÃ³n": 4772,
      "ĠAna": 4773,
      "Ġmotivo": 4774,
      "ĠfenÃ³m": 4775,
      "Ġconden": 4776,
      "Ã¡lo": 4777,
      "Ġesfuer": 4778,
      "Ġcompuesto": 4779,
      "Ġamigo": 4780,
      "Ġposteriores": 4781,
      "Ġtratamiento": 4782,
      "33": 4783,
      "ficul": 4784,
      "Ġleyes": 4785,
      "tÃºa": 4786,
      "Ġutilizan": 4787,
      "ĠfundaciÃ³n": 4788,
      "ĠHor": 4789,
      "ĠtecnologÃŃa": 4790,
      "desa": 4791,
      "Ġcomarca": 4792,
      "Ġacerca": 4793,
      "Ġvolun": 4794,
      "ume": 4795,
      "Ġcrea": 4796,
      "ĠestableciÃ³": 4797,
      "Ġgenerales": 4798,
      "ĠRic": 4799,
      "ĠoposiciÃ³n": 4800,
      "Ġexig": 4801,
      "gipto": 4802,
      "Ġderrota": 4803,
      "ĠIsabel": 4804,
      "Ġestadio": 4805,
      "ĠEduardo": 4806,
      "Ġcadena": 4807,
      "Ġagru": 4808,
      "Ġcosas": 4809,
      "ĠhabrÃŃa": 4810,
      "Ġcolores": 4811,
      "Ġjapones": 4812,
      "Ġdestacan": 4813,
      "Ġamar": 4814,
      "ĠAlberto": 4815,
      "Ġdoc": 4816,
      "Ġsil": 4817,
      "Ġideas": 4818,
      "elos": 4819,
      "gente": 4820,
      "Ġ35": 4821,
      "Ġreconoc": 4822,
      "Ġcontrario": 4823,
      "Ã©di": 4824,
      "amento": 4825,
      "reras": 4826,
      "Ġhermanos": 4827,
      "ulos": 4828,
      "ji": 4829,
      "tades": 4830,
      "Ã³rmula": 4831,
      "Ġconocidos": 4832,
      "ples": 4833,
      "Ġenor": 4834,
      "Ġnecesidad": 4835,
      "ĠPalacio": 4836,
      "Ġconvierte": 4837,
      "ĠVI": 4838,
      "Ġtrabajar": 4839,
      "ĠPÃ©rez": 4840,
      "Ġnacimiento": 4841,
      "Ġdestr": 4842,
      "Ġdeman": 4843,
      "Ġgrave": 4844,
      "95": 4845,
      "Ġindica": 4846,
      "vuel": 4847,
      "Ġcolum": 4848,
      "Ġnada": 4849,
      "ĠFil": 4850,
      "ĠTorre": 4851,
      "ĠAmb": 4852,
      "ity": 4853,
      "ĠÃ¡mbi": 4854,
      "ĠCrist": 4855,
      "Ġstyle": 4856,
      "idi": 4857,
      "ĠtÃŃtulos": 4858,
      "lle": 4859,
      "ĠpenÃŃnsula": 4860,
      "ĠMinisterio": 4861,
      "ĠPh": 4862,
      "tres": 4863,
      "ĠPosteriormente": 4864,
      "Ġganar": 4865,
      "ĠHam": 4866,
      "Ġacce": 4867,
      "Ġpeso": 4868,
      "ĠJack": 4869,
      "Ġgana": 4870,
      "ĠtÃ©cnicas": 4871,
      "Futbol": 4872,
      "Ġesos": 4873,
      "pus": 4874,
      "ĠAsia": 4875,
      "Ġlago": 4876,
      "ĠBoli": 4877,
      "Fallecidos": 4878,
      "rÃŃ": 4879,
      "ĠelecciÃ³n": 4880,
      "Ġdenomina": 4881,
      "Ġmur": 4882,
      "gir": 4883,
      "Ġescala": 4884,
      "fas": 4885,
      "ĠKar": 4886,
      "ajos": 4887,
      "Ġpropios": 4888,
      "45": 4889,
      "Ġprom": 4890,
      "ĠPen": 4891,
      "Ġaus": 4892,
      "bro": 4893,
      "AdemÃ¡s": 4894,
      "Ã³cra": 4895,
      "ĠSar": 4896,
      "85": 4897,
      "torios": 4898,
      "Ġdificul": 4899,
      "ĠUruguay": 4900,
      "Ġcorriente": 4901,
      "mbre": 4902,
      "mentaciÃ³n": 4903,
      "Ġfamilias": 4904,
      "Ġhechos": 4905,
      "ĠAustralia": 4906,
      "ĠGab": 4907,
      "ella": 4908,
      "Ġcompletamente": 4909,
      "Ġaprovech": 4910,
      "quez": 4911,
      "tiendo": 4912,
      "ĠEstÃ¡": 4913,
      "ĠTro": 4914,
      "way": 4915,
      "Ġautoridades": 4916,
      "ania": 4917,
      "NA": 4918,
      "Ġcontacto": 4919,
      "Ġapor": 4920,
      "ĠRichard": 4921,
      "Ġrespectivamente": 4922,
      "ĠRafael": 4923,
      "Ġmusicales": 4924,
      "Ġconfi": 4925,
      "Ġoriental": 4926,
      "Ġoperaciones": 4927,
      "ĠAustria": 4928,
      "ĠPaz": 4929,
      "omos": 4930,
      "Ġcontenido": 4931,
      "rida": 4932,
      "rana": 4933,
      "up": 4934,
      "landÃ©s": 4935,
      "Ġsome": 4936,
      "Ġcastillo": 4937,
      "tim": 4938,
      "ĠvehÃŃcu": 4939,
      "Ġestablecer": 4940,
      "ernos": 4941,
      "ĠWi": 4942,
      "ĠdeclarÃ³": 4943,
      "Vi": 4944,
      "ĠTour": 4945,
      "//": 4946,
      "dice": 4947,
      "Ġabund": 4948,
      "Ġfuego": 4949,
      "ĠEcu": 4950,
      "ys": 4951,
      "Ġmanda": 4952,
      "Ġprogres": 4953,
      "Ġ1968": 4954,
      "ĠprotecciÃ³n": 4955,
      "Ġbib": 4956,
      "carril": 4957,
      "Ã©ticos": 4958,
      "ĠEgipto": 4959,
      "Ġclases": 4960,
      "ĠCristo": 4961,
      "Futbolistas": 4962,
      "ĠdebÃŃa": 4963,
      "vadas": 4964,
      "ĠRevoluciÃ³n": 4965,
      "org": 4966,
      "Ġilust": 4967,
      "Ġrespons": 4968,
      "menta": 4969,
      "ĠFinalmente": 4970,
      "ĠAlejandro": 4971,
      "ĠMis": 4972,
      "olÃ³gicas": 4973,
      "ĠJim": 4974,
      "Ġano": 4975,
      "Ġestrellas": 4976,
      "Ġapre": 4977,
      "ĠmÃ³": 4978,
      "Ġrecibe": 4979,
      "enos": 4980,
      "Ġ1972": 4981,
      "ĠalcanzÃ³": 4982,
      "Ãºr": 4983,
      "ĠgeneraciÃ³n": 4984,
      "Ġdebut": 4985,
      "Ġcasas": 4986,
      "ĠlanzÃ³": 4987,
      "ĠexpresiÃ³n": 4988,
      "ĠCataluÃ±a": 4989,
      "Ġproto": 4990,
      "Ġventa": 4991,
      "Ġprueba": 4992,
      "Ġcierto": 4993,
      "ĠGrecia": 4994,
      "denes": 4995,
      "Ġsolamente": 4996,
      "estruc": 4997,
      "Ġmad": 4998,
      "Ġartista": 4999,
      "ĠindÃŃgenas": 5000,
      "Ġruso": 5001,
      "ĠdifÃŃcil": 5002,
      "ĠaÃ©": 5003,
      "Tra": 5004,
      "Ġinstituciones": 5005,
      "ponÃ©s": 5006,
      "inada": 5007,
      "ĠRamÃ³n": 5008,
      "ĠBill": 5009,
      "ĠEcon": 5010,
      "Ġllu": 5011,
      "igh": 5012,
      "Ġbienes": 5013,
      "Ġcabal": 5014,
      "ĠTemp": 5015,
      "ĠFl": 5016,
      "Ma": 5017,
      "Ġries": 5018,
      "bus": 5019,
      "Ġhere": 5020,
      "Ġtorre": 5021,
      "Ġcoinci": 5022,
      "65": 5023,
      "Ġadecu": 5024,
      "ĠSoviÃ©tica": 5025,
      "ĠArtes": 5026,
      "Ġoport": 5027,
      "Ġescena": 5028,
      "ling": 5029,
      "drÃŃa": 5030,
      "ix": 5031,
      "ĠAir": 5032,
      "Ġescal": 5033,
      "Ġtenido": 5034,
      "ĠdecisiÃ³n": 5035,
      "iado": 5036,
      "tencia": 5037,
      "Ġbur": 5038,
      "Ġprac": 5039,
      "ann": 5040,
      "Ġdestaca": 5041,
      "ertos": 5042,
      "ĠAsociaciÃ³n": 5043,
      "icaciones": 5044,
      "alizÃ³": 5045,
      "ĠMientras": 5046,
      "Ġafirma": 5047,
      "rero": 5048,
      "BA": 5049,
      "ĊĠĠĠ": 5050,
      "taban": 5051,
      "ĠMichael": 5052,
      "ĠagrÃŃcol": 5053,
      "ficial": 5054,
      "pr": 5055,
      "eren": 5056,
      "Ġnoti": 5057,
      "Ġcomenzaron": 5058,
      "Ġoficialmente": 5059,
      "SS": 5060,
      "ĠSitio": 5061,
      "ĠWe": 5062,
      "juegos": 5063,
      "Ġromana": 5064,
      "ĠcÃ³digo": 5065,
      "alismo": 5066,
      "Ġbras": 5067,
      "Ġnues": 5068,
      "Ġga": 5069,
      "Ġbra": 5070,
      "domin": 5071,
      "Ġperiodista": 5072,
      "viera": 5073,
      "dÃ³n": 5074,
      "Ġhora": 5075,
      "ĠGuadal": 5076,
      "Ġcomerciales": 5077,
      "Ġambiente": 5078,
      "Ġdiferenci": 5079,
      "Ġcarretera": 5080,
      "dea": 5081,
      "Ġpiezas": 5082,
      "rer": 5083,
      "Ġespi": 5084,
      "iro": 5085,
      "teo": 5086,
      "Ġfondo": 5087,
      "Ġenten": 5088,
      "chez": 5089,
      "Ġtratado": 5090,
      "Ġalcanzar": 5091,
      "ularidad": 5092,
      "Ġprocesos": 5093,
      "oeste": 5094,
      "Ġlanzamiento": 5095,
      "ĠreligiÃ³n": 5096,
      "Ġpers": 5097,
      "Cuando": 5098,
      "Ġraz": 5099,
      "Ġflor": 5100,
      "acas": 5101,
      "ĠÃģl": 5102,
      "Ġsent": 5103,
      "llermo": 5104,
      "Ġconsist": 5105,
      "mografÃŃa": 5106,
      "ement": 5107,
      "ore": 5108,
      "ritos": 5109,
      "ĠmÃ¡xima": 5110,
      "derÃŃa": 5111,
      "Ġsangre": 5112,
      "ĠAyuntamiento": 5113,
      "ĠTen": 5114,
      "ĠhistÃ³rica": 5115,
      "ĠDomingo": 5116,
      "Ġbasada": 5117,
      "34": 5118,
      "dol": 5119,
      "oya": 5120,
      "Ġcampos": 5121,
      "Ġ1930": 5122,
      "Ġconstruido": 5123,
      "ĠCampeonato": 5124,
      "ĠPin": 5125,
      "Ġpu": 5126,
      "Ġestadounidenses": 5127,
      "Ġperfec": 5128,
      "Pri": 5129,
      "ĠTiene": 5130,
      "Ġmili": 5131,
      "ĠdÃ©cadas": 5132,
      "Ġreinado": 5133,
      "Ġconside": 5134,
      "Ġvon": 5135,
      "Ġmateria": 5136,
      "Ġexplic": 5137,
      "Ġib": 5138,
      "Ġdiferente": 5139,
      "Ã³noma": 5140,
      "RA": 5141,
      "ĠVicente": 5142,
      "ĠCanadÃ¡": 5143,
      "cher": 5144,
      "Ġfranceses": 5145,
      "76": 5146,
      "ĠGrupo": 5147,
      "Ġmagn": 5148,
      "Ġavan": 5149,
      "Ġpropiedades": 5150,
      "Ġconseguir": 5151,
      "Ġmicro": 5152,
      "ĠgrÃ¡": 5153,
      "cesa": 5154,
      "uth": 5155,
      "88": 5156,
      "Ġguion": 5157,
      "tions": 5158,
      "ĠVil": 5159,
      "Ġcomand": 5160,
      "Ġ1969": 5161,
      "velas": 5162,
      "ĠVan": 5163,
      "Ġtemplo": 5164,
      "ĠHab": 5165,
      "urar": 5166,
      "Ġexperiencia": 5167,
      "ĠcaÃŃda": 5168,
      "cÃ³n": 5169,
      "ĠmisiÃ³n": 5170,
      "ificaciÃ³n": 5171,
      "://": 5172,
      "ĠMartÃŃnez": 5173,
      "wer": 5174,
      "Ġprima": 5175,
      "Ġpadres": 5176,
      "uye": 5177,
      "urias": 5178,
      "Ġpopulares": 5179,
      "Ġcontaba": 5180,
      "Ġpros": 5181,
      "ĠFri": 5182,
      "Ġtesti": 5183,
      "ĠSecre": 5184,
      "Ġmovimientos": 5185,
      "Ġubicada": 5186,
      "ĠlatÃŃn": 5187,
      "Ġsimilares": 5188,
      "ĠOb": 5189,
      "rante": 5190,
      "ĠTV": 5191,
      "alaciones": 5192,
      "Ġsuje": 5193,
      "ĠFr": 5194,
      "ĠCivil": 5195,
      "taÃ±a": 5196,
      "ĠMy": 5197,
      "Ġadelante": 5198,
      "terrÃ¡neo": 5199,
      "unta": 5200,
      "Co": 5201,
      "Ġpintor": 5202,
      "dis": 5203,
      "ÃŃes": 5204,
      "Ġ1940": 5205,
      "ĠprÃŃncipe": 5206,
      "ĠSta": 5207,
      "cieron": 5208,
      "ĠSy": 5209,
      "unidad": 5210,
      "Ġvesti": 5211,
      "ĠDos": 5212,
      "Ġestudiantes": 5213,
      "ÃŃsticos": 5214,
      "Ġcara": 5215,
      "ĠlÃŃmite": 5216,
      "ĠcapitÃ¡n": 5217,
      "Ġculturales": 5218,
      "Ġcolombi": 5219,
      "Ġreconocimiento": 5220,
      "stein": 5221,
      "Ġpresidencia": 5222,
      "ĠcatÃ³lica": 5223,
      "Ġsust": 5224,
      "ĠartÃŃculos": 5225,
      "Ġdiscu": 5226,
      "ĠGrande": 5227,
      "vie": 5228,
      "yen": 5229,
      "Ġfir": 5230,
      "ĠGil": 5231,
      "ĠbritÃ¡nica": 5232,
      "ĠAndrÃ©s": 5233,
      "ĠSebas": 5234,
      "Ġdisting": 5235,
      "ĠcontemporÃ¡n": 5236,
      "ĠTeatro": 5237,
      "Ġpuso": 5238,
      "86": 5239,
      "Ġ978": 5240,
      "Ġescribir": 5241,
      "ĠGranada": 5242,
      "GeografÃŃa": 5243,
      "Ġais": 5244,
      "jeron": 5245,
      "rupos": 5246,
      "Ġ1971": 5247,
      "Ġvecinos": 5248,
      "ĠNavar": 5249,
      "Ġmedidas": 5250,
      "Ġ1945": 5251,
      "Ġextremo": 5252,
      "ĠevoluciÃ³n": 5253,
      "ÃŃri": 5254,
      "acÃŃfico": 5255,
      "tios": 5256,
      "pertura": 5257,
      "todos": 5258,
      "Ġreprodu": 5259,
      "Ġcoci": 5260,
      "Ãł": 5261,
      "ĠÃ¡rabe": 5262,
      "Ġadul": 5263,
      "Ġtren": 5264,
      "Ġconquista": 5265,
      "ĠCharles": 5266,
      "Ġeventos": 5267,
      "Ġalber": 5268,
      "ĠJulio": 5269,
      "Ġconsiste": 5270,
      "Ġtrono": 5271,
      "ÃŃgenes": 5272,
      "ĠVill": 5273,
      "Ġcarta": 5274,
      "grado": 5275,
      "Ġterreno": 5276,
      "ĠSociedad": 5277,
      "Ġvin": 5278,
      "trÃŃa": 5279,
      "Ġcump": 5280,
      "ĠcÃ¡n": 5281,
      "36": 5282,
      "Ġaj": 5283,
      "ĠapareciÃ³": 5284,
      "Ġintento": 5285,
      "Ġproyectos": 5286,
      "arquÃŃa": 5287,
      "Ġdenominado": 5288,
      "Ġurbano": 5289,
      "Ġ1967": 5290,
      "ates": 5291,
      "Ġalemanes": 5292,
      "Ġcomunes": 5293,
      "ĠComunidad": 5294,
      "Ġreemplaz": 5295,
      "Ã³li": 5296,
      "Ġagricultura": 5297,
      "clo": 5298,
      "ĠcolecciÃ³n": 5299,
      "Ġnota": 5300,
      "ĠSÃ¡n": 5301,
      "Ġmanteni": 5302,
      "kin": 5303,
      "ecciÃ³n": 5304,
      "Ġbandas": 5305,
      "sil": 5306,
      "ĠacadÃ©m": 5307,
      "Ġfiestas": 5308,
      "Ġcompor": 5309,
      "ĠjaponÃ©s": 5310,
      "Ġproclam": 5311,
      "Ġdipl": 5312,
      "Ġbol": 5313,
      "Ġimpues": 5314,
      "enzo": 5315,
      "gados": 5316,
      "maciÃ³n": 5317,
      "vio": 5318,
      "Ġdando": 5319,
      "Ã£": 5320,
      "ĠMundo": 5321,
      "Ġfracas": 5322,
      "ĠcontinuÃ³": 5323,
      "ĠcatÃ³l": 5324,
      "cambi": 5325,
      "ĠRol": 5326,
      "Ġescuelas": 5327,
      "lesias": 5328,
      "rantes": 5329,
      "ĠKo": 5330,
      "Ġexplor": 5331,
      "Ġfirm": 5332,
      "ĠOtros": 5333,
      "ĠBiblioteca": 5334,
      "uidas": 5335,
      "ĠRica": 5336,
      "ĠcÃ©": 5337,
      "vesti": 5338,
      "ĠMic": 5339,
      "ĠcontinuaciÃ³n": 5340,
      "Ġnueve": 5341,
      "Ġmodelos": 5342,
      "tral": 5343,
      "Ġfiesta": 5344,
      "ĠGuillermo": 5345,
      "ĠSui": 5346,
      "Ġterror": 5347,
      "ĠCha": 5348,
      "adoras": 5349,
      "oles": 5350,
      "Ġpuente": 5351,
      "ĠpublicaciÃ³n": 5352,
      "wood": 5353,
      "Ġfortal": 5354,
      "sist": 5355,
      "demos": 5356,
      "Ġestatu": 5357,
      "ĠjudÃŃos": 5358,
      "Ġcapaz": 5359,
      "cy": 5360,
      "ant": 5361,
      "ĠestÃ¡ndar": 5362,
      "ĠcomposiciÃ³n": 5363,
      "Ġcomienzo": 5364,
      "Ġvivo": 5365,
      "iscal": 5366,
      "ĠformÃ³": 5367,
      "ĠEstadio": 5368,
      "Ġedu": 5369,
      "Ġrojo": 5370,
      "gidos": 5371,
      "Ġ#": 5372,
      "tropoli": 5373,
      "Ġtej": 5374,
      "ĠAlex": 5375,
      "Ġurban": 5376,
      "Ġprotagoniz": 5377,
      "ĠpÃ©rdida": 5378,
      "Ġsugi": 5379,
      "Ġsobrevi": 5380,
      "Ġvali": 5381,
      "Ġtum": 5382,
      "riba": 5383,
      "ĠHern": 5384,
      "Ġalemana": 5385,
      "ĠJunta": 5386,
      "Ãºsica": 5387,
      "Ġruta": 5388,
      "Ġalmacen": 5389,
      "Ġsober": 5390,
      "ĠHun": 5391,
      "ribunal": 5392,
      "ĠZa": 5393,
      "ĠSÃ¡nchez": 5394,
      "Ġprensa": 5395,
      "Ġfiguras": 5396,
      "ĠGali": 5397,
      "Ġmenores": 5398,
      "Ġusado": 5399,
      "Ġsovi": 5400,
      "mir": 5401,
      "Ġplaneta": 5402,
      "ĠÃģlvar": 5403,
      "ĠSebasti": 5404,
      "Ġhog": 5405,
      "Ġamplia": 5406,
      "Ġrepubl": 5407,
      "ĠdinastÃŃa": 5408,
      "Ġmoderna": 5409,
      "Ġcay": 5410,
      "ĠPress": 5411,
      "Ġobli": 5412,
      "Ġdispar": 5413,
      "Ġinicial": 5414,
      "Ġrequier": 5415,
      "Ġacto": 5416,
      "ĠPon": 5417,
      "Aunque": 5418,
      "Ġrecibir": 5419,
      "Ġaseg": 5420,
      "ĠEuropea": 5421,
      "Ġdese": 5422,
      "dada": 5423,
      "ĠLeg": 5424,
      "olid": 5425,
      "bios": 5426,
      "gura": 5427,
      "''": 5428,
      "cracia": 5429,
      "ĠAri": 5430,
      "Ġpantal": 5431,
      "uss": 5432,
      "ence": 5433,
      "ĠAndal": 5434,
      "ude": 5435,
      "Ġaltas": 5436,
      "Ġaspecto": 5437,
      "ĠCD": 5438,
      "ĠCuba": 5439,
      "ĠaplicaciÃ³n": 5440,
      "Ġbloque": 5441,
      "cle": 5442,
      "Ġaparecen": 5443,
      "Ġabog": 5444,
      "ĠdenominaciÃ³n": 5445,
      "ivo": 5446,
      "Ġsemanas": 5447,
      "Ã±ez": 5448,
      "Ġtradicionales": 5449,
      "Ġrefiere": 5450,
      "Ġaquella": 5451,
      "Ġdiario": 5452,
      "usto": 5453,
      "Ġ500": 5454,
      "Ġnotable": 5455,
      "ĠTar": 5456,
      "ĠOlÃŃmpicos": 5457,
      "ĠFrank": 5458,
      "ĠSha": 5459,
      "Ġcercan": 5460,
      "eres": 5461,
      "ĠmÃ©dico": 5462,
      "Ġdesplaz": 5463,
      "cipl": 5464,
      "Ġseguir": 5465,
      "Ġdimen": 5466,
      "Ġmascul": 5467,
      "geno": 5468,
      "ĠHel": 5469,
      "teles": 5470,
      "ĠAsamblea": 5471,
      "Ġcontrato": 5472,
      "ĠSub": 5473,
      "Ġentrenador": 5474,
      "Ġsimplemente": 5475,
      "ĠDemo": 5476,
      "ĠSig": 5477,
      "ĠFederal": 5478,
      "ĠNicol": 5479,
      "reo": 5480,
      "Ġduque": 5481,
      "96": 5482,
      "Ġestad": 5483,
      "ĠArte": 5484,
      "Notas": 5485,
      "uta": 5486,
      "ĠColegio": 5487,
      "Ġavent": 5488,
      "Ġ45": 5489,
      "47": 5490,
      "ds": 5491,
      "stancias": 5492,
      "Ġganado": 5493,
      "ĠexpansiÃ³n": 5494,
      "Ġrecibi": 5495,
      "Ġautoridad": 5496,
      "enes": 5497,
      "isa": 5498,
      "Ġformato": 5499,
      "ĠLen": 5500,
      "ĠperdiÃ³": 5501,
      "EspaÃ±a": 5502,
      "nal": 5503,
      "Ti": 5504,
      "Ġbrasile": 5505,
      "ardia": 5506,
      "ĠhacÃŃa": 5507,
      "Ġamigos": 5508,
      "Ġfundada": 5509,
      "Ġcierta": 5510,
      "Ġobispo": 5511,
      "ĠsiguiÃ³": 5512,
      "ĠBolivia": 5513,
      "Ġ1964": 5514,
      "Ġbreve": 5515,
      "vales": 5516,
      "Ġdemas": 5517,
      "Ġcostu": 5518,
      "Algun": 5519,
      "Ġpoblaciones": 5520,
      "Pa": 5521,
      "liz": 5522,
      "Ġconsumo": 5523,
      "ĠCO": 5524,
      "arago": 5525,
      "ĠvÃŃc": 5526,
      "Loc": 5527,
      "ister": 5528,
      "97": 5529,
      "ĠTre": 5530,
      "Ġvolumen": 5531,
      "peraciÃ³n": 5532,
      "ĠIsrael": 5533,
      "Ġbasado": 5534,
      "Ġincen": 5535,
      "ĠDef": 5536,
      "2000": 5537,
      "Ġcompleta": 5538,
      "gulo": 5539,
      "amb": 5540,
      "ĠHit": 5541,
      "âĢĶ,": 5542,
      "ĠmÃºltiples": 5543,
      "aniel": 5544,
      "37": 5545,
      "87": 5546,
      "Ġâ": 5547,
      "Ġsacerdo": 5548,
      "ony": 5549,
      "Ġcomplejo": 5550,
      "ER": 5551,
      "Ġses": 5552,
      "Ġparticip": 5553,
      "Ġlin": 5554,
      "lament": 5555,
      "puso": 5556,
      "Fran": 5557,
      "ĠgestiÃ³n": 5558,
      "ugh": 5559,
      "Ġeuropeos": 5560,
      "Ġcurso": 5561,
      "abez": 5562,
      "Ġ1966": 5563,
      "Ġreferirse": 5564,
      "ĠActualmente": 5565,
      "Ġconsul": 5566,
      "Ġinvierno": 5567,
      "Ġcomuna": 5568,
      "92": 5569,
      "Ġger": 5570,
      "cultad": 5571,
      "Ġescas": 5572,
      "Ġpronto": 5573,
      "Ġpromedio": 5574,
      "elas": 5575,
      "Ġmarco": 5576,
      "quista": 5577,
      "Ġfas": 5578,
      "ĠinterpretaciÃ³n": 5579,
      "Ġreno": 5580,
      "Ġencuentro": 5581,
      "32": 5582,
      "Ġtrabajadores": 5583,
      "ĠPacÃŃfico": 5584,
      "Ġinterac": 5585,
      "ĠfundÃ³": 5586,
      "Ġ1936": 5587,
      "Ġromanos": 5588,
      "Ã¡nico": 5589,
      "ĠpÃºblicos": 5590,
      "gentes": 5591,
      "guer": 5592,
      "ĠuniÃ³n": 5593,
      "Mo": 5594,
      "94": 5595,
      "olos": 5596,
      "Ġpresentan": 5597,
      "Ġtotalmente": 5598,
      "tellano": 5599,
      "Ġ1920": 5600,
      "Ġsola": 5601,
      "ezol": 5602,
      "Ġclar": 5603,
      "Ġllegando": 5604,
      "ĠpartÃŃcu": 5605,
      "Ġplano": 5606,
      "ÃŃtulo": 5607,
      "ĠâĢĺ": 5608,
      "ĠfilosofÃŃa": 5609,
      "Ġmedie": 5610,
      "Ġpalacio": 5611,
      "ise": 5612,
      "ordin": 5613,
      "align": 5614,
      "ĠÃ¡mbito": 5615,
      "rich": 5616,
      "Ġauton": 5617,
      "ĠMÃ¡": 5618,
      "ĠexpediciÃ³n": 5619,
      "As": 5620,
      "Ġsuspen": 5621,
      "Ġcandidato": 5622,
      "ĠVar": 5623,
      "ĠRock": 5624,
      "dencias": 5625,
      "Ġcree": 5626,
      "eco": 5627,
      "Ã¡tica": 5628,
      "ĠPresidente": 5629,
      "Ġterres": 5630,
      "ĠEle": 5631,
      "Ġang": 5632,
      "ancias": 5633,
      "ĠdesarrollÃ³": 5634,
      "ĠJan": 5635,
      "questa": 5636,
      "Ġentorno": 5637,
      "ĠCarta": 5638,
      "ĠsÃŃmbolo": 5639,
      "rin": 5640,
      "Ã©ano": 5641,
      "Ġrepe": 5642,
      "ĠGro": 5643,
      "ĠinstituciÃ³n": 5644,
      "ĠactuaciÃ³n": 5645,
      "onado": 5646,
      "Ġciclo": 5647,
      "Ġepisodio": 5648,
      "ĠEducaciÃ³n": 5649,
      "TV": 5650,
      "Ġtextos": 5651,
      "ĠcondiciÃ³n": 5652,
      "fan": 5653,
      "Ġcomunidades": 5654,
      "Ġdescar": 5655,
      "ĠDebido": 5656,
      "tiende": 5657,
      "cados": 5658,
      "Ġgaran": 5659,
      "ĠcÃ¡": 5660,
      "Ġregreso": 5661,
      "scar": 5662,
      "190": 5663,
      "Ġregular": 5664,
      "2005": 5665,
      "PolÃŃ": 5666,
      "ĠpodÃŃan": 5667,
      "itario": 5668,
      "Ġtel": 5669,
      "Ġpractic": 5670,
      "IA": 5671,
      "Ġpregun": 5672,
      "ciaciones": 5673,
      "ĠNavarra": 5674,
      "ters": 5675,
      "ĠmÃºsico": 5676,
      "Ġinclu": 5677,
      "Ġconsiderada": 5678,
      "Ġrevi": 5679,
      "BC": 5680,
      "ĠCÃ©s": 5681,
      "ĠThomas": 5682,
      "ĠEmi": 5683,
      "Ġinmedia": 5684,
      "\")": 5685,
      "Ġaltitud": 5686,
      "Ġcampeonato": 5687,
      "Ġalcalde": 5688,
      "Ġdestacar": 5689,
      "Ġpropias": 5690,
      "ĠpolicÃŃa": 5691,
      "Ġaspectos": 5692,
      "Ġletras": 5693,
      "Ġuniversidad": 5694,
      "Ġreales": 5695,
      "Ġ84": 5696,
      "ĠÃºltimas": 5697,
      "CO": 5698,
      "Ġinstalaciones": 5699,
      "americana": 5700,
      "Ġfol": 5701,
      "ĠoperaciÃ³n": 5702,
      "iente": 5703,
      "ĠDepartamento": 5704,
      "exiÃ³n": 5705,
      "Ġhidro": 5706,
      "ĠJosep": 5707,
      "ĠBol": 5708,
      "Ã³mica": 5709,
      "ĠTratado": 5710,
      "Ġincon": 5711,
      "Ġdura": 5712,
      "ĠMario": 5713,
      "Ġcaptur": 5714,
      "sitos": 5715,
      "Ġmarcha": 5716,
      "93": 5717,
      "aragoza": 5718,
      "liano": 5719,
      "ĠcaÃ±": 5720,
      "omb": 5721,
      "ĠComisiÃ³n": 5722,
      "Ġll": 5723,
      "amarca": 5724,
      "ju": 5725,
      "Ġsat": 5726,
      "Ġfamoso": 5727,
      "Äģ": 5728,
      "ĠStu": 5729,
      "istros": 5730,
      "ĠMel": 5731,
      "ĠsecciÃ³n": 5732,
      "ĠMejor": 5733,
      "rue": 5734,
      "Ġinmig": 5735,
      "pole": 5736,
      "king": 5737,
      "Ġpremios": 5738,
      "Ġverde": 5739,
      "Ã³mez": 5740,
      "Ġcompuesta": 5741,
      "ĠFundaciÃ³n": 5742,
      "Ġdirecto": 5743,
      "jado": 5744,
      "istÃ¡n": 5745,
      "Ġactos": 5746,
      "Ġllamados": 5747,
      "SO": 5748,
      "fal": 5749,
      "tieron": 5750,
      "Ġpais": 5751,
      "Ġaconte": 5752,
      "Ġponer": 5753,
      "ĠBerlÃŃn": 5754,
      "idas": 5755,
      "55": 5756,
      "ĠPaÃŃses": 5757,
      "Ġrevolucion": 5758,
      "Ġactuales": 5759,
      "pren": 5760,
      "ÃŃnea": 5761,
      "ucÃŃa": 5762,
      "Ġbusc": 5763,
      "rami": 5764,
      "ĠBru": 5765,
      "Ġanual": 5766,
      "mala": 5767,
      "iano": 5768,
      "quÃŃn": 5769,
      "Ġ1965": 5770,
      "ĠencontrÃ³": 5771,
      "ĠTim": 5772,
      "Col": 5773,
      "98": 5774,
      "Ġcompa": 5775,
      "Ġclave": 5776,
      "ĠHan": 5777,
      "Ġimpos": 5778,
      "ĠinvasiÃ³n": 5779,
      "amor": 5780,
      "ĠvisiÃ³n": 5781,
      "simo": 5782,
      "Ġ1962": 5783,
      "ĠMunicipal": 5784,
      "Ġdejar": 5785,
      "Ġeduca": 5786,
      "ĠKing": 5787,
      "tadura": 5788,
      "gano": 5789,
      "Ġaves": 5790,
      "ĠReg": 5791,
      "ĠlÃŃmites": 5792,
      "Ã£o": 5793,
      "ĠMartin": 5794,
      "Ġestaciones": 5795,
      "Ġcerem": 5796,
      "roso": 5797,
      "Ġjard": 5798,
      "ĠRed": 5799,
      "ĠÃ³rdenes": 5800,
      "Ġrespe": 5801,
      "Ġintegran": 5802,
      "Ġintercambi": 5803,
      "Ġencima": 5804,
      "Ġinvol": 5805,
      "AR": 5806,
      "ĠrevoluciÃ³n": 5807,
      "Ġcui": 5808,
      "Ġ*": 5809,
      "Ġmezcla": 5810,
      "ĠBajos": 5811,
      "ĠRecords": 5812,
      "amÃ¡": 5813,
      "Ġestructuras": 5814,
      "Ġhistoriador": 5815,
      "uyÃ³": 5816,
      "enio": 5817,
      "Ġopin": 5818,
      "Ġyo": 5819,
      "Ġsectores": 5820,
      "64": 5821,
      "Ġlanzado": 5822,
      "cientes": 5823,
      "Ha": 5824,
      "lana": 5825,
      "ĠFederaciÃ³n": 5826,
      "Ġsolar": 5827,
      "ĠSeÃ±ora": 5828,
      "asterio": 5829,
      "Ġtranspor": 5830,
      "Ġpsic": 5831,
      "Le": 5832,
      "ĠIb": 5833,
      "ajas": 5834,
      "grÃŃa": 5835,
      "Ġofrece": 5836,
      ";\"": 5837,
      "Ġsimb": 5838,
      "ĠTal": 5839,
      "Ġconst": 5840,
      "ture": 5841,
      "erre": 5842,
      "Primer": 5843,
      "ĠfÃŃsico": 5844,
      "ĠEse": 5845,
      "ĠEditorial": 5846,
      "udicial": 5847,
      "tificaciÃ³n": 5848,
      "Ġevento": 5849,
      "Ġdiscos": 5850,
      "Ġenorme": 5851,
      "landia": 5852,
      "ĠlingÃ¼": 5853,
      "Ġescrita": 5854,
      "Ġpotencia": 5855,
      "Ġguitarra": 5856,
      "Ġdebajo": 5857,
      "iembros": 5858,
      "Ġantiguas": 5859,
      "Ġcorresponde": 5860,
      "ĠÃģngeles": 5861,
      "Ġpiloto": 5862,
      "Ġobserva": 5863,
      "Ġiba": 5864,
      "Ġdestino": 5865,
      "Ġimpuls": 5866,
      "ĠUniversity": 5867,
      "Ġdirigido": 5868,
      "versidad": 5869,
      "ĠHos": 5870,
      "ciar": 5871,
      "Ġvisto": 5872,
      "Ġcora": 5873,
      "amanca": 5874,
      "enaje": 5875,
      "ĠcolaboraciÃ³n": 5876,
      "Ġocupa": 5877,
      "anidad": 5878,
      "Ġfactores": 5879,
      "xo": 5880,
      "So": 5881,
      "oledo": 5882,
      "ĠXIX": 5883,
      "ĠPub": 5884,
      "Ġnormalmente": 5885,
      "uicio": 5886,
      "bano": 5887,
      "Ġmuertos": 5888,
      "Ġhubi": 5889,
      "Ġvuelo": 5890,
      "Ġbajas": 5891,
      "ĠdetrÃ¡s": 5892,
      "ĠLan": 5893,
      "ĠInternet": 5894,
      "Ġdensidad": 5895,
      "Ġataques": 5896,
      "Ġremo": 5897,
      "Ġintelec": 5898,
      "ĠSocial": 5899,
      "Ġlegisla": 5900,
      "ĠProvincia": 5901,
      "drÃ¡": 5902,
      "ĠVall": 5903,
      "cionado": 5904,
      "tenidos": 5905,
      "Ġdec": 5906,
      "Ã³so": 5907,
      "Ġcalor": 5908,
      "Ġcontribuy": 5909,
      "ting": 5910,
      "2004": 5911,
      "ĠAma": 5912,
      "Ġ300": 5913,
      "echas": 5914,
      "listas": 5915,
      "Ã©rico": 5916,
      "Ġapenas": 5917,
      "ĠcrÃŃticas": 5918,
      "ĠLes": 5919,
      "ĠCe": 5920,
      "ĠEE": 5921,
      "Ġmucha": 5922,
      "Ġlatino": 5923,
      "atemala": 5924,
      "iles": 5925,
      "ĠRicardo": 5926,
      "ajeros": 5927,
      "Ġutilizando": 5928,
      "ĠaquÃŃ": 5929,
      "Ġidentidad": 5930,
      "ĠGÃ³mez": 5931,
      "Ġ1963": 5932,
      "ĠniÃ±o": 5933,
      "66": 5934,
      "31": 5935,
      "ĠEcuador": 5936,
      "Ġhermana": 5937,
      "Uni": 5938,
      "38": 5939,
      "ĠraÃŃz": 5940,
      "Ġpintura": 5941,
      "Ġsom": 5942,
      "Ġriesgo": 5943,
      "dill": 5944,
      "Ġhel": 5945,
      "atriz": 5946,
      "iva": 5947,
      "Ġciviles": 5948,
      "mith": 5949,
      "pio": 5950,
      "Ġplante": 5951,
      "Ġchileno": 5952,
      "igi": 5953,
      "ĠtrÃ¡": 5954,
      "ĠconstruyÃ³": 5955,
      "rador": 5956,
      "ÃŃfer": 5957,
      "ministraciÃ³n": 5958,
      "Ġtribu": 5959,
      "Ġdesarrollado": 5960,
      "Ġmig": 5961,
      "nado": 5962,
      "top": 5963,
      "char": 5964,
      "Ġinicialmente": 5965,
      "ĠNaciones": 5966,
      "ĠÃºnicamente": 5967,
      "Ġhon": 5968,
      "Ġronda": 5969,
      "lares": 5970,
      "quiera": 5971,
      "rie": 5972,
      "ĠSem": 5973,
      "ĠEra": 5974,
      "Ġdejando": 5975,
      "Grupos": 5976,
      "tÃº": 5977,
      "Ġ150": 5978,
      "grama": 5979,
      "Ġformada": 5980,
      "grÃ¡fico": 5981,
      "ĠAlto": 5982,
      "ĠBoy": 5983,
      "ĠCultura": 5984,
      "ĠKe": 5985,
      "Ġreforma": 5986,
      "Ġanteriormente": 5987,
      "Ġrealizada": 5988,
      "Ġconvertirse": 5989,
      "Ġmari": 5990,
      "Ġconform": 5991,
      "2003": 5992,
      "Ġcristianos": 5993,
      "Ġconten": 5994,
      "Ġtemperaturas": 5995,
      "graciÃ³n": 5996,
      "ĠficciÃ³n": 5997,
      "lÃ³": 5998,
      "ĠJoa": 5999,
      "ĠConstan": 6000,
      "egro": 6001,
      "uz": 6002,
      "Ġexac": 6003,
      "48": 6004,
      "Ġalf": 6005,
      "nor": 6006,
      "cam": 6007,
      "Ġ2023": 6008,
      "ĠSaint": 6009,
      "ĠAD": 6010,
      "Ġdiferencias": 6011,
      "Ġinstrumentos": 6012,
      "timas": 6013,
      "Ġoriginalmente": 6014,
      "Ġlograr": 6015,
      "ĠmontaÃ±a": 6016,
      "ĠAsturias": 6017,
      "Ġsum": 6018,
      "Ġorg": 6019,
      "2006": 6020,
      "Ġcuesti": 6021,
      "Ġvege": 6022,
      "ĠclÃ¡sico": 6023,
      "ĠCÃ©sar": 6024,
      "ĠÂ¿": 6025,
      "Ġprecipi": 6026,
      "Ġinvestig": 6027,
      "Li": 6028,
      "ĠfilÃ³so": 6029,
      "ĊĠĊ": 6030,
      "Ãºsque": 6031,
      "Ġconciertos": 6032,
      "urus": 6033,
      "ĠTru": 6034,
      "Ġmantiene": 6035,
      "ronce": 6036,
      "Ġexitos": 6037,
      "Ġmasi": 6038,
      "Ġdoctor": 6039,
      "Ġ1958": 6040,
      "remo": 6041,
      "ieza": 6042,
      "Ġvaria": 6043,
      "Ġespeciales": 6044,
      "Lo": 6045,
      "ĠNuestra": 6046,
      "riendo": 6047,
      "orÃŃa": 6048,
      "esto": 6049,
      "ser": 6050,
      "ĠCine": 6051,
      "ĠallÃ¡": 6052,
      "ĠSuecia": 6053,
      "Ġmeta": 6054,
      "ĠCastillo": 6055,
      "unda": 6056,
      "Ġorganizaciones": 6057,
      "Ġsoftware": 6058,
      "77": 6059,
      "Ġfundamental": 6060,
      "Ġhue": 6061,
      "Ġimple": 6062,
      "ĠYou": 6063,
      "Ġcastellano": 6064,
      "ĠfÃ¡br": 6065,
      "ĠentrÃ³": 6066,
      "ĠpropÃ³": 6067,
      "ĠPra": 6068,
      "Ġneu": 6069,
      "Ã³nicas": 6070,
      "Ġsabe": 6071,
      "Ġfuertes": 6072,
      "eses": 6073,
      "ĠGas": 6074,
      "Ġciudadanos": 6075,
      "lea": 6076,
      "Ġcorona": 6077,
      "ĠZaragoza": 6078,
      "Ġvuelve": 6079,
      "Ġcomienzos": 6080,
      "ĠsufriÃ³": 6081,
      "ĠDaniel": 6082,
      "grafo": 6083,
      "Ġcrist": 6084,
      "Ġintelig": 6085,
      "Ġfrag": 6086,
      "Ġmoderno": 6087,
      "Ġesenci": 6088,
      "Ġargentina": 6089,
      "Ġmaestro": 6090,
      "Ġvenci": 6091,
      "ĠDr": 6092,
      "radas": 6093,
      "crip": 6094,
      "CE": 6095,
      "Ġpasando": 6096,
      "ĠDÃŃaz": 6097,
      "ave": 6098,
      "ĠVII": 6099,
      "Ġsecretario": 6100,
      "Ġcontexto": 6101,
      "ecieron": 6102,
      "Mu": 6103,
      "ben": 6104,
      "endario": 6105,
      "Ġdial": 6106,
      "rupciÃ³n": 6107,
      "Ġvino": 6108,
      "Mon": 6109,
      "Ġasign": 6110,
      "Ġdemasiado": 6111,
      "ĠdefiniciÃ³n": 6112,
      "ĠAndalucÃŃa": 6113,
      "ĠBanco": 6114,
      "Ġsala": 6115,
      "presiÃ³n": 6116,
      "Ġpropuesta": 6117,
      "ĠChri": 6118,
      "yectoria": 6119,
      "Ġinfra": 6120,
      "2001": 6121,
      "yecto": 6122,
      "Ġconsiderable": 6123,
      "Ġteniendo": 6124,
      "Ġperteneciente": 6125,
      "Ġfundador": 6126,
      "lÃ©tico": 6127,
      "uncia": 6128,
      "ĠhÃ¡": 6129,
      "Ġretra": 6130,
      "Ġalimentos": 6131,
      "Ju": 6132,
      "Ġfacili": 6133,
      "Ġencabez": 6134,
      "Miembros": 6135,
      "Otros": 6136,
      "ĠAten": 6137,
      "Ġ1948": 6138,
      "Ġesas": 6139,
      "Ġhaya": 6140,
      "tidas": 6141,
      "siles": 6142,
      "Ġconserva": 6143,
      "ĠmÃ©todos": 6144,
      "ĠQuin": 6145,
      "Ġdistrib": 6146,
      "Ġinca": 6147,
      "ĠDeportivo": 6148,
      "Ġdescribe": 6149,
      "ip": 6150,
      "orden": 6151,
      "ĠPÃ¡gina": 6152,
      "exo": 6153,
      "ĠCampo": 6154,
      "ĠprÃ¡cticamente": 6155,
      "OS": 6156,
      "Ġanal": 6157,
      "Ġdenominada": 6158,
      "ĠÃĵscar": 6159,
      "Ġrebel": 6160,
      "trado": 6161,
      "Ġbusca": 6162,
      "Ġpermitir": 6163,
      "Ġciertos": 6164,
      "amilia": 6165,
      "jÃ³": 6166,
      "Ġlider": 6167,
      "Ġtitulado": 6168,
      "ĠGuatemala": 6169,
      "tari": 6170,
      "tecto": 6171,
      "ilos": 6172,
      "Ġdocumentos": 6173,
      "ĠToledo": 6174,
      "ĠOriente": 6175,
      "ĠNobel": 6176,
      "Ġprofundi": 6177,
      "ID": 6178,
      "ĠAll": 6179,
      "ĠSebastiÃ¡n": 6180,
      "gadas": 6181,
      "Ġusando": 6182,
      "Ġlab": 6183,
      "ĠTec": 6184,
      "giÃ³n": 6185,
      "Ġconm": 6186,
      "Ġconvertido": 6187,
      "68": 6188,
      "ĠRegiÃ³n": 6189,
      "ĠdesempeÃ±": 6190,
      "riel": 6191,
      "illos": 6192,
      "crito": 6193,
      "ĠDerecho": 6194,
      "valu": 6195,
      "uelos": 6196,
      "ĠCanal": 6197,
      "Ġrelativamente": 6198,
      "ispano": 6199,
      "Ġrango": 6200,
      "44": 6201,
      "hÃŃa": 6202,
      "ĠcaracterÃŃstica": 6203,
      "Ġpredomin": 6204,
      "Ġvice": 6205,
      "ull": 6206,
      "landa": 6207,
      "Ġamist": 6208,
      "Ġdesemb": 6209,
      "Ã³logos": 6210,
      "ĠPat": 6211,
      "Ġnoble": 6212,
      "Ġmam": 6213,
      "tilla": 6214,
      "Ã¡ticos": 6215,
      "cat": 6216,
      "ĠelÃ©ctrica": 6217,
      "ĠAut": 6218,
      "ĠcÃ¡mara": 6219,
      "ĠmontaÃ±as": 6220,
      "ĠpoesÃŃa": 6221,
      "Ġnar": 6222,
      "Ġnoroeste": 6223,
      "Ġescenario": 6224,
      "Ġpoderes": 6225,
      "Ġmono": 6226,
      "Ġgriega": 6227,
      "Ġconcierto": 6228,
      "67": 6229,
      "ficada": 6230,
      "Ġpublicada": 6231,
      "Pres": 6232,
      "Ġaustr": 6233,
      "Ġabsor": 6234,
      "ny": 6235,
      "Ġaeropuerto": 6236,
      "Ġpreocu": 6237,
      "ĠMusic": 6238,
      "ĠIslas": 6239,
      "ashington": 6240,
      "Ġradia": 6241,
      "Ġfle": 6242,
      "Ġhal": 6243,
      "ĠpÃ¡g": 6244,
      "ville": 6245,
      "ĠTrab": 6246,
      "ĠGuer": 6247,
      "Ġinvoluc": 6248,
      "mbres": 6249,
      "tropolitana": 6250,
      "Ã¡rez": 6251,
      "Ġcomponentes": 6252,
      "2002": 6253,
      "Ġdirecta": 6254,
      "ish": 6255,
      "Ġimperio": 6256,
      "ĠrÃ©c": 6257,
      "Ġdieron": 6258,
      "Ġdesconoci": 6259,
      "Ġros": 6260,
      "ars": 6261,
      "Ġsexual": 6262,
      "ĠSab": 6263,
      "Ġrevel": 6264,
      "ĠTes": 6265,
      "ÃŃritu": 6266,
      "ĠduraciÃ³n": 6267,
      "ĠahÃŃ": 6268,
      "cionar": 6269,
      "Ġbru": 6270,
      "rig": 6271,
      "ĠDin": 6272,
      "rup": 6273,
      "uma": 6274,
      "ĠaviÃ³n": 6275,
      "pedia": 6276,
      "ĠllamÃ³": 6277,
      "ĠbÃºsque": 6278,
      "ĠAsimismo": 6279,
      "lantes": 6280,
      "Ġdecor": 6281,
      "Ġ()": 6282,
      "inal": 6283,
      "Ġsean": 6284,
      "rec": 6285,
      "Ġbases": 6286,
      "Ġcomunic": 6287,
      "Ġhojas": 6288,
      "diat": 6289,
      "Ġclaro": 6290,
      "Ġrelacionados": 6291,
      "Ġproducido": 6292,
      "Localidades": 6293,
      "ĠComitÃ©": 6294,
      "Ġ1961": 6295,
      "sin": 6296,
      "ĠordenÃ³": 6297,
      "Ġsignificado": 6298,
      "ĠSalamanca": 6299,
      "polis": 6300,
      "Ġturismo": 6301,
      "ĠCastro": 6302,
      "Ġreligiosa": 6303,
      "ĠAlfre": 6304,
      "ĠsÃ©": 6305,
      "ĠCÃ¡mara": 6306,
      "Ġarco": 6307,
      "ĠBea": 6308,
      "strucciÃ³n": 6309,
      "ologÃŃas": 6310,
      "Ã©ticas": 6311,
      "ĠjurÃŃ": 6312,
      "VD": 6313,
      "Ġciertas": 6314,
      "ĠdiplomÃ¡": 6315,
      "Ġregional": 6316,
      "ĠÃ³pera": 6317,
      "Ġgradu": 6318,
      "Ġcreada": 6319,
      "Ġexpuls": 6320,
      "ĠpÃºblicas": 6321,
      "ĠPolonia": 6322,
      "ĠcasÃ³": 6323,
      "Ġgig": 6324,
      "Ġ1956": 6325,
      "ĠServi": 6326,
      "Ca": 6327,
      "ek": 6328,
      "Ġvenezol": 6329,
      "ĠintenciÃ³n": 6330,
      "arma": 6331,
      "ĠBl": 6332,
      "Ġdespe": 6333,
      "ĠhistÃ³ricos": 6334,
      "ĠcientÃŃfico": 6335,
      "Ġhem": 6336,
      "ÃŃtica": 6337,
      "ĠÃ¡cido": 6338,
      "mÃ¡ticos": 6339,
      "blo": 6340,
      "ĠreacciÃ³n": 6341,
      "ĠJavier": 6342,
      "Ġinfor": 6343,
      "ĠParlamento": 6344,
      "quin": 6345,
      "ĠCari": 6346,
      "cran": 6347,
      "yendo": 6348,
      "Ġrep": 6349,
      "tte": 6350,
      "ĠRen": 6351,
      "Ġmunicipales": 6352,
      "Ġmuseo": 6353,
      "Ġrequer": 6354,
      "quitec": 6355,
      "ĠocasiÃ³n": 6356,
      "tano": 6357,
      "Ġterritorial": 6358,
      "Ġarquitecto": 6359,
      "Ġaviones": 6360,
      "Ġcorpor": 6361,
      "Ġcircui": 6362,
      "Ġestablece": 6363,
      "ĠlÃ³g": 6364,
      "Ġabierto": 6365,
      "ĠOl": 6366,
      "Ġtransform": 6367,
      "ĠperiÃ³dico": 6368,
      "ĠBretaÃ±a": 6369,
      "Ġexpor": 6370,
      "hol": 6371,
      "win": 6372,
      "Ġliga": 6373,
      "Ġreserv": 6374,
      "ĠregresÃ³": 6375,
      "Ġneer": 6376,
      "zados": 6377,
      "Ġminer": 6378,
      "Ġdetec": 6379,
      "ander": 6380,
      "ĠbritÃ¡nicos": 6381,
      "ĠMich": 6382,
      "ĠSupre": 6383,
      "eso": 6384,
      "ush": 6385,
      "2007": 6386,
      "Ġascenso": 6387,
      "Ġenfermedades": 6388,
      "Ġchi": 6389,
      "ĠCada": 6390,
      "Ġ1944": 6391,
      "Ġmismas": 6392,
      "sal": 6393,
      "ĠVel": 6394,
      "Ġenf": 6395,
      "Ġseg": 6396,
      "Ġmone": 6397,
      "Ġcondado": 6398,
      "Ġdia": 6399,
      "ventud": 6400,
      "Ġtabla": 6401,
      "trol": 6402,
      "Ġinci": 6403,
      "beli": 6404,
      "lib": 6405,
      "ĠRoy": 6406,
      "Ġ1959": 6407,
      "Ġrecl": 6408,
      "Ġjuris": 6409,
      "ĠVictoria": 6410,
      "olver": 6411,
      "ĠEsco": 6412,
      "gÃ©n": 6413,
      "arla": 6414,
      "Ġlocalidades": 6415,
      "ĠCorte": 6416,
      "Ġpensamiento": 6417,
      "ĠfenÃ³meno": 6418,
      "Ġ1939": 6419,
      "89": 6420,
      "Ã©la": 6421,
      "Ġmandato": 6422,
      "Ġdoce": 6423,
      "Ġvisita": 6424,
      "Ġmm": 6425,
      "ĠNicolÃ¡s": 6426,
      "ray": 6427,
      "Ġpuerta": 6428,
      "Ġcuenca": 6429,
      "ÃŃna": 6430,
      "ĠcambiÃ³": 6431,
      "Ġocupar": 6432,
      "Ġllan": 6433,
      "egas": 6434,
      "gÃ¼edad": 6435,
      "Ġmiles": 6436,
      "Ġgenera": 6437,
      "Ġ32": 6438,
      "Ġescritos": 6439,
      "ĠAugu": 6440,
      "eck": 6441,
      "ĠPie": 6442,
      "ĠJusticia": 6443,
      "ĠMetro": 6444,
      "Ġasesinato": 6445,
      "Ġconvoc": 6446,
      "Premios": 6447,
      "udio": 6448,
      "Te": 6449,
      "Ġestima": 6450,
      "Ġtasa": 6451,
      "Ġencontrado": 6452,
      "inÃ³": 6453,
      "ĠDan": 6454,
      "ĠclÃ¡sica": 6455,
      "vimiento": 6456,
      "oras": 6457,
      "ĠWashington": 6458,
      "Ġestrate": 6459,
      "enden": 6460,
      "Ġpareja": 6461,
      "Ġdecreto": 6462,
      "Ġbarro": 6463,
      "Ġherrami": 6464,
      "Ġcomportamiento": 6465,
      "ĠCorona": 6466,
      "ĠcÃ³m": 6467,
      "Ġdictadura": 6468,
      "Ġcau": 6469,
      "Ġrit": 6470,
      "Ġcuyos": 6471,
      "Ġpp": 6472,
      "ĠreciÃ©n": 6473,
      "gotÃ¡": 6474,
      "ĠMill": 6475,
      "Ġcambiar": 6476,
      "ĠcorazÃ³n": 6477,
      "ĠCarmen": 6478,
      "Ġhalla": 6479,
      "Ġjugar": 6480,
      "ĠLuna": 6481,
      "Ġ1955": 6482,
      "91": 6483,
      "ĠgrabaciÃ³n": 6484,
      "Å«": 6485,
      "ĠStan": 6486,
      "ĠClar": 6487,
      "raciones": 6488,
      "denas": 6489,
      "Ã¡logo": 6490,
      "Ġcritic": 6491,
      "Ġprofesion": 6492,
      "Ġhierro": 6493,
      "ĠAtlÃ©tico": 6494,
      "ĠArchi": 6495,
      "ĠopiniÃ³n": 6496,
      "Ġpasajeros": 6497,
      "Ġpatri": 6498,
      "ĠAf": 6499,
      "AS": 6500,
      "Res": 6501,
      "arte": 6502,
      "ĠAgust": 6503,
      "ĠJuli": 6504,
      "Ġreda": 6505,
      "Ġespacios": 6506,
      "orro": 6507,
      "Ġaplicaciones": 6508,
      "Ġfuncionamiento": 6509,
      "ĠsoluciÃ³n": 6510,
      "ĠexcepciÃ³n": 6511,
      "Ġletra": 6512,
      "ĠcientÃŃficos": 6513,
      "ĠsaliÃ³": 6514,
      "ĠFederico": 6515,
      "Ġsuficiente": 6516,
      "ĠlÃŃqui": 6517,
      "74": 6518,
      "Ġposibles": 6519,
      "Ġlogra": 6520,
      "ĠĊĠĊĠĊĠĊ": 6521,
      "Ġconstituye": 6522,
      "echos": 6523,
      "Ġmagni": 6524,
      "voc": 6525,
      "Ġplane": 6526,
      "Ġconduc": 6527,
      "Ġresponsable": 6528,
      "ĠRoberto": 6529,
      "well": 6530,
      "Ġtrib": 6531,
      "Ġ1957": 6532,
      "imi": 6533,
      "atas": 6534,
      "ĠSco": 6535,
      "Ġflota": 6536,
      "ĠIndependencia": 6537,
      "Ġdeja": 6538,
      "Ġconsideran": 6539,
      "ĠdirigiÃ³": 6540,
      "leg": 6541,
      "ĠbÃºsqueda": 6542,
      "Ġocul": 6543,
      "ĠRog": 6544,
      "ariamente": 6545,
      "Ġnecesi": 6546,
      "Ġcereb": 6547,
      "Pos": 6548,
      "Ġfactor": 6549,
      ".:": 6550,
      "Ġcoronel": 6551,
      "Ġ1946": 6552,
      "ĠIsla": 6553,
      "Ġlater": 6554,
      "Ġtall": 6555,
      "Ġul": 6556,
      "Ġcorta": 6557,
      "deos": 6558,
      "Ġcultivo": 6559,
      "Ġ1941": 6560,
      "diatamente": 6561,
      "Ġitaliana": 6562,
      "Ġremon": 6563,
      "ĠFon": 6564,
      "Ġnarra": 6565,
      "ĠAvenida": 6566,
      "dral": 6567,
      "gcolor": 6568,
      "Ġentidad": 6569,
      "tinos": 6570,
      "Ġaust": 6571,
      "versario": 6572,
      "bado": 6573,
      "ĠprovocÃ³": 6574,
      "cus": 6575,
      "Cam": 6576,
      "ĠUnidas": 6577,
      "ĠÃº": 6578,
      "1999": 6579,
      "ĠhipÃ³": 6580,
      "poner": 6581,
      "Ġcomandante": 6582,
      "lismo": 6583,
      "sch": 6584,
      "Ġesque": 6585,
      "Ġcarreras": 6586,
      "Ġcuarta": 6587,
      "ES": 6588,
      "ficamente": 6589,
      "vÃ³": 6590,
      "eth": 6591,
      "Ġentrar": 6592,
      "arrollo": 6593,
      "tuario": 6594,
      "Ġredes": 6595,
      "ximo": 6596,
      "2010": 6597,
      "CC": 6598,
      "ĠAh": 6599,
      "ĠElec": 6600,
      "Ġsenti": 6601,
      "Ġdesarrollar": 6602,
      "tern": 6603,
      "kov": 6604,
      "Ġutilizada": 6605,
      "Ġejemplos": 6606,
      "Ġhomenaje": 6607,
      "ĠtraducciÃ³n": 6608,
      "Ġinfec": 6609,
      "Ġdiv": 6610,
      "Ġdecide": 6611,
      "ĠCro": 6612,
      "ĠconcentraciÃ³n": 6613,
      "Ġani": 6614,
      "Ġresi": 6615,
      "Ġdiscipl": 6616,
      "Ġaltos": 6617,
      "Hz": 6618,
      "ĠsÃ³li": 6619,
      "39": 6620,
      "vange": 6621,
      "Ġbac": 6622,
      "Ġfundado": 6623,
      "ĠDol": 6624,
      "Ġclubes": 6625,
      "ĠĠĠĠĠĠĠĠĠĠĠĠĠĠĠĠ": 6626,
      ".\"": 6627,
      "cesiÃ³n": 6628,
      "Ġ(Â«": 6629,
      "amentos": 6630,
      "tipo": 6631,
      "teres": 6632,
      "Ġformando": 6633,
      "Ġpiel": 6634,
      "NU": 6635,
      "ĠRio": 6636,
      "Ġpobre": 6637,
      "Ġprotagonista": 6638,
      "Ġpocas": 6639,
      "Ġcenso": 6640,
      "aliciÃ³n": 6641,
      "Ġsuma": 6642,
      "Ġparroquia": 6643,
      "Ġemer": 6644,
      "yeron": 6645,
      "Ġvivir": 6646,
      "Ġdul": 6647,
      "fÃ©": 6648,
      "mero": 6649,
      "anti": 6650,
      "Ã±ana": 6651,
      "Ġsobr": 6652,
      "cada": 6653,
      "ald": 6654,
      "ĠDoc": 6655,
      "Ġ1947": 6656,
      "ĠInterna": 6657,
      "ĠOriental": 6658,
      "ĠBlack": 6659,
      "ĠBlo": 6660,
      "tarias": 6661,
      "Ġhabitual": 6662,
      "Ġfras": 6663,
      "iber": 6664,
      "mol": 6665,
      "Ġelectoral": 6666,
      "Ġ1952": 6667,
      "Ġtop": 6668,
      "ĠtÃ©cnico": 6669,
      "ĠSantos": 6670,
      "Ġescol": 6671,
      "Ġnormal": 6672,
      ".),": 6673,
      "Ã³nicos": 6674,
      "ĠcÃ¡ncer": 6675,
      "Ġpuertas": 6676,
      "ĠquÃŃmica": 6677,
      "Ġtemporadas": 6678,
      "Ã©is": 6679,
      "ĠReyes": 6680,
      "estructura": 6681,
      "imos": 6682,
      "ĠPanamÃ¡": 6683,
      "Ġ1949": 6684,
      "ĠAtlÃ¡n": 6685,
      "Ġ1000": 6686,
      "Ġemo": 6687,
      "omÃ³": 6688,
      "Ġagre": 6689,
      "Ġancho": 6690,
      "usos": 6691,
      "Ġpier": 6692,
      "FF": 6693,
      "Ġcorto": 6694,
      "Ġculto": 6695,
      "ĠexposiciÃ³n": 6696,
      "ĠpodrÃŃan": 6697,
      "ĠIrlanda": 6698,
      "anes": 6699,
      "icanas": 6700,
      "ĠFI": 6701,
      "chada": 6702,
      "Ġnervi": 6703,
      "ficados": 6704,
      "Ġmac": 6705,
      "54": 6706,
      "Ġmexicana": 6707,
      "Ġimperial": 6708,
      "ĠBajo": 6709,
      "ĠresultÃ³": 6710,
      "ecera": 6711,
      "hua": 6712,
      "Ġreconocido": 6713,
      "Ġdemanda": 6714,
      "ĠVÃŃ": 6715,
      "Ġtea": 6716,
      "ĠcÃº": 6717,
      "ĠNÃº": 6718,
      "ĠDistrito": 6719,
      "Ġmedal": 6720,
      "fÃŃas": 6721,
      "ĠvÃŃas": 6722,
      "ĠWest": 6723,
      "olÃŃvar": 6724,
      "ĠenviÃ³": 6725,
      "onos": 6726,
      "Ġproviene": 6727,
      "ciano": 6728,
      "itos": 6729,
      "op": 6730,
      "Ġextranjeros": 6731,
      "53": 6732,
      "ĠreuniÃ³n": 6733,
      "iss": 6734,
      "Ġcalendario": 6735,
      "Ġterremo": 6736,
      "ĠeconÃ³micas": 6737,
      "Ġtard": 6738,
      "Ġreligioso": 6739,
      "ĠconociÃ³": 6740,
      "Ġafr": 6741,
      "ĠWeb": 6742,
      "Ġescritura": 6743,
      "bate": 6744,
      "ridge": 6745,
      "Ġsalir": 6746,
      "2008": 6747,
      "Ġpermiten": 6748,
      "Ġbau": 6749,
      "Ġusuarios": 6750,
      "Ġpertenece": 6751,
      "Ġpista": 6752,
      "ĠnaciÃ³n": 6753,
      "ĠCultural": 6754,
      "Ġpodemos": 6755,
      "Ġ1954": 6756,
      "Ġ$": 6757,
      "ĠmolÃ©": 6758,
      "ik": 6759,
      "cialmente": 6760,
      "ĠBogotÃ¡": 6761,
      "Ġfirma": 6762,
      "Î±": 6763,
      "Ġparlament": 6764,
      "Ġcontinente": 6765,
      "Ġdrama": 6766,
      "Ġhues": 6767,
      "ĠrÃ¡pido": 6768,
      "abora": 6769,
      "Ġintent": 6770,
      "ĠserÃŃan": 6771,
      "Ã³crata": 6772,
      "biernos": 6773,
      "ĠMilitar": 6774,
      "encio": 6775,
      "ary": 6776,
      "Ġ1943": 6777,
      "Ã¡ce": 6778,
      "Ġdigital": 6779,
      "ĠRob": 6780,
      "Ġrazones": 6781,
      "ãĥ": 6782,
      "ĠCortes": 6783,
      "Ġcopias": 6784,
      "Ġblanca": 6785,
      "mental": 6786,
      "Ġexplos": 6787,
      "erdos": 6788,
      "Ġproducen": 6789,
      "ĠaÃ±adi": 6790,
      "Ġeuropeo": 6791,
      "Ġcamp": 6792,
      "IC": 6793,
      "Ġextin": 6794,
      "Ġflores": 6795,
      "Ġ1953": 6796,
      "Ġentra": 6797,
      "midad": 6798,
      "Ġincluido": 6799,
      "Ġviolencia": 6800,
      "ĠUno": 6801,
      "ota": 6802,
      "Ġanimal": 6803,
      "Ġegip": 6804,
      "Ġhall": 6805,
      "alizados": 6806,
      "Ġcampes": 6807,
      "ĠSac": 6808,
      "Ġcolonia": 6809,
      "Ġrealizan": 6810,
      "Ġdefens": 6811,
      "Ġintereses": 6812,
      "timo": 6813,
      "ĠtrasladÃ³": 6814,
      "Ġfib": 6815,
      "ĠOrganizaciÃ³n": 6816,
      "Man": 6817,
      "Ġperder": 6818,
      "Ġseres": 6819,
      "Ġemig": 6820,
      "ĠAgui": 6821,
      "Ġcuerpos": 6822,
      "Ġmuerto": 6823,
      "Ġocurre": 6824,
      "Ġparale": 6825,
      "DemografÃŃa": 6826,
      "phy": 6827,
      "Ġayudar": 6828,
      "Ġconocidas": 6829,
      "Ġobjetivos": 6830,
      "Ġimpacto": 6831,
      "ampoco": 6832,
      "Ġbalonces": 6833,
      "ĠDem": 6834,
      "Ġpopularidad": 6835,
      "Ġsatis": 6836,
      "83": 6837,
      "tecas": 6838,
      "sible": 6839,
      "ĠGlo": 6840,
      "Ġbarcos": 6841,
      "Go": 6842,
      "Ġatraves": 6843,
      "gna": 6844,
      "Ġdeporte": 6845,
      "ĠSuiza": 6846,
      "putaciÃ³n": 6847,
      "parte": 6848,
      "briÃ³": 6849,
      "ĠmÃ¡r": 6850,
      "ĠÃ¡rboles": 6851,
      "ĠtrabajÃ³": 6852,
      "ĠTres": 6853,
      "Ġrecibido": 6854,
      "Ġferrocarril": 6855,
      "ficio": 6856,
      "Ġ1931": 6857,
      "ĠAnexo": 6858,
      "Ġchino": 6859,
      "ĠRosario": 6860,
      "ĠRico": 6861,
      "ĠÐ": 6862,
      "uega": 6863,
      "56": 6864,
      "Ġocta": 6865,
      "Ġconfig": 6866,
      "ĠÃ¡lbumes": 6867,
      "zgo": 6868,
      "ĠCity": 6869,
      "ĠLeo": 6870,
      "ĠocupaciÃ³n": 6871,
      "tive": 6872,
      "ĠIgna": 6873,
      "cionario": 6874,
      "tora": 6875,
      "Ġdesarrolla": 6876,
      "sk": 6877,
      "ecut": 6878,
      "blaciÃ³n": 6879,
      "uco": 6880,
      "ĠSpi": 6881,
      "ĠEstudios": 6882,
      "Ġproveni": 6883,
      "enses": 6884,
      "MA": 6885,
      "ĠAllÃŃ": 6886,
      "ĠFranco": 6887,
      "unciÃ³n": 6888,
      "Ġreca": 6889,
      "duras": 6890,
      "Ġcultiv": 6891,
      "ĠClas": 6892,
      "2009": 6893,
      "Ġesco": 6894,
      "Ġnad": 6895,
      "sional": 6896,
      "Ġpresentes": 6897,
      "Ġpueda": 6898,
      "Econ": 6899,
      "Ġcontar": 6900,
      "ĠCle": 6901,
      "ĠSistema": 6902,
      "biertos": 6903,
      "Ġbuscar": 6904,
      "ĠBay": 6905,
      "quinas": 6906,
      "PA": 6907,
      "lon": 6908,
      "Ġmotivos": 6909,
      "ticiÃ³n": 6910,
      "Ġhuel": 6911,
      "ĠSt": 6912,
      "Ġcanales": 6913,
      "ĠAlcal": 6914,
      "LA": 6915,
      "sivo": 6916,
      "ĠĊĠ": 6917,
      "ĠintervenciÃ³n": 6918,
      "Ġbombar": 6919,
      "ground": 6920,
      "Ġ1942": 6921,
      "Ġcinemato": 6922,
      "ĠLove": 6923,
      "ĠTomÃ¡s": 6924,
      "Ġofer": 6925,
      "field": 6926,
      "Ġsuminist": 6927,
      "ĠRosa": 6928,
      "Bar": 6929,
      "ĠcrÃŃtico": 6930,
      "ĠConstitu": 6931,
      "Ġ1933": 6932,
      "Ã³s": 6933,
      "ĊĊĠ": 6934,
      "ĠSudam": 6935,
      "Ġventas": 6936,
      "dillera": 6937,
      "ball": 6938,
      "Ġprivada": 6939,
      "ĠpartÃŃculas": 6940,
      "ĠintentÃ³": 6941,
      "fru": 6942,
      "ae": 6943,
      "Ġreducir": 6944,
      "ĠBolÃŃvar": 6945,
      "Ġ)": 6946,
      "Ġresulta": 6947,
      "arÃŃan": 6948,
      "ĠLeon": 6949,
      "Ġbosque": 6950,
      "Ġrique": 6951,
      "Ġbosques": 6952,
      "Ã³p": 6953,
      "Ġune": 6954,
      "Ġrepresentan": 6955,
      "Ġprecio": 6956,
      "posiciones": 6957,
      "ĠSenado": 6958,
      "inidad": 6959,
      "Ġtonel": 6960,
      "Ġleyenda": 6961,
      "ĠFan": 6962,
      "Ġembaj": 6963,
      "ĠOccidental": 6964,
      "Ġviene": 6965,
      "Ġotom": 6966,
      "ĠBon": 6967,
      "Ġcarne": 6968,
      "Ġuniverso": 6969,
      "Ġreyes": 6970,
      "Ġconstruida": 6971,
      "Ġmuestran": 6972,
      "Ġsaber": 6973,
      "uca": 6974,
      "Ġojos": 6975,
      "Ġllamadas": 6976,
      "ĠCaball": 6977,
      "ĠrÃ©cord": 6978,
      "Ġfunda": 6979,
      "Ġmanten": 6980,
      "Ġdedicado": 6981,
      "Ġamplio": 6982,
      "ĠsatÃ©li": 6983,
      "72": 6984,
      "cionados": 6985,
      "gil": 6986,
      "mica": 6987,
      "onso": 6988,
      "Ġsens": 6989,
      "Ġcapilla": 6990,
      "IS": 6991,
      "jero": 6992,
      "Ġvictorias": 6993,
      "ĠCapi": 6994,
      "jan": 6995,
      "hen": 6996,
      "ĠtrÃ¡fico": 6997,
      "ĠpropÃ³sito": 6998,
      "Ãºcar": 6999,
      "Ġ160": 7000,
      "ganos": 7001,
      "Ġ36": 7002,
      "Ġjurisdic": 7003,
      "cero": 7004,
      "dows": 7005,
      "ĠSud": 7006,
      "Ro": 7007,
      "ĠMurcia": 7008,
      "ĠSmith": 7009,
      "uerta": 7010,
      "ĠJoaquÃŃn": 7011,
      "putado": 7012,
      "Ġpresti": 7013,
      "Ġconsumi": 7014,
      "Ġlun": 7015,
      "Ġline": 7016,
      "Ġnorma": 7017,
      "uiz": 7018,
      "Ġprision": 7019,
      "Ġdepartam": 7020,
      "Ġcercano": 7021,
      "ĠcelebraciÃ³n": 7022,
      "ricaciÃ³n": 7023,
      "Ġexcel": 7024,
      "Ġimplic": 7025,
      "Ġguerras": 7026,
      "Ġeuropea": 7027,
      "enti": 7028,
      "edi": 7029,
      "ĠhÃ©ro": 7030,
      "ĠMex": 7031,
      "Ġcompetencia": 7032,
      "ĠNin": 7033,
      "Ġinicios": 7034,
      "ĠocÃ©ano": 7035,
      "eto": 7036,
      "ĠIngeni": 7037,
      "42": 7038,
      "reros": 7039,
      "Ġnuclear": 7040,
      "renos": 7041,
      "ĠCham": 7042,
      "ĠPC": 7043,
      "cedentes": 7044,
      "Ġusan": 7045,
      "Ġmejorar": 7046,
      "Ġcaracteriza": 7047,
      "ĠRena": 7048,
      "Ġposiciones": 7049,
      "Ġindividuos": 7050,
      "ĠespectÃ¡": 7051,
      "gol": 7052,
      "ĠejecuciÃ³n": 7053,
      "Ġdistritos": 7054,
      "Ġcoo": 7055,
      "hat": 7056,
      "2011": 7057,
      "ĠAgustÃŃn": 7058,
      "Ġcaza": 7059,
      "ĠvehÃŃculos": 7060,
      "Ġllevado": 7061,
      "Ġmedieval": 7062,
      "ĠIncl": 7063,
      "Ġ1938": 7064,
      "ĠIndust": 7065,
      "ĠProvinci": 7066,
      "laga": 7067,
      "Ġ1937": 7068,
      "Ġusuario": 7069,
      "jemp": 7070,
      "ĠDic": 7071,
      "Ġprecis": 7072,
      "Ġdivide": 7073,
      "uk": 7074,
      "eler": 7075,
      "Ġvie": 7076,
      "tara": 7077,
      "58": 7078,
      "Ġala": 7079,
      "ĠAlgunas": 7080,
      "Ġveinte": 7081,
      "Ġpiano": 7082,
      "gidas": 7083,
      "ĠjugÃ³": 7084,
      "Ġcumplir": 7085,
      "guridad": 7086,
      "ĠtransmisiÃ³n": 7087,
      "1998": 7088,
      "Ġdoctr": 7089,
      "peones": 7090,
      "raron": 7091,
      "tÃ¡nico": 7092,
      "lidad": 7093,
      "Ġseries": 7094,
      "burg": 7095,
      "Ġaco": 7096,
      "Î¿": 7097,
      "landes": 7098,
      "Ġausencia": 7099,
      "cidades": 7100,
      "let": 7101,
      "zco": 7102,
      "ÃŃnas": 7103,
      "ĠprogramaciÃ³n": 7104,
      "Ġenemigo": 7105,
      "Ġregistro": 7106,
      "cienda": 7107,
      "Ġglobal": 7108,
      "Ġrepresentantes": 7109,
      "Ġejerci": 7110,
      "ĠLorenzo": 7111,
      "if": 7112,
      "urismo": 7113,
      "Ġdescubrimiento": 7114,
      "Ġcatedral": 7115,
      "Ġabre": 7116,
      "Ġ400": 7117,
      "ĠDen": 7118,
      "ĠpÃ¡gina": 7119,
      "Ġarriba": 7120,
      "ĠAg": 7121,
      "lace": 7122,
      "inete": 7123,
      "hite": 7124,
      "Ġingresos": 7125,
      "Ġsopor": 7126,
      "ĠAmerican": 7127,
      "Ġlegal": 7128,
      "ĠSor": 7129,
      "ĠlÃŃderes": 7130,
      "ĠHospital": 7131,
      "Ġtub": 7132,
      "ĠTodos": 7133,
      "ĠSuperior": 7134,
      "ĠfirmÃ³": 7135,
      "ĠutilizÃ³": 7136,
      "Ġespiri": 7137,
      "ĠEsp": 7138,
      "Ġ1929": 7139,
      "Ġtrop": 7140,
      "Ġsing": 7141,
      "ÃŃsmo": 7142,
      "ĠFacultad": 7143,
      "back": 7144,
      "ĠUS": 7145,
      "ĠhipÃ³tesis": 7146,
      "sima": 7147,
      "Gran": 7148,
      "Ġprohibi": 7149,
      "ĠAÃ©": 7150,
      "ĠVasco": 7151,
      "Ġbarrios": 7152,
      "stiÃ³": 7153,
      "terna": 7154,
      "Ġllegado": 7155,
      "ĠXVI": 7156,
      "ĠAlianza": 7157,
      "Ġeri": 7158,
      "Ġproteger": 7159,
      "Ġbarco": 7160,
      "plic": 7161,
      "Ġ1934": 7162,
      "ĠGir": 7163,
      "ĠJohan": 7164,
      "Ġdocumento": 7165,
      "43": 7166,
      "ĠDemocrÃ¡": 7167,
      "ttp": 7168,
      "Ġprovincial": 7169,
      "ocas": 7170,
      "Ġediciones": 7171,
      "Ġfederal": 7172,
      "ĠFuerza": 7173,
      "ĠIgnacio": 7174,
      "itz": 7175,
      "ĠcuestiÃ³n": 7176,
      "Ġbizan": 7177,
      "how": 7178,
      "Ã©lgica": 7179,
      "Ġhablar": 7180,
      "Ãºme": 7181,
      "Ġcolonial": 7182,
      "Ġurbana": 7183,
      "ĠConcepciÃ³n": 7184,
      "ĠfusiÃ³n": 7185,
      "ĠNar": 7186,
      "Ġinglesa": 7187,
      "ĠSobre": 7188,
      "ĠParaguay": 7189,
      "Ġtriunfo": 7190,
      "leos": 7191,
      "Ġresponsa": 7192,
      "ĠGusta": 7193,
      "icio": 7194,
      "rica": 7195,
      "Ġpeligro": 7196,
      "ĠCur": 7197,
      "oreste": 7198,
      "trÃ³leo": 7199,
      "Ġcombust": 7200,
      "Ġpuestos": 7201,
      "EC": 7202,
      "Ġvis": 7203,
      "Ġdialec": 7204,
      "ĠteÃ³r": 7205,
      "ÃŃrculo": 7206,
      "Ġtreinta": 7207,
      "Ġrecorrido": 7208,
      "46": 7209,
      "Ã¡metro": 7210,
      "Ġaccidente": 7211,
      "kes": 7212,
      "quilla": 7213,
      "Ġdepende": 7214,
      "ĠcÃ¡l": 7215,
      "quitectura": 7216,
      "entada": 7217,
      "Ġhoriz": 7218,
      "Ġparticularmente": 7219,
      "ĠeconÃ³micos": 7220,
      "Ġsuperiores": 7221,
      "Ġorganismos": 7222,
      "Ġalco": 7223,
      "Ġentrega": 7224,
      "neos": 7225,
      "ĠconvirtiÃ©ndose": 7226,
      "trica": 7227,
      "ata": 7228,
      "1997": 7229,
      "Ġprecios": 7230,
      "paciones": 7231,
      "For": 7232,
      "Ġsimul": 7233,
      "Ġacei": 7234,
      "tanos": 7235,
      "Ġconfor": 7236,
      "tent": 7237,
      "Ġreferencias": 7238,
      "Ġsierra": 7239,
      "Ġbasa": 7240,
      "Ġfich": 7241,
      "ĠPhi": 7242,
      "ĠFal": 7243,
      "Ġnovelas": 7244,
      "Ġaman": 7245,
      "Ġviento": 7246,
      "Ġaumentar": 7247,
      "71": 7248,
      "ther": 7249,
      "Ġdefine": 7250,
      "vÃŃan": 7251,
      "tuvieron": 7252,
      "ĠHon": 7253,
      "ĠEp": 7254,
      "Ġprofesionales": 7255,
      "ĠUl": 7256,
      "Ġcartas": 7257,
      "Ġconsa": 7258,
      "Ġdue": 7259,
      "ĠLea": 7260,
      "Ãģlbum": 7261,
      "Ġespacial": 7262,
      "Ġdiscurso": 7263,
      "Ġpartid": 7264,
      "ĠPrinci": 7265,
      "Ġhistorias": 7266,
      "iales": 7267,
      "ural": 7268,
      "mbo": 7269,
      "Ġlistas": 7270,
      "ĠChica": 7271,
      "Ġllevaron": 7272,
      "ĠBil": 7273,
      "ĠmetÃ¡": 7274,
      "reste": 7275,
      "Ġconstitucional": 7276,
      "ĠatrÃ¡s": 7277,
      "ĠJoseph": 7278,
      "Ġoriginales": 7279,
      "dolfo": 7280,
      "Sus": 7281,
      "Ġsirve": 7282,
      "Ġcontam": 7283,
      "Ġcargos": 7284,
      "ĠAlonso": 7285,
      "Ġpies": 7286,
      "Ġepi": 7287,
      "Ġpresu": 7288,
      "beliÃ³n": 7289,
      "Ġsul": 7290,
      "ĠConstantino": 7291,
      "rome": 7292,
      "Ġapertura": 7293,
      "ĠFerro": 7294,
      "vile": 7295,
      "Ġprimi": 7296,
      "Ġ1918": 7297,
      "Hay": 7298,
      "Ġobtiene": 7299,
      "ĠÃ³rgano": 7300,
      "eamente": 7301,
      "Ġcabecera": 7302,
      "Ġderiva": 7303,
      "ĠADN": 7304,
      "dras": 7305,
      "Ġjuicio": 7306,
      "ĠHenry": 7307,
      "ĠcompeticiÃ³n": 7308,
      "Ġpubli": 7309,
      "Ġmomentos": 7310,
      "ĠChe": 7311,
      "ĠInvesti": 7312,
      "41": 7313,
      "ĠBatalla": 7314,
      "ĠGri": 7315,
      "Ġpic": 7316,
      "jada": 7317,
      "ĠHistor": 7318,
      "Ġatribuy": 7319,
      "xa": 7320,
      "ĠGen": 7321,
      "ementerio": 7322,
      "Ġ1932": 7323,
      "ĠRegional": 7324,
      "ĠincluÃŃa": 7325,
      "Ġcron": 7326,
      "ĠsitÃºa": 7327,
      "ĠLegisla": 7328,
      "ĠCaribe": 7329,
      "Ġsucesor": 7330,
      "79": 7331,
      "Ġben": 7332,
      "tical": 7333,
      "ĠgÃ©neros": 7334,
      "Ġrealmente": 7335,
      "biendo": 7336,
      "acer": 7337,
      "Ġquedando": 7338,
      "Ġrural": 7339,
      "EconomÃŃa": 7340,
      "Ġtoneladas": 7341,
      "lag": 7342,
      "Ġenemigos": 7343,
      "Ġreclam": 7344,
      "Ġresidencia": 7345,
      "Ġrequiere": 7346,
      "uto": 7347,
      "ĠGabriel": 7348,
      "ĠDra": 7349,
      "Ġ1951": 7350,
      "Ġinterme": 7351,
      "Ġpis": 7352,
      "lanos": 7353,
      ".).": 7354,
      "ezas": 7355,
      "Ġejecut": 7356,
      "ĠconstituciÃ³n": 7357,
      "Ġpotencial": 7358,
      "ĠasociaciÃ³n": 7359,
      "Ġestudiar": 7360,
      "Ġincrement": 7361,
      "ĠJaime": 7362,
      "ĠSeÃ±or": 7363,
      "ĠdebiÃ³": 7364,
      "ski": 7365,
      "Ġgobiernos": 7366,
      "culas": 7367,
      "cÃº": 7368,
      "ĠVega": 7369,
      "ĠAni": 7370,
      "Ġfres": 7371,
      "ĠOtras": 7372,
      "ĠportuguÃ©s": 7373,
      "Ġcivili": 7374,
      "Ġanunci": 7375,
      "ĠadaptaciÃ³n": 7376,
      "ĠquerÃŃa": 7377,
      "Ġsiguiendo": 7378,
      "ĠSala": 7379,
      "Ġcontras": 7380,
      "Ġrefu": 7381,
      "chen": 7382,
      "Ġsiguen": 7383,
      "ĠmÃºsicos": 7384,
      "elle": 7385,
      "Ġmonte": 7386,
      "ĠVo": 7387,
      "82": 7388,
      "Ġplanes": 7389,
      "urt": 7390,
      "Ã©nez": 7391,
      "tronomÃŃa": 7392,
      "lados": 7393,
      "Ġox": 7394,
      "Ġestablecido": 7395,
      "ĠmÃ¡quina": 7396,
      "tÃ©s": 7397,
      "Ġmod": 7398,
      "venir": 7399,
      "ĠCaracas": 7400,
      "ĠDor": 7401,
      "ĠNapole": 7402,
      "Ġvein": 7403,
      "ĠcrÃŃticos": 7404,
      "Ġampliamente": 7405,
      "Mun": 7406,
      "ĠAeropuerto": 7407,
      "Ġreglas": 7408,
      "Ġpresidencial": 7409,
      "edades": 7410,
      "ĠÃį": 7411,
      "Ġflujo": 7412,
      "Ġrecep": 7413,
      "unciÃ³": 7414,
      "Ġjorn": 7415,
      "1995": 7416,
      "Ġinmediatamente": 7417,
      "Ã¡i": 7418,
      "usk": 7419,
      "Ġinstrumento": 7420,
      "DA": 7421,
      "ulaciÃ³n": 7422,
      "olÃŃmp": 7423,
      "Ġinau": 7424,
      "Ġmotores": 7425,
      "Ġed": 7426,
      "ato": 7427,
      "52": 7428,
      "Ġpresi": 7429,
      "Ġcomedia": 7430,
      "ah": 7431,
      "Ġtermina": 7432,
      "incesa": 7433,
      "Ġpermanente": 7434,
      "ĠTribunal": 7435,
      "ĠHistÃ³r": 7436,
      "Ġdolor": 7437,
      "Ġ1928": 7438,
      "Ġidiomas": 7439,
      "ector": 7440,
      "Ġcompuestos": 7441,
      "Ġabajo": 7442,
      "ĠdemocrÃ¡": 7443,
      "Ġcielo": 7444,
      "Ġtendencia": 7445,
      "ĠTab": 7446,
      "Ġfrecuentemente": 7447,
      "51": 7448,
      "Ġperdido": 7449,
      "Ġingeniero": 7450,
      "Ġalianza": 7451,
      "Ġrue": 7452,
      "Ġnacion": 7453,
      "uge": 7454,
      "ĠHonor": 7455,
      "Ġlibres": 7456,
      "arre": 7457,
      "Ġnormas": 7458,
      "Ġpropa": 7459,
      "Ġpieza": 7460,
      "ĠpresentaciÃ³n": 7461,
      "drÃ³": 7462,
      "saciones": 7463,
      "Ġreligiosos": 7464,
      "Ġbril": 7465,
      "ĠLatino": 7466,
      "Ġnove": 7467,
      "ĠHal": 7468,
      "presidente": 7469,
      "ĠenseÃ±anza": 7470,
      "ĠRib": 7471,
      "Ġactivo": 7472,
      "Ġtotalidad": 7473,
      "my": 7474,
      "Ãī": 7475,
      "Ġfamiliar": 7476,
      "Ġconflictos": 7477,
      "ms": 7478,
      "Ġabogado": 7479,
      "ĠAtlÃ¡ntico": 7480,
      "Ġgriegos": 7481,
      "ĠWindows": 7482,
      "Ġabandonar": 7483,
      "Ġvul": 7484,
      "Ġreligiosas": 7485,
      "comun": 7486,
      "Ġquinto": 7487,
      "Ġconsiderar": 7488,
      "guo": 7489,
      "Ġnacido": 7490,
      "ĠMarcos": 7491,
      "Ġped": 7492,
      "Ġconsta": 7493,
      "Ġverdad": 7494,
      "pp": 7495,
      "Ġdeleg": 7496,
      "culaciÃ³n": 7497,
      "ĠEspeci": 7498,
      "Ġmagnitud": 7499,
      "Ġindu": 7500,
      "ĠTorres": 7501,
      "ĠAntigua": 7502,
      "ĠDec": 7503,
      "Ġrei": 7504,
      "nidad": 7505,
      "peonatos": 7506,
      "Ġescenas": 7507,
      "ĠmarÃŃ": 7508,
      "Ġelig": 7509,
      "Ġestatal": 7510,
      "Ġ1935": 7511,
      "ĠPam": 7512,
      "ĠDVD": 7513,
      "dela": 7514,
      "key": 7515,
      "Ġseguido": 7516,
      "Ġdisponible": 7517,
      "ĠSun": 7518,
      "tambiÃ©n": 7519,
      "Ġdestacados": 7520,
      "Ġoportunidad": 7521,
      "Ġdifun": 7522,
      "ficiente": 7523,
      "Ġsurgi": 7524,
      "Ġgole": 7525,
      "Ð°": 7526,
      "1996": 7527,
      "Ġdioses": 7528,
      "ĠGor": 7529,
      "Ġextiende": 7530,
      "Ġdada": 7531,
      "Ġreciente": 7532,
      "ĠpermaneciÃ³": 7533,
      "',": 7534,
      "ĠCuer": 7535,
      "ĠseparaciÃ³n": 7536,
      "Ġnegra": 7537,
      "ĠMÃºsica": 7538,
      "tum": 7539,
      "Ġdedicada": 7540,
      "Ġincluir": 7541,
      "ĠPu": 7542,
      "Ġmodernos": 7543,
      "tto": 7544,
      "ĠNie": 7545,
      "Ġorganismo": 7546,
      "usal": 7547,
      "Ġtratar": 7548,
      "ĠconexiÃ³n": 7549,
      "ĠfabricaciÃ³n": 7550,
      "Ã¡sico": 7551,
      "ĠCorea": 7552,
      "ĠFrente": 7553,
      "ĠComer": 7554,
      "Ġ1924": 7555,
      "ĠTorneo": 7556,
      "ĠLatina": 7557,
      "ÃŃgeno": 7558,
      "ĠIl": 7559,
      "Ġterminar": 7560,
      "Ġdeterminar": 7561,
      "Ne": 7562,
      "ĠTol": 7563,
      "Ġ1917": 7564,
      "librio": 7565,
      "Ġduda": 7566,
      "Ġprove": 7567,
      "ĠGalicia": 7568,
      "Ġdesemboc": 7569,
      "ĠubicaciÃ³n": 7570,
      "Ġaliados": 7571,
      "Ãģlbumes": 7572,
      "cta": 7573,
      "adir": 7574,
      "Ġmonasterio": 7575,
      "omer": 7576,
      "Ġfues": 7577,
      "ĠabandonÃ³": 7578,
      "ĠprisiÃ³n": 7579,
      "Ġepisodios": 7580,
      "right": 7581,
      "trices": 7582,
      "ĠfilÃ³sofo": 7583,
      "ete": 7584,
      "inger": 7585,
      "rump": 7586,
      "Ġutilizados": 7587,
      "Ġgala": 7588,
      "Ġlogran": 7589,
      "ĠÃ©sta": 7590,
      "Ġama": 7591,
      "Ġobliga": 7592,
      "rad": 7593,
      "Ġmedicina": 7594,
      "Ġconsoli": 7595,
      "ĠAlb": 7596,
      "Ġencontraban": 7597,
      "Ġdata": 7598,
      "ĠMedio": 7599,
      "Ġfondos": 7600,
      "Ġvincul": 7601,
      "ĠMax": 7602,
      "ĠmaÃ±ana": 7603,
      "Ġuniversal": 7604,
      "Ġinfluy": 7605,
      "Ġposeen": 7606,
      "ĠHitler": 7607,
      "amora": 7608,
      "ĠGregor": 7609,
      "stos": 7610,
      "ĠcientÃŃfica": 7611,
      "ĠCÃ¡diz": 7612,
      "Ġbronce": 7613,
      "ĠuniÃ³": 7614,
      "Ġdeclara": 7615,
      "ĠagrÃŃcola": 7616,
      "Ġrelacionadas": 7617,
      "Ġlluvi": 7618,
      "logÃŃa": 7619,
      "cidentales": 7620,
      "ĠÃ©xitos": 7621,
      "ĠSocialista": 7622,
      "bÃ³n": 7623,
      "57": 7624,
      "quÃ©s": 7625,
      "ĠBÃ©lgica": 7626,
      "81": 7627,
      "xon": 7628,
      "Ġmanga": 7629,
      "ĠTan": 7630,
      "Ġorquesta": 7631,
      "Ġinfantil": 7632,
      "ĠolÃŃmp": 7633,
      "isc": 7634,
      "ĠGeor": 7635,
      "uf": 7636,
      "IN": 7637,
      "Ġ33": 7638,
      "ĠcomparaciÃ³n": 7639,
      "Ġfamosa": 7640,
      "ĠRay": 7641,
      "Ġevidencia": 7642,
      "Ġcorrespondiente": 7643,
      "ĠMendo": 7644,
      "Ġsello": 7645,
      "Ġby": 7646,
      "ĠUE": 7647,
      "ĠCir": 7648,
      "Ġcens": 7649,
      "Ġconsideraba": 7650,
      "Ġhumor": 7651,
      "Ġjudicial": 7652,
      "Ġreformas": 7653,
      "Ġcubierta": 7654,
      "Ġ1925": 7655,
      "ivos": 7656,
      "Ã³bal": 7657,
      "Ġcristiana": 7658,
      "Ġpoblado": 7659,
      "ĠComunista": 7660,
      "Ġastron": 7661,
      "ĠestratÃ©": 7662,
      "vy": 7663,
      "gico": 7664,
      "Ġentrevista": 7665,
      "ĠHugo": 7666,
      "tun": 7667,
      "ĠOf": 7668,
      "ĠMuchos": 7669,
      "62": 7670,
      "Ã¡ndole": 7671,
      "Ġperuano": 7672,
      "Ġiglesias": 7673,
      "Ġrelie": 7674,
      "Ġcreciente": 7675,
      "ĠdestrucciÃ³n": 7676,
      "ĠorÃŃgenes": 7677,
      "ĠValenci": 7678,
      "ĠocupÃ³": 7679,
      "Algunos": 7680,
      "ĠMarina": 7681,
      "Ġinvestigaciones": 7682,
      "Ġfama": 7683,
      "Ã³mico": 7684,
      "Ġllevan": 7685,
      "ĠPic": 7686,
      "Ġarchivos": 7687,
      "Ġevolucion": 7688,
      "Ġasesinado": 7689,
      "Ġetapas": 7690,
      "ĠLibro": 7691,
      "ĠpetrÃ³leo": 7692,
      "Ġasal": 7693,
      "Ġsemifin": 7694,
      "Ġmusulmanes": 7695,
      "Ġcolombiano": 7696,
      "lima": 7697,
      "federaciÃ³n": 7698,
      "Ġatle": 7699,
      "Ġplazo": 7700,
      "ĠModer": 7701,
      "Ġprofundidad": 7702,
      "hor": 7703,
      "Ġprimavera": 7704,
      "imno": 7705,
      "ĠtransiciÃ³n": 7706,
      "uero": 7707,
      "Ġefica": 7708,
      "Ġcasco": 7709,
      "ĠCamp": 7710,
      "100": 7711,
      "acterÃŃst": 7712,
      "dicas": 7713,
      "ĠgÃ³": 7714,
      "Ġsitios": 7715,
      "ĠCompaÃ±": 7716,
      "Ġreempla": 7717,
      "Ã©st": 7718,
      "Ġavance": 7719,
      "Ġempren": 7720,
      "ĠfalleciÃ³": 7721,
      "Ġsecundaria": 7722,
      "ĠLee": 7723,
      "49": 7724,
      "Ġ1922": 7725,
      "TP": 7726,
      "Ġhielo": 7727,
      "ÃŃp": 7728,
      "lesc": 7729,
      "Ġjusticia": 7730,
      "hal": 7731,
      "trando": 7732,
      "Bo": 7733,
      "tadora": 7734,
      "Ġrecientemente": 7735,
      "ĠviviÃ³": 7736,
      "Ġprof": 7737,
      "ĠAlta": 7738,
      "ÃŃso": 7739,
      "Ġafirm": 7740,
      "left": 7741,
      "ĠKi": 7742,
      "arita": 7743,
      "Ġpacientes": 7744,
      "ĠBurgos": 7745,
      "Cor": 7746,
      "Ġpoli": 7747,
      "hr": 7748,
      "ĠcombinaciÃ³n": 7749,
      "2012": 7750,
      "Ġguitarrista": 7751,
      "Ġesfuerzos": 7752,
      "\"|": 7753,
      "the": 7754,
      "Ġimpul": 7755,
      "ĠsÃ¡": 7756,
      "ĠCarl": 7757,
      "Ġ1914": 7758,
      "Ġartic": 7759,
      "olina": 7760,
      "ĠBul": 7761,
      "ĠDefensa": 7762,
      "doro": 7763,
      "omen": 7764,
      "73": 7765,
      "ĠvÃŃctimas": 7766,
      "Ġlimp": 7767,
      "63": 7768,
      "Ġdimensiones": 7769,
      "ĠnombrÃ³": 7770,
      "Ġensay": 7771,
      "Ġquiere": 7772,
      "ĠintroducciÃ³n": 7773,
      "Ġhospital": 7774,
      "monios": 7775,
      "Ġdefinitivamente": 7776,
      "Ġequivalente": 7777,
      "Ġ1919": 7778,
      "izado": 7779,
      "Ġeditorial": 7780,
      "Ad": 7781,
      "ĠRub": 7782,
      "Ġpresentar": 7783,
      "ĠcompaÃ±ÃŃas": 7784,
      "ĠcompaÃ±eros": 7785,
      "ĠacabÃ³": 7786,
      "tible": 7787,
      "Ġdisfru": 7788,
      "avi": 7789,
      "Ġcosa": 7790,
      "ĠexplotaciÃ³n": 7791,
      "Ġprivile": 7792,
      "ĠposesiÃ³n": 7793,
      "Ġuniversidades": 7794,
      "ings": 7795,
      "riles": 7796,
      "Ġterrenos": 7797,
      "ĠvolcÃ¡n": 7798,
      "Ġjaponesa": 7799,
      "59": 7800,
      "Ġvariable": 7801,
      "ĠAR": 7802,
      "ĠmitologÃŃa": 7803,
      "ĠCatÃ³lica": 7804,
      "1994": 7805,
      "Ġgla": 7806,
      "Ġpoemas": 7807,
      "ĠbaterÃŃa": 7808,
      "Ġterrestre": 7809,
      "Existen": 7810,
      "Ġextranjero": 7811,
      "ĠhÃºme": 7812,
      "Ġaun": 7813,
      "Ġmoral": 7814,
      "ĠcomÃºnmente": 7815,
      "ĠcategorÃŃas": 7816,
      "Ġborde": 7817,
      "ÃŃferos": 7818,
      "Ġcuyas": 7819,
      "Ġinde": 7820,
      "ĠTecn": 7821,
      "Gan": 7822,
      "Ġasuntos": 7823,
      "Ġempleo": 7824,
      "Ġrendimiento": 7825,
      "americanos": 7826,
      "Ġnoreste": 7827,
      "uck": 7828,
      "ĠdescubriÃ³": 7829,
      "Ã¡ndolo": 7830,
      "vila": 7831,
      "ĠatÃ³": 7832,
      "Ġhiper": 7833,
      "ĠCr": 7834,
      "ĠÃ©tn": 7835,
      "ĠRin": 7836,
      "Ġficti": 7837,
      "Ġinforme": 7838,
      "Ġubica": 7839,
      "Ġposiblemente": 7840,
      "ĠincluyÃ³": 7841,
      "ÃŃtulos": 7842,
      "Ġgre": 7843,
      "Ġcontrolar": 7844,
      "Ġcarbono": 7845,
      "ĠcuÃ¡n": 7846,
      "Ġabst": 7847,
      "ĠBlanco": 7848,
      "ĠpatrÃ³n": 7849,
      "Ġatrac": 7850,
      "ĠLar": 7851,
      "ĠMendoza": 7852,
      "Ġmenciona": 7853,
      "Ġvoto": 7854,
      "sburgo": 7855,
      "Ġinno": 7856,
      "Fin": 7857,
      "Ġarist": 7858,
      "Ġcomida": 7859,
      "ĠfÃ¡cilmente": 7860,
      "Ġacces": 7861,
      "ĠXVIII": 7862,
      "Ġhistoriadores": 7863,
      "ĠconservaciÃ³n": 7864,
      "riz": 7865,
      "ĠCÃ³": 7866,
      "Ġdeclarado": 7867,
      "61": 7868,
      "69": 7869,
      "Ġrein": 7870,
      "Ġdiputados": 7871,
      "Ġprefer": 7872,
      "ĠMark": 7873,
      "old": 7874,
      "ĠZe": 7875,
      "Ġmargen": 7876,
      "Ġclan": 7877,
      "Ġprefi": 7878,
      "ĠViena": 7879,
      "ĠestrenÃ³": 7880,
      "ĠFar": 7881,
      "ĠafirmÃ³": 7882,
      "Ġaflu": 7883,
      "Ġvapor": 7884,
      "Ġmanifi": 7885,
      "Ġestablecimiento": 7886,
      "Ġ1927": 7887,
      "Ġdiver": 7888,
      "udal": 7889,
      "ĠpÃ¡ginas": 7890,
      "ĠInte": 7891,
      "Ġesclavos": 7892,
      "entre": 7893,
      "Ġsonora": 7894,
      "Ġ1910": 7895,
      "ĠCamb": 7896,
      "Ġverdadero": 7897,
      "Ġciencias": 7898,
      "Ġindependientes": 7899,
      "ĠpidiÃ³": 7900,
      "Ġmorir": 7901,
      "ĠCristÃ³bal": 7902,
      "acterÃŃsticas": 7903,
      "Ġverdadera": 7904,
      "pero": 7905,
      "ĠPark": 7906,
      "aso": 7907,
      "eae": 7908,
      "terios": 7909,
      "Ã¡stico": 7910,
      "Ġcomprom": 7911,
      "tamento": 7912,
      "Ġcercana": 7913,
      "Ġpantalla": 7914,
      "glo": 7915,
      "Ġfestival": 7916,
      "Ġhun": 7917,
      "ĠWol": 7918,
      "ĠPl": 7919,
      "Ġdisper": 7920,
      "Ġmeridi": 7921,
      "Ġreti": 7922,
      "Ġdemocracia": 7923,
      "ĠautomÃ³": 7924,
      "ĠNapoleÃ³n": 7925,
      "har": 7926,
      "Ġacre": 7927,
      "Ġterremoto": 7928,
      "Ġcompi": 7929,
      "tone": 7930,
      "ast": 7931,
      "Ġdro": 7932,
      "edor": 7933,
      "Ġpropuso": 7934,
      "ĠteorÃŃas": 7935,
      "ĠHasta": 7936,
      "ĠCel": 7937,
      "xido": 7938,
      "dell": 7939,
      "tizar": 7940,
      "Ġbin": 7941,
      "uera": 7942,
      "ets": 7943,
      "ĠStre": 7944,
      "Ġexistentes": 7945,
      "Ġiniciativa": 7946,
      "Ã©lago": 7947,
      "Ġnecesidades": 7948,
      "imia": 7949,
      "ĠdedicÃ³": 7950,
      "tizaciÃ³n": 7951,
      "Ġrepor": 7952,
      "Ġmetro": 7953,
      "yer": 7954,
      "Ġnombra": 7955,
      "Ġescritores": 7956,
      "loj": 7957,
      "uch": 7958,
      "Ġfrecuente": 7959,
      "Ġlados": 7960,
      "Ã©rcitos": 7961,
      "ĠNegro": 7962,
      "ĠVin": 7963,
      "junto": 7964,
      "urada": 7965,
      "Ġpese": 7966,
      "Ġadolesc": 7967,
      "adolid": 7968,
      "ĠcrÃ©di": 7969,
      "ĠtensiÃ³n": 7970,
      "Ġexplica": 7971,
      "ĠFron": 7972,
      "Ġpagar": 7973,
      "Alum": 7974,
      "Ġcuadro": 7975,
      "ĠresoluciÃ³n": 7976,
      "Ġmensaje": 7977,
      "Ġrecin": 7978,
      "Ġdestacado": 7979,
      "ĠChicago": 7980,
      "mej": 7981,
      "Ġsupone": 7982,
      "Ġdeseo": 7983,
      "Ale": 7984,
      "ĠLui": 7985,
      "Ġnoticias": 7986,
      "ĠcoaliciÃ³n": 7987,
      "Ġdescubierto": 7988,
      "Ġperspec": 7989,
      "mÃ©": 7990,
      "ĠVene": 7991,
      "ĠdifusiÃ³n": 7992,
      "unt": 7993,
      "ĠbrasileÃ±o": 7994,
      "biertas": 7995,
      "lesi": 7996,
      "Ġexcepto": 7997,
      "erona": 7998,
      "ĠTeresa": 7999,
      "ĠMoscÃº": 8000,
      "gando": 8001,
      "Ġonda": 8002,
      "Ġarreg": 8003,
      "Ġsalv": 8004,
      "ĠautÃ³noma": 8005,
      "ĠdescripciÃ³n": 8006,
      "anista": 8007,
      "Ġerror": 8008,
      "Ġlanza": 8009,
      "pula": 8010,
      "%.": 8011,
      "Ġrecre": 8012,
      "Ġdeuda": 8013,
      "Ġhubiera": 8014,
      "ĠAtenas": 8015,
      "Trans": 8016,
      "ĠPuente": 8017,
      "Ġporcent": 8018,
      "ĠXXI": 8019,
      "ĠArmada": 8020,
      "Ġlicencia": 8021,
      "Ġcausas": 8022,
      "ĠRuiz": 8023,
      "Ġmoneda": 8024,
      "ĠespaÃ±olas": 8025,
      "500": 8026,
      "Ter": 8027,
      "pie": 8028,
      "ĠHolly": 8029,
      "Ġculmin": 8030,
      "teniendo": 8031,
      "Ġnuestra": 8032,
      "arc": 8033,
      "ĠMovimiento": 8034,
      "ĠpolÃ©m": 8035,
      "trico": 8036,
      "Ġvoluntad": 8037,
      "pulaciÃ³n": 8038,
      "ĠHoy": 8039,
      "alizadas": 8040,
      "ĠnÃºcleos": 8041,
      "Ġexclusivamente": 8042,
      "Ġactores": 8043,
      "Ġcoron": 8044,
      "ÃŃces": 8045,
      "www": 8046,
      "liar": 8047,
      "Ġefectu": 8048,
      "ĠJerusal": 8049,
      "Ġviven": 8050,
      "Ġmue": 8051,
      "Ġtampoco": 8052,
      "ĠZel": 8053,
      "Ġculturas": 8054,
      "erte": 8055,
      "ĠdaÃ±os": 8056,
      "line": 8057,
      "ĠcayÃ³": 8058,
      "izar": 8059,
      "Ġevalu": 8060,
      "Ġcanadi": 8061,
      "Ġprede": 8062,
      "ĠÃ¡rabes": 8063,
      "ĠreducciÃ³n": 8064,
      "ule": 8065,
      "entados": 8066,
      "ĠBlanca": 8067,
      "Ġemis": 8068,
      "Ġtramo": 8069,
      "Ġregionales": 8070,
      "ĠSolo": 8071,
      "Ġpersonales": 8072,
      "Ġrealizaron": 8073,
      "MÃ©": 8074,
      "olas": 8075,
      "ĠrepÃºblica": 8076,
      "Ġjuntos": 8077,
      "ĠColum": 8078,
      "Ġpatrimonio": 8079,
      "entalmente": 8080,
      "ĠÃģlvarez": 8081,
      "IB": 8082,
      "Ġcm": 8083,
      "Ġsorpren": 8084,
      "ĠProfes": 8085,
      "ĠEdward": 8086,
      "ĠradiaciÃ³n": 8087,
      "uyendo": 8088,
      "Ġ1921": 8089,
      "ĠOtro": 8090,
      "ken": 8091,
      "Ġfranqui": 8092,
      "ivamente": 8093,
      "ĠMÃ¡laga": 8094,
      "Ġater": 8095,
      "ĠLouis": 8096,
      "ridos": 8097,
      "Ġrepresentante": 8098,
      "Ġmir": 8099,
      "grada": 8100,
      "Ġjer": 8101,
      "ĠGobern": 8102,
      "Sa": 8103,
      "ĠLam": 8104,
      "adÃŃa": 8105,
      "Ġviajes": 8106,
      "ĠcÃ¡li": 8107,
      "Ġmonarca": 8108,
      "ĠcatalÃ¡n": 8109,
      "Ġcola": 8110,
      "Ġmonumento": 8111,
      "Ġrequi": 8112,
      "Ġcontemp": 8113,
      "ĠEug": 8114,
      "Actualmente": 8115,
      "Ġviviendas": 8116,
      "Ġactiva": 8117,
      "ĠEdiciones": 8118,
      "1990": 8119,
      "Ġbio": 8120,
      "Ġastr": 8121,
      "Ġparroqui": 8122,
      "xia": 8123,
      "Ġdescenso": 8124,
      "mado": 8125,
      "Ġmala": 8126,
      "Ġcantidades": 8127,
      "ÏĤ": 8128,
      "Ġple": 8129,
      "Ġdiputado": 8130,
      "ÃŃsica": 8131,
      "Ġpersonalidad": 8132,
      "Ġarma": 8133,
      "llerÃŃa": 8134,
      "Ġcontinuar": 8135,
      "Ġabor": 8136,
      "Ġclasific": 8137,
      "Ġ1923": 8138,
      "Ġfechas": 8139,
      "Ġsecreto": 8140,
      "osÃ³": 8141,
      "Ġdefender": 8142,
      "ĠespÃŃritu": 8143,
      "Ġriqueza": 8144,
      "Ġdeterminado": 8145,
      "1993": 8146,
      "Ġajust": 8147,
      "Ġaten": 8148,
      "Ġsuro": 8149,
      "Ġbgcolor": 8150,
      "ĠCristi": 8151,
      "Ġretirada": 8152,
      "Ġvideojuegos": 8153,
      "ĠCompaÃ±ÃŃa": 8154,
      "ĠCompan": 8155,
      "colo": 8156,
      "ĠÃļ": 8157,
      "Ġpinturas": 8158,
      "alia": 8159,
      "ĠrÃ¡pida": 8160,
      "vino": 8161,
      "ĠFlores": 8162,
      "Ġestric": 8163,
      "lios": 8164,
      "ĠJaco": 8165,
      "Ã¡nicos": 8166,
      "Ġrutas": 8167,
      "Ġ1900": 8168,
      "ĠAugusto": 8169,
      "ĠPatr": 8170,
      "Ta": 8171,
      "ĠclÃŃn": 8172,
      "wi": 8173,
      "yes": 8174,
      "Ġrelev": 8175,
      "ragon": 8176,
      "ĠTeo": 8177,
      "Ġcero": 8178,
      "Ġseguidores": 8179,
      "ĠmÃŃnimo": 8180,
      "ĠprÃ¡cticas": 8181,
      "ĠScho": 8182,
      "ĠPremios": 8183,
      "Ġrama": 8184,
      "ĠPatrimonio": 8185,
      "tÃºan": 8186,
      "Ġsureste": 8187,
      "Ġdescan": 8188,
      "Ġpago": 8189,
      "Ġ1926": 8190,
      "Ġimpuestos": 8191,
      "ĠautonomÃŃa": 8192,
      "ĠdebÃŃan": 8193,
      "ĠBau": 8194,
      "ĠarquitectÃ³n": 8195,
      "ĠrebeliÃ³n": 8196,
      "ĠPatri": 8197,
      "Ġindividuo": 8198,
      "ĠsÃŃnt": 8199,
      "ecÃŃan": 8200,
      "mÃ³s": 8201,
      "unas": 8202,
      "cuenta": 8203,
      "ĠMont": 8204,
      "Ġaparecer": 8205,
      "Ġcoment": 8206,
      "Ġantic": 8207,
      "1992": 8208,
      "Ġmarch": 8209,
      "Ġhacerse": 8210,
      "Ġfamiliares": 8211,
      "Ġliberal": 8212,
      "Ġdefinitiva": 8213,
      "Ġamenaza": 8214,
      "Ġocasion": 8215,
      "egr": 8216,
      "gnÃ³st": 8217,
      "Ġaument": 8218,
      "acen": 8219,
      "Ġliteraria": 8220,
      "sul": 8221,
      "ometra": 8222,
      "ĠproteÃŃnas": 8223,
      "Ġnegocios": 8224,
      "Emp": 8225,
      "Ġsupervi": 8226,
      "randa": 8227,
      "Ġgub": 8228,
      "Ġcastel": 8229,
      "Ġjusto": 8230,
      "sey": 8231,
      "Ġconcur": 8232,
      "ĠMir": 8233,
      "Ġgrados": 8234,
      "Ġceremonia": 8235,
      "Ġimpon": 8236,
      "ĠArgent": 8237,
      "Ġpoema": 8238,
      "Otras": 8239,
      "Ġpene": 8240,
      "tea": 8241,
      "Ġcuentan": 8242,
      "EE": 8243,
      "Personajes": 8244,
      "ometrÃŃa": 8245,
      "sar": 8246,
      "Ġabierta": 8247,
      "Ġcodi": 8248,
      "ee": 8249,
      "Ġfachada": 8250,
      "ĠelectrÃ³nica": 8251,
      "cÃŃ": 8252,
      "ĠfÃ³rmula": 8253,
      "ĠLic": 8254,
      "ĠpromociÃ³n": 8255,
      "Ġplas": 8256,
      "ĠVÃŃctor": 8257,
      "Ġlog": 8258,
      "ĠMary": 8259,
      "Ġrecuperar": 8260,
      "ĠAla": 8261,
      "ĠExisten": 8262,
      "Ġsacri": 8263,
      "Ġplataforma": 8264,
      "uelta": 8265,
      "ĠNational": 8266,
      "Ïģ": 8267,
      "ĠVa": 8268,
      "Ã¡z": 8269,
      "Ġdesapareci": 8270,
      "ĠAv": 8271,
      "Ã±Ã³n": 8272,
      "ĠBob": 8273,
      "Ġobservar": 8274,
      "omÃ©st": 8275,
      "Ġhogar": 8276,
      "cito": 8277,
      "Ġindios": 8278,
      "ĠmostrÃ³": 8279,
      "ĠcontÃ³": 8280,
      "inadas": 8281,
      "Ġbomba": 8282,
      "Ġnuestro": 8283,
      "Ġoferta": 8284,
      "inaciones": 8285,
      "ĠKen": 8286,
      "Ġexca": 8287,
      "ult": 8288,
      "ficiencia": 8289,
      "ĠDal": 8290,
      "Ġcaballo": 8291,
      "Ġpartida": 8292,
      "Ġpoca": 8293,
      "CD": 8294,
      "ĠOx": 8295,
      "Ġacontecimientos": 8296,
      "Ġritmo": 8297,
      "ices": 8298,
      "ĠLis": 8299,
      "Ġconsigue": 8300,
      "Ġofen": 8301,
      "mÃ³n": 8302,
      "omi": 8303,
      "ĠHungrÃŃa": 8304,
      "Ġrival": 8305,
      "ĠPeÃ±a": 8306,
      "Ġbiblioteca": 8307,
      "Jo": 8308,
      "ĠJerusalÃ©n": 8309,
      "diana": 8310,
      "Ġaudio": 8311,
      "ĠShe": 8312,
      "ĠMarco": 8313,
      "Ġequilibrio": 8314,
      "ĠAre": 8315,
      "ĠMemor": 8316,
      "Ġgar": 8317,
      "cesis": 8318,
      "aragua": 8319,
      "Ġesfuerzo": 8320,
      "ĠOtra": 8321,
      "ĠFra": 8322,
      "Ġaquellas": 8323,
      "ĠPR": 8324,
      "emia": 8325,
      "Ġ1912": 8326,
      "Ãºst": 8327,
      "Ġ000": 8328,
      "Ġlad": 8329,
      "xima": 8330,
      "Ġtradiciones": 8331,
      "Ġcasti": 8332,
      "Ġdeca": 8333,
      "board": 8334,
      "traciÃ³n": 8335,
      "ders": 8336,
      "Ġsecuencia": 8337,
      "ade": 8338,
      "icho": 8339,
      "Ġmultitud": 8340,
      "Ġaniversario": 8341,
      "ĠIra": 8342,
      "rre": 8343,
      "ĠrealizaciÃ³n": 8344,
      "ĠmecÃ¡nica": 8345,
      "Ġindividuales": 8346,
      "ĠMediterrÃ¡neo": 8347,
      "Ġreper": 8348,
      "ĠVIII": 8349,
      "vez": 8350,
      "pira": 8351,
      "Ġtitular": 8352,
      "Ġaceler": 8353,
      "ĠhÃŃ": 8354,
      "ĠDesarrollo": 8355,
      "Ġentender": 8356,
      "MS": 8357,
      "Ġhec": 8358,
      "Ġregresar": 8359,
      "Ġgi": 8360,
      "piraciÃ³n": 8361,
      "Ġrecientes": 8362,
      "Ġpesca": 8363,
      "ĠhidrÃ³": 8364,
      "Ġsep": 8365,
      "terias": 8366,
      "ernam": 8367,
      "ĠPhil": 8368,
      "Ġferrovi": 8369,
      "ĠfÃ¡brica": 8370,
      "Ġgl": 8371,
      "ĠjurisdicciÃ³n": 8372,
      "iner": 8373,
      "ĠestÃ©": 8374,
      "Ġdesap": 8375,
      "ulari": 8376,
      "ĠAdri": 8377,
      "gon": 8378,
      "ĠemisiÃ³n": 8379,
      "ĠHernÃ¡ndez": 8380,
      "tti": 8381,
      "Ġacor": 8382,
      "Ġ120": 8383,
      "Obras": 8384,
      "Ð¾": 8385,
      "Ġnotables": 8386,
      "Ġcontienen": 8387,
      "Ġencargado": 8388,
      "Ġlegis": 8389,
      "ducciÃ³n": 8390,
      "ĠRodri": 8391,
      "Ġrol": 8392,
      "ĠAgr": 8393,
      "Ġdependiendo": 8394,
      "ĠocurriÃ³": 8395,
      "Ġalcanza": 8396,
      "Ġrusa": 8397,
      "Ġlograron": 8398,
      "Î½": 8399,
      "Ġrepresentar": 8400,
      "ĠDinamarca": 8401,
      "Ġdeportivo": 8402,
      "ĠcapÃŃtulo": 8403,
      "\"),": 8404,
      "Cultura": 8405,
      "ĠcontinÃºa": 8406,
      "ĠconsiderÃ³": 8407,
      "Ġcomprende": 8408,
      "lando": 8409,
      "ĠmarcÃ³": 8410,
      "Rec": 8411,
      "Ã±ar": 8412,
      "ĠabriÃ³": 8413,
      "Ġexam": 8414,
      "ctur": 8415,
      "ĠsirviÃ³": 8416,
      "diales": 8417,
      "ĠelectrÃ³nico": 8418,
      "ĠXIII": 8419,
      "Ġuruguay": 8420,
      "Ã¡stica": 8421,
      "segui": 8422,
      "ĠsurgiÃ³": 8423,
      "Ġproba": 8424,
      "Ġcombustible": 8425,
      "Ġrelacionado": 8426,
      "ĠFÃ³rmula": 8427,
      "ĠTy": 8428,
      "urs": 8429,
      "ĠÂ¡": 8430,
      "ĠdisposiciÃ³n": 8431,
      "Ġllegan": 8432,
      "Ġdispositivos": 8433,
      "juego": 8434,
      "arcas": 8435,
      "incl": 8436,
      "ĠatmÃ³s": 8437,
      "tÃ¡r": 8438,
      "Ġfemenino": 8439,
      "ĠRojo": 8440,
      "Ġmemb": 8441,
      "tente": 8442,
      "timologÃŃa": 8443,
      "estro": 8444,
      "Ġsupon": 8445,
      "Ġtocar": 8446,
      "lora": 8447,
      "tren": 8448,
      "Ġcontinental": 8449,
      "Ġcanta": 8450,
      "ĠasumiÃ³": 8451,
      "ĠValladolid": 8452,
      "ĠBio": 8453,
      "Ġinteg": 8454,
      "Ġalcance": 8455,
      "Ġlejos": 8456,
      "ĠFlorida": 8457,
      "ĠReina": 8458,
      "aste": 8459,
      "Ġacceder": 8460,
      "Ġatacar": 8461,
      "Ġpromul": 8462,
      "Ġmantenimiento": 8463,
      "acos": 8464,
      "Ġinsi": 8465,
      "garo": 8466,
      "Ġcinta": 8467,
      "Sal": 8468,
      "ĠStor": 8469,
      "ĠBran": 8470,
      "Ġplaya": 8471,
      "onald": 8472,
      "Ġaceite": 8473,
      "ĠPresiden": 8474,
      "jÃ³n": 8475,
      "ĠCalle": 8476,
      "Ġsupuso": 8477,
      "Ġtarje": 8478,
      "Ġatac": 8479,
      "Ġido": 8480,
      "\").": 8481,
      "leza": 8482,
      "ĠPoco": 8483,
      "Ġcristianismo": 8484,
      "Ġdom": 8485,
      "Ġnaves": 8486,
      "Ġbits": 8487,
      "ĠShi": 8488,
      "Ġindustriales": 8489,
      "ĠvegetaciÃ³n": 8490,
      "ĠHis": 8491,
      "Ã¡mico": 8492,
      "Plan": 8493,
      "1991": 8494,
      "Ġalumnos": 8495,
      "CaracterÃŃsticas": 8496,
      "ombr": 8497,
      "paÃ±as": 8498,
      "Ġirreg": 8499,
      "ĠTexto": 8500,
      "Ġgesti": 8501,
      "ĠsÃ©pti": 8502,
      "Ġigualmente": 8503,
      "ĠLive": 8504,
      "Ġdificultades": 8505,
      "ĠFilip": 8506,
      "Ġdocumental": 8507,
      "Ġcolumnas": 8508,
      "ompe": 8509,
      "ĠNaciÃ³n": 8510,
      "culares": 8511,
      "Ġprivado": 8512,
      "Ġdecisiones": 8513,
      "ĠLog": 8514,
      "Ġenviado": 8515,
      "Ġsuici": 8516,
      "Ġindividual": 8517,
      "ĠÃĹ": 8518,
      "ĠretirÃ³": 8519,
      "Ġexpon": 8520,
      "Ġingleses": 8521,
      "Ġsegundos": 8522,
      "ĠAdministraciÃ³n": 8523,
      "ĠSeguridad": 8524,
      "Ġpublica": 8525,
      "Ġagres": 8526,
      "tique": 8527,
      "PS": 8528,
      "emin": 8529,
      "Ġcondi": 8530,
      "Ġinfancia": 8531,
      "Ã³nima": 8532,
      "die": 8533,
      "Ġabsoluta": 8534,
      "Ġrin": 8535,
      "tedral": 8536,
      "ĠCuenta": 8537,
      "ĠHy": 8538,
      "ĠÃŃndice": 8539,
      "Ġtrayectoria": 8540,
      "ĠChil": 8541,
      "Ġmanus": 8542,
      "Ãºmenes": 8543,
      "Ġacord": 8544,
      "vido": 8545,
      "ĠRan": 8546,
      "Ġcompra": 8547,
      "Ġquedaron": 8548,
      "ĠBernardo": 8549,
      "Ġejemplares": 8550,
      "Ġdomingo": 8551,
      "ĠÃ³rbita": 8552,
      "Ġcorrientes": 8553,
      "ĠMonum": 8554,
      "Ġventaja": 8555,
      "Ġfueran": 8556,
      "Ã³lico": 8557,
      "rillo": 8558,
      "vaciones": 8559,
      "ĠAntes": 8560,
      "guar": 8561,
      "ĠNoruega": 8562,
      "Ġfortaleza": 8563,
      "Ġespera": 8564,
      "Ġempieza": 8565,
      "2013": 8566,
      "Ġ64": 8567,
      "Ġcostas": 8568,
      "ĠdiÃ¡metro": 8569,
      "guen": 8570,
      "Ġformal": 8571,
      "Video": 8572,
      "Ġcircuito": 8573,
      "ĠcelebrÃ³": 8574,
      "ĠTurquÃŃa": 8575,
      "ĠHill": 8576,
      "Ġtiro": 8577,
      "ĠsueÃ±o": 8578,
      "Ġresolver": 8579,
      "Ġgraves": 8580,
      "ĠGreen": 8581,
      "Ġsale": 8582,
      "ĠraÃŃces": 8583,
      "tÃŃculo": 8584,
      "Ġund": 8585,
      "ĠLy": 8586,
      "Ġdisputa": 8587,
      "Ġinforma": 8588,
      "video": 8589,
      "ariciÃ³n": 8590,
      "Debido": 8591,
      "ĠdiseÃ±ado": 8592,
      "Ġnaciones": 8593,
      "Ġosci": 8594,
      "Ġestrategia": 8595,
      "Äĩ": 8596,
      "Ġlegi": 8597,
      "Ġzar": 8598,
      "onesa": 8599,
      "Ġdieci": 8600,
      "Ġcolonias": 8601,
      "ĠhectÃ¡": 8602,
      "Qu": 8603,
      "Ġconfun": 8604,
      "Ġregu": 8605,
      "Ġjusti": 8606,
      "ille": 8607,
      "Ġentidades": 8608,
      "Ġarres": 8609,
      "Ġfantas": 8610,
      "bul": 8611,
      "tornos": 8612,
      "Ġ34": 8613,
      "ĠÃ³p": 8614,
      "Ġenfo": 8615,
      "Ġextraordin": 8616,
      "donde": 8617,
      "Ġcristal": 8618,
      "hel": 8619,
      "01": 8620,
      "Ġ38": 8621,
      "Ġfinalizar": 8622,
      "ĠRoyal": 8623,
      "ĠNÃ¡": 8624,
      "ĠautomÃ¡": 8625,
      "rial": 8626,
      "ĠAng": 8627,
      "2015": 8628,
      "AN": 8629,
      "Ġcolumna": 8630,
      "Ġdepartamentos": 8631,
      "ĠaceptÃ³": 8632,
      "Ġbudi": 8633,
      "ĠSalud": 8634,
      "ĠAudi": 8635,
      "Ġsoporte": 8636,
      "tÃ¡nica": 8637,
      "Alumnado": 8638,
      "san": 8639,
      "stem": 8640,
      "Ġcincuenta": 8641,
      "ĠHollywood": 8642,
      "Ġescapar": 8643,
      "Ġdiscur": 8644,
      "ĠromÃ¡n": 8645,
      "Ġespectadores": 8646,
      "Ġclaramente": 8647,
      "Ġexilio": 8648,
      "ĠtelÃ©": 8649,
      "ĠdepÃ³": 8650,
      "Cl": 8651,
      "ology": 8652,
      "eli": 8653,
      "Ġincluida": 8654,
      "Ġelectrones": 8655,
      "ĠJust": 8656,
      "Ġarras": 8657,
      "Ġimplica": 8658,
      "cidentes": 8659,
      "Ġconsejo": 8660,
      "edores": 8661,
      "eramente": 8662,
      "ĠCerro": 8663,
      "Ġatrib": 8664,
      "ĠoxÃŃgeno": 8665,
      "ning": 8666,
      "Ġestilos": 8667,
      "naval": 8668,
      "Ġdirigir": 8669,
      "Ġcomprome": 8670,
      "Ġprimaria": 8671,
      "Ġincluidos": 8672,
      "ĠmillÃ³n": 8673,
      "tex": 8674,
      "ĠseÃ±ales": 8675,
      "ĠcompaÃ±ero": 8676,
      "Ġneutr": 8677,
      "ĠmatemÃ¡tico": 8678,
      "Ġermita": 8679,
      "ĠantigÃ¼edad": 8680,
      "ĠColÃ³n": 8681,
      "Ġilum": 8682,
      "copa": 8683,
      "ĠTam": 8684,
      "Ġpasaron": 8685,
      "Ġpudieron": 8686,
      "MI": 8687,
      "Mad": 8688,
      "Ġsuroeste": 8689,
      "ctos": 8690,
      "ĠfrÃŃo": 8691,
      "Ġ37": 8692,
      "Ġganador": 8693,
      "Ġsexo": 8694,
      "Cas": 8695,
      "ety": 8696,
      "ĠSp": 8697,
      "Ġortodo": 8698,
      "Ġencontraron": 8699,
      "ĠacompaÃ±ado": 8700,
      "utri": 8701,
      "Ġalternativa": 8702,
      "Ġavenida": 8703,
      "polo": 8704,
      "ĠsucesiÃ³n": 8705,
      "ĠquiÃ©n": 8706,
      "Ġlectura": 8707,
      "rores": 8708,
      "ĠdurÃ³": 8709,
      "Ġmecanismo": 8710,
      "Estados": 8711,
      "ĠAÃ©rea": 8712,
      "ĠcÃ³n": 8713,
      "Ġteniente": 8714,
      "Ġinfluencias": 8715,
      "05": 8716,
      "ãĤ": 8717,
      "ĠMul": 8718,
      "ĠDre": 8719,
      "Jos": 8720,
      "enco": 8721,
      "Ġsem": 8722,
      "ĠDay": 8723,
      "Ġ75": 8724,
      "Ġadministrativa": 8725,
      "ĠMach": 8726,
      "Ġnecesaria": 8727,
      "ĠTercera": 8728,
      "Ġpone": 8729,
      "Ġempleados": 8730,
      "Ġejecutivo": 8731,
      "Ġchilena": 8732,
      "Ġconcurso": 8733,
      "Ġargument": 8734,
      "2014": 8735,
      "Ġtemporal": 8736,
      "recciÃ³n": 8737,
      "ĠMit": 8738,
      "Ġprimo": 8739,
      "ĠEscocia": 8740,
      "Ġsaque": 8741,
      "Ã¢": 8742,
      "daje": 8743,
      "Ġanima": 8744,
      "ĠInf": 8745,
      "Ġpostu": 8746,
      "fecto": 8747,
      "rum": 8748,
      "Ġservir": 8749,
      "ximi": 8750,
      "Ġeliminar": 8751,
      "Ġmercan": 8752,
      "Ġaer": 8753,
      "Ġsel": 8754,
      "Ġpasos": 8755,
      "Ã±ado": 8756,
      "Ġhipo": 8757,
      "omor": 8758,
      "Ġjuven": 8759,
      "ĠGuardia": 8760,
      "Ġliberales": 8761,
      "exi": 8762,
      "ĠPlay": 8763,
      "Ġopon": 8764,
      "Ġgalle": 8765,
      "ĠOfici": 8766,
      "ĠOeste": 8767,
      "Ġrecuer": 8768,
      "ĠibÃ©rica": 8769,
      "especi": 8770,
      "Ġhacerlo": 8771,
      "americano": 8772,
      "ĠJimÃ©nez": 8773,
      "ĠSci": 8774,
      "Ġgalard": 8775,
      "esis": 8776,
      "Ġconstituyen": 8777,
      "tificado": 8778,
      "Ġtribus": 8779,
      "talidad": 8780,
      "ĠdeclaraciÃ³n": 8781,
      "Ġdesignado": 8782,
      "ĠcatÃ³licos": 8783,
      "Ġconceptos": 8784,
      "zadas": 8785,
      "ombres": 8786,
      "dador": 8787,
      "boa": 8788,
      "Ġfrecuentes": 8789,
      "Ġintrodujo": 8790,
      "Ġamistad": 8791,
      "Dist": 8792,
      "Ġeuros": 8793,
      "ĠIsi": 8794,
      "Ġcerro": 8795,
      "fono": 8796,
      "Ð¸": 8797,
      "Ġintentos": 8798,
      "Ġpreviamente": 8799,
      "Ġtol": 8800,
      "Ġrasgos": 8801,
      "Pal": 8802,
      "ĠparÃ¡": 8803,
      "Ġcuartos": 8804,
      "Ġvariedades": 8805,
      "Ġpunta": 8806,
      "ĠcÃ©le": 8807,
      "ĠÅ": 8808,
      "Ġvive": 8809,
      "Ġobligado": 8810,
      "Ġintegrado": 8811,
      "ĠsimultÃ¡n": 8812,
      "Ġincur": 8813,
      "Ġneo": 8814,
      "ĠcÃ¡r": 8815,
      "inter": 8816,
      "Ġraza": 8817,
      "Ġleche": 8818,
      "Son": 8819,
      "ĠKir": 8820,
      "Ġtarea": 8821,
      "Ġsosp": 8822,
      "Ġpudiera": 8823,
      "ĠÃ³rganos": 8824,
      "Ġtercero": 8825,
      "ĠHerman": 8826,
      "clopedia": 8827,
      "Î¹": 8828,
      "Ġinteligencia": 8829,
      "ĠCatedral": 8830,
      "Ġlabora": 8831,
      "trans": 8832,
      "ĠEli": 8833,
      "ĠTodo": 8834,
      "sel": 8835,
      "grafÃŃas": 8836,
      "Ġdispone": 8837,
      "ela": 8838,
      "quel": 8839,
      "ĠTok": 8840,
      "Ġset": 8841,
      "ĠCerv": 8842,
      "Ġonce": 8843,
      "Ġfracaso": 8844,
      "ĠatmÃ³sfera": 8845,
      "Ġanar": 8846,
      "ĠopciÃ³n": 8847,
      "aunque": 8848,
      "Ġayuntamiento": 8849,
      "ila": 8850,
      "ĠrecuperaciÃ³n": 8851,
      "Ġemble": 8852,
      "Ġinmigrantes": 8853,
      "ĠInternational": 8854,
      "Ã³nomo": 8855,
      "cara": 8856,
      "Ġnotas": 8857,
      "toÃ±o": 8858,
      "ĠMaria": 8859,
      "1989": 8860,
      "icismo": 8861,
      "Ġrealizadas": 8862,
      "Ġasentamiento": 8863,
      "ĠFIFA": 8864,
      "Ġreform": 8865,
      "Ã³micos": 8866,
      "Ġprohi": 8867,
      "ĠfilosÃ³": 8868,
      "Ã¶r": 8869,
      "ĠColle": 8870,
      "ĠartÃŃstica": 8871,
      "ĠRum": 8872,
      "ĠConci": 8873,
      "ĠGuti": 8874,
      "dest": 8875,
      "ĠPierre": 8876,
      "ĠFuerzas": 8877,
      "ube": 8878,
      "Ġ65": 8879,
      "Ġcomenzado": 8880,
      "ĠAward": 8881,
      "Ġmito": 8882,
      "âĢĶ.": 8883,
      "ruecos": 8884,
      "Ġaustrali": 8885,
      "isto": 8886,
      "Ġrespal": 8887,
      "Ġfauna": 8888,
      "OR": 8889,
      "tta": 8890,
      "jud": 8891,
      "fonÃŃa": 8892,
      "Ġsacerdote": 8893,
      "ĠdeberÃŃa": 8894,
      "piÃ©lago": 8895,
      "Ġreserva": 8896,
      "ĠmaÃŃz": 8897,
      "ĠMoreno": 8898,
      "TE": 8899,
      "feo": 8900,
      "esper": 8901,
      "Ġsalvo": 8902,
      "Ġprincesa": 8903,
      "ĠMariano": 8904,
      "ĠmonarquÃŃa": 8905,
      "Ġnecesita": 8906,
      "Ġflo": 8907,
      "Ġrocas": 8908,
      "ĠtransformaciÃ³n": 8909,
      "Ġestuvieron": 8910,
      "ĠinstalaciÃ³n": 8911,
      "ĠCoo": 8912,
      "ĠvÃŃdeo": 8913,
      "Ġ1913": 8914,
      "Ġjuventud": 8915,
      "tha": 8916,
      "ĠmÃ¡quinas": 8917,
      "Ġmotiv": 8918,
      "Ġcarden": 8919,
      "ĠAndes": 8920,
      "ĠazÃºcar": 8921,
      "Ġnatal": 8922,
      "ĠPrÃŃncipe": 8923,
      "Ġmecan": 8924,
      "erba": 8925,
      "Ġgubernam": 8926,
      "dula": 8927,
      "ĠCorpor": 8928,
      "ĠAcu": 8929,
      "iy": 8930,
      "ĠnegÃ³": 8931,
      "Ġdisponibles": 8932,
      "span": 8933,
      "Ġmane": 8934,
      "Ġparticipantes": 8935,
      "Ġsatisfac": 8936,
      "ĠJac": 8937,
      "ĠLeague": 8938,
      "ĠGuin": 8939,
      "Ġamericano": 8940,
      "ĠsÃŃntomas": 8941,
      "Ġagra": 8942,
      "ĠexistÃŃa": 8943,
      "pÃ©": 8944,
      "ĠrÃŃ": 8945,
      "Ġviejo": 8946,
      "ĠartÃŃstico": 8947,
      "ĠBus": 8948,
      "Ġprocedentes": 8949,
      "ĠaprobÃ³": 8950,
      "Ġhorizon": 8951,
      "ĠEsteban": 8952,
      "Ġsemej": 8953,
      "Ġinterno": 8954,
      "minal": 8955,
      "ĠArturo": 8956,
      "organ": 8957,
      "Ġdelante": 8958,
      "Ġpresentado": 8959,
      "ÃŃmica": 8960,
      "mirante": 8961,
      "ĠChristi": 8962,
      "Ġaumenta": 8963,
      "enciado": 8964,
      "cita": 8965,
      "Ġisrael": 8966,
      "ĠAÃ±o": 8967,
      "Ġauxi": 8968,
      "Ġcontinua": 8969,
      "Ġagente": 8970,
      "nar": 8971,
      "Ġsocio": 8972,
      "Ġreparto": 8973,
      "aceae": 8974,
      "Ġescribe": 8975,
      "Ġpronunci": 8976,
      "ĠmatemÃ¡ticas": 8977,
      "cÃ¡": 8978,
      "Ġdebate": 8979,
      "ĠLoc": 8980,
      "Ġalberga": 8981,
      "izada": 8982,
      "Ġderrotado": 8983,
      "ĠsÃŃmbolos": 8984,
      "Ġorbi": 8985,
      "Ġfuese": 8986,
      "icios": 8987,
      "Ġvencer": 8988,
      "ĠBrown": 8989,
      "Ġsuble": 8990,
      "Ġ42": 8991,
      "viendo": 8992,
      "ĠAnte": 8993,
      "CI": 8994,
      "ĠRuta": 8995,
      "ĠAvi": 8996,
      "Ġimpresion": 8997,
      "landesa": 8998,
      "Ori": 8999,
      "Ġtareas": 9000,
      "ĠliberaciÃ³n": 9001,
      "Ġganando": 9002,
      "ernes": 9003,
      "ĠCin": 9004,
      "04": 9005,
      "erÃŃas": 9006,
      "Ġcultivos": 9007,
      "amas": 9008,
      "Ġhumanidad": 9009,
      "Ġdeportes": 9010,
      "ĠneerlandÃ©s": 9011,
      "ÃŃl": 9012,
      "ĠecuaciÃ³n": 9013,
      "Ġcolegio": 9014,
      "nie": 9015,
      "ĠJones": 9016,
      "Ġeva": 9017,
      "ĠWilliams": 9018,
      "Ġconcej": 9019,
      "Personas": 9020,
      "ablemente": 9021,
      "Ġsocialista": 9022,
      "ĠdisputÃ³": 9023,
      "ket": 9024,
      "deste": 9025,
      "Ġescritora": 9026,
      "Ġeclesi": 9027,
      "istem": 9028,
      "ĠInformaciÃ³n": 9029,
      "cht": 9030,
      "ĠinversiÃ³n": 9031,
      "ĠejÃ©rcitos": 9032,
      "Ya": 9033,
      "ĠEstaciÃ³n": 9034,
      "ĠLucas": 9035,
      "osla": 9036,
      "Ġenlace": 9037,
      "Ġdesembar": 9038,
      "DE": 9039,
      "Ser": 9040,
      "uciÃ³n": 9041,
      "ĠclÃ¡sicos": 9042,
      "Ġoccidentales": 9043,
      "Ġcapaces": 9044,
      "vencia": 9045,
      "mall": 9046,
      "ĠGib": 9047,
      "Ġultra": 9048,
      "Ġrecinto": 9049,
      "Ġza": 9050,
      "rusia": 9051,
      "Ġactuaciones": 9052,
      "ĠNicaragua": 9053,
      "onÃŃa": 9054,
      "Ġ1916": 9055,
      "Ġ600": 9056,
      "ĠCantÃ³n": 9057,
      "critos": 9058,
      "hl": 9059,
      "mico": 9060,
      "Ġpuertos": 9061,
      "irÃ¡": 9062,
      "PolÃŃticos": 9063,
      "Ġperci": 9064,
      "uertos": 9065,
      "Ġalo": 9066,
      "Ġideal": 9067,
      "Ġtrataba": 9068,
      "Ġadicional": 9069,
      "Ġconsecuencias": 9070,
      "ĠHall": 9071,
      "Ġfrase": 9072,
      "Ġboca": 9073,
      "Ġintensidad": 9074,
      "Ġorillas": 9075,
      "Ġblancos": 9076,
      "Ġham": 9077,
      "Ġalrededores": 9078,
      "ĠPueblo": 9079,
      "Ġadultos": 9080,
      "ĠinaugurÃ³": 9081,
      "Ġrevuel": 9082,
      "ĠCy": 9083,
      "Ġpuedan": 9084,
      "Ġpertenecientes": 9085,
      "ĠingenierÃŃa": 9086,
      "Ġvid": 9087,
      "Ġrar": 9088,
      "Ġtorneos": 9089,
      "Mus": 9090,
      "gena": 9091,
      "Ġcentrales": 9092,
      "Ġic": 9093,
      "ajara": 9094,
      "Ġradical": 9095,
      "Ã¡zquez": 9096,
      "Ġgrabado": 9097,
      "Ġconvirtieron": 9098,
      "eni": 9099,
      "ĠMarg": 9100,
      "Ġusada": 9101,
      "ĠindÃŃgena": 9102,
      "ulado": 9103,
      "Ã©rpre": 9104,
      "Ġcarreteras": 9105,
      "ĠinterpretÃ³": 9106,
      "Ġmezcl": 9107,
      "ĠhectÃ¡reas": 9108,
      "tain": 9109,
      "Ġdescrito": 9110,
      "ĠHarry": 9111,
      "daron": 9112,
      "Ġintenta": 9113,
      "Ġcurva": 9114,
      "ĠDirecciÃ³n": 9115,
      "ĠSir": 9116,
      "ĠdomÃ©st": 9117,
      "gorit": 9118,
      "Cab": 9119,
      "amba": 9120,
      "ĠKu": 9121,
      "Ġcomunicaciones": 9122,
      "Ġcandidatura": 9123,
      "ĠÃīl": 9124,
      "ãģ": 9125,
      "Ġrelato": 9126,
      "Ġpaisaje": 9127,
      "vina": 9128,
      "Ġsolitario": 9129,
      "mond": 9130,
      "Ġestrecho": 9131,
      "Ġintercambio": 9132,
      "ĠsoberanÃŃa": 9133,
      "Ġherramientas": 9134,
      "ĠlÃŃquido": 9135,
      "ĠCra": 9136,
      "ĠExtre": 9137,
      "Ġalfabe": 9138,
      "sur": 9139,
      "Ġmel": 9140,
      "Ġclara": 9141,
      "Ġretro": 9142,
      "laba": 9143,
      "ĠAndre": 9144,
      "ĠFried": 9145,
      "dones": 9146,
      "ĠStra": 9147,
      "ĠBaja": 9148,
      "ĠfÃ³": 9149,
      "ĠMall": 9150,
      "Ġid": 9151,
      "mmy": 9152,
      "SOE": 9153,
      "thur": 9154,
      "Ġconfirm": 9155,
      "Ġresponsabilidad": 9156,
      "Ġporcentaje": 9157,
      "ak": 9158,
      "enza": 9159,
      "ĠAdam": 9160,
      "Ġcostumbres": 9161,
      "Ġhar": 9162,
      "chill": 9163,
      "Ġdetalles": 9164,
      "%,": 9165,
      "PE": 9166,
      "ĠWhite": 9167,
      "portes": 9168,
      "isterios": 9169,
      "Ġlluvia": 9170,
      "ĠNatural": 9171,
      "ĠZona": 9172,
      "ĠmolÃ©culas": 9173,
      "Ġempat": 9174,
      "Ġroja": 9175,
      "Ġaudiencia": 9176,
      "baciones": 9177,
      "Ġeuropeas": 9178,
      "Ġautomo": 9179,
      "tander": 9180,
      "Ġdivisiones": 9181,
      "Ġanillo": 9182,
      "Ġmix": 9183,
      "ĠCompany": 9184,
      "ĠAlbert": 9185,
      "Ġconvento": 9186,
      "Ġastero": 9187,
      "Ġcelebran": 9188,
      "Ġcil": 9189,
      "ĠcampaÃ±as": 9190,
      "Ġsujeto": 9191,
      "Ġalar": 9192,
      "Ġ1911": 9193,
      "ĠdiÃ³": 9194,
      "Ġlidera": 9195,
      "Ġinvestigadores": 9196,
      "ĠelaboraciÃ³n": 9197,
      "Ġciento": 9198,
      "Ġmasas": 9199,
      "Ġnace": 9200,
      "maras": 9201,
[...]
